'<pad>'
'<EOS>'
'_'
', _'
'._'
'und_'
'der_'
'die_'
'n_'
'in_'
'-_'
'en_'
's_'
'von_'
'e_'
'den_'
'zu_'
'mit_'
'ist_'
'Sie_'
'. _'
't_'
'für_'
'auf_'
'das_'
' (_'
'des_'
'im_'
'es_'
'Die_'
'eine_'
'r_'
'ein_'
'sich_'
'er_'
') _'
'dem_'
'oder_'
'an_'
'ung_'
'werden_'
'sind_'
'nicht_'
'a_'
'als_'
'auch_'
'wird_'
'S_'
'um_'
': _'
'über_'
'aus_'
'Das_'
'einer_'
'einen_'
'dass_'
'bei_'
'o_'
'te_'
'einem_'
'nach_'
'de_'
'hat_'
'm_'
'd_'
'wie_'
'wir_'
'- _'
'können_'
'sie_'
'haben_'
'durch_'
'ten_'
'zur_'
'y_'
'zum_'
' - _'
'nur_'
'Der_'
'2_'
'wurde_'
'Hotel_'
'l_'
'the_'
'kann_'
'am_'
' "_'
'In_'
' – _'
'and_'
'/_'
'man_'
'1_'
'bis_'
'vor_'
'war_'
'g_'
'uns_'
'so_'
'dieser_'
'ungen_'
'?_'
'3_'
'ich_'
'5_'
' „_'
'!_'
'" _'
'aber_'
'Es_'
'sein_'
'noch_'
'mehr_'
'k_'
'vom_'
'sowie_'
'4_'
'diese_'
'Wir_'
'on_'
'z_'
'i_'
'eines_'
'was_'
' , _'
'wenn_'
'gibt_'
'alle_'
' ._'
'0_'
'sehr_'
')._'
' '
'le_'
'bietet_'
''_'
'unter_'
'8_'
'; _'
'9_'
'to_'
'Im_'
'Ihnen_'
'“ _'
'of_'
'6_'
'finden_'
'ch_'
'lich_'
'ihre_'
'Ihre_'
'Diese_'
'Ein_'
'seine_'
'Zeit_'
'Wenn_'
'h_'
'ng_'
'st_'
'Zimmer_'
'unsere_'
'immer_'
'la_'
'liegt_'
'ing_'
'Mit_'
'zwischen_'
'hier_'
'7_'
'keine_'
'al_'
'us_'
' _'
'gen_'
'et_'
'E_'
'x_'
'wurden_'
'Jahr_'
'B_'
'), _'
'ter_'
'is_'
':_'
'anderen_'
'Stadt_'
'Informationen_'
'neue_'
'dann_'
'chen_'
'sten_'
'se_'
',_'
'müssen_'
'unserer_'
'ne_'
'Jahren_'
'ischen_'
'diesem_'
're_'
'u_'
'zwei_'
'iert_'
'ieren_'
'ge_'
'A_'
'viele_'
'ren_'
'f_'
'sen_'
'Welt_'
'10_'
'damit_'
'da_'
'andere_'
'neuen_'
'Bahn_'
'wieder_'
'ohne_'
'ihr_'
'el_'
'che_'
'tion_'
'p_'
'gegen_'
'dieses_'
'bar_'
'Ihr_'
'00_'
'keit_'
'ab_'
'S'
'..._'
'or_'
'nen_'
'nden_'
'du_'
'ation_'
'Ihrer_'
'Eine_'
'ihren_'
'bieten_'
'P_'
'O'
'A'
'selbst_'
'ion_'
'Kunden_'
'Für_'
'seiner_'
'ische_'
'ie_'
'Daten_'
'D'
'schon_'
'Unternehmen_'
'G'
'schen_'
'lichen_'
'ihrer_'
'rn_'
'ern_'
'ed_'
'c_'
'at_'
'T_'
'Menschen_'
'Jahre_'
'C_'
'sehen_'
'denen_'
'R'
'E'
'muss_'
'Ich_'
'D_'
'waren_'
'sondern_'
'seit_'
'Seite_'
'Art_'
'allen_'
'The_'
'ns_'
'ien_'
'befindet_'
'N_'
'I'
'F'
'z'
'entfernt_'
'direkt_'
'com_'
'Und_'
'30_'
'nd_'
'Ihren_'
'Bei_'
'einfach_'
'b_'
'Lage_'
'sch_'
'igen_'
'gut_'
'T'
'K'
'ste_'
'liche_'
'geben_'
'ben_'
'M'
'L_'
'während_'
'viel_'
'ige_'
'erhalten_'
'beim_'
'Hotels_'
'% _'
'ur_'
'ersten_'
'Nach_'
'Land_'
' & _'
'stellen_'
'kommen_'
'etwas_'
'cht_'
'Seiten_'
'M_'
'wo_'
'ngen_'
'jedoch_'
'it_'
'ca_'
'be_'
'O_'
'Dies_'
'Aber_'
'deren_'
'as_'
'Verfügung_'
'R_'
'm'
'fen_'
'd'
'ce_'
'Vor'
'&_'
'�_'
'sollte_'
'se'
'möchten_'
'ken_'
'ganz_'
'g'
'I_'
'Er_'
'Entwicklung_'
'möglich_'
'ig_'
'gt_'
'einige_'
'diesen_'
'der'
'aller_'
'U'
'Na'
'Möglichkeit_'
'Als_'
'Alle_'
'15_'
'(_'
'unseren_'
'pro_'
'machen_'
'hatte_'
'erste_'
'alten_'
'Website_'
'USA_'
'Produkte_'
'Hier_'
'Co'
'2009_'
'stehen_'
'heute_'
'ens_'
'um'
'os_'
'nehmen_'
'lassen_'
'f'
'Zu'
'Software_'
'J'
'Bereich_'
'B'
'tra'
'ne'
'nde_'
'na_'
'jetzt_'
'erreichen_'
'em_'
'ein'
'bereits_'
'Service_'
'N'
'Internet_'
'Auf_'
'Arbeits'
'000_'
'verfügt_'
'seinen_'
'jeder_'
'ins_'
'etwa_'
'all_'
'Version_'
'V'
'Teil_'
'Pa'
'Nähe_'
'G_'
'Auch_'
'100_'
'ta'
'sogar_'
'me_'
'macht_'
'hen_'
'heit_'
'großen_'
'führen_'
'dies_'
'dabei_'
'V_'
'System_'
'Ort_'
'20_'
'weiter_'
'steht_'
'kein_'
'ert_'
'ar'
'X_'
'W'
'Blick_'
'Auf'
'50_'
'12_'
'sche_'
'nun_'
'len_'
'igkeit_'
'Uhr_'
'Ma'
'L'
'F_'
'24_'
'à_'
'zusammen_'
'v'
'ob_'
'nt_'
'n'
'mal_'
'la'
'habe_'
'allem_'
'\u_'
'Un'
'unserem_'
'sta'
'so'
'ke_'
'internationalen_'
'fast_'
'dort_'
'alles_'
'al'
'U_'
'Ne'
'Mail_'
'Ihrem_'
'Europa_'
'Deutschland_'
'C'
'un'
'rt_'
'per_'
'na'
'ment_'
'll'
'ler_'
'k'
'ir'
'hin_'
'ent'
'eigenen_'
'dazu_'
'ck_'
'ar_'
'Um_'
'To'
'Restaurant_'
'Geschichte_'
'Ende_'
'2010_'
' [[_'
'é'
'unser_'
'tu'
'sollten_'
'pa'
'ly_'
'große_'
'Wie_'
'Po'
'4'
' ..._'
'v_'
'ss'
'p'
'onen_'
'ihnen_'
'gehen_'
'findet_'
'di_'
'ber'
'b'
'Sta'
'Qualität_'
'Ländern_'
'IN'
'и'
'stellt_'
'ss_'
'innerhalb_'
'eren_'
'enden_'
'davon_'
'bo'
'Unsere_'
'Tri'
'P'
'La_'
'Kinder_'
'H'
'Dieses_'
'Beispiel_'
'Bahnhof_'
'Ab'
'18_'
'’_'
'ä'
'zeit_'
'with_'
'verschiedenen_'
've_'
'pi'
'km_'
'jeden_'
'ger_'
'for_'
'ende_'
'du'
'ad'
'Z'
'Se'
'Me'
'Lo'
'K_'
'Ha'
'Arbeit_'
'0'
'é_'
'ßen_'
'zi'
'weil_'
'w'
'vor'
'vi'
'un_'
't'
'soll_'
'lu'
'kommt_'
'ik_'
'entwickelt_'
'eigene_'
'besteht_'
'ab'
'a'
'Unter'
'Ti'
'Minuten_'
'Liste_'
'Fall_'
'Fa'
'Da'
'Über'
'y'
'weit_'
'ter'
'te'
'rund_'
'no'
'nach'
'lle_'
'hotel_'
'ho'
'ent_'
'end_'
'e'
'di'
'beiden_'
'Ziel_'
'Wasser_'
'So_'
'Sa'
'Le'
'Gra'
'7'
'16_'
'würde_'
'wollen_'
'w_'
'sowohl_'
'om'
'mm'
'ia_'
'ft_'
'dessen_'
'de'
'dafür_'
'da'
'cher_'
'che'
'besonders_'
'arbeiten_'
'ak'
'Server_'
'Ro'
'Recht_'
'Preis_'
'No'
'Haus_'
'Haupt'
'Gi'
'2007_'
'wa'
'tri'
'ten'
'schnell_'
'ren'
'ou'
'mich_'
'ko'
'il'
'ihn_'
'geht_'
'ei'
'bitte_'
'also_'
'Zi'
'Weise_'
'Unterstützung_'
'So'
'Re'
'Programm_'
'Neu'
'Mo'
'Lu'
'Leben_'
'Kon'
'Fe'
'Fach'
'Erfahrung_'
'Durch_'
'11_'
'", _'
' / _'
'ör'
'är'
'Ä'
'zahlreiche_'
'weitere_'
'vielen_'
'ungs'
'ser'
'schaft_'
'san'
'rs_'
'ri'
'nis_'
'ner_'
'men_'
'lä'
'letzten_'
'ierte_'
'i'
'her'
'halten_'
'gilt_'
'eu'
'ers_'
'ermöglicht_'
'darauf_'
'chen'
'ang_'
'abge'
'Zentrum_'
'Süd'
'Mi'
'Länder_'
'Ju'
'Hand'
'Bo'
' -_'
'xi'
'x'
'welche_'
'verwendet_'
'uf'
'tät_'
'tun_'
'tre'
'ol'
'nz'
'ns'
'meisten_'
'man'
'lo'
'land_'
'l'
'könnte_'
'ierung_'
'hn'
'erst_'
'el'
'eh'
'eben_'
'co_'
'by_'
'bekannt_'
'anzu'
'W_'
'Verbindung_'
'Produkt'
'Personen_'
'Namen_'
'He'
'Go'
'Form_'
'Doch_'
'Do'
'China_'
'Bild_'
'Auswahl_'
'9'
'13_'
'о'
'ö'
'í'
'ät_'
'ß_'
'verschiedene_'
'to'
'rung_'
'raum_'
'que_'
'pf'
'on'
'nd'
'ma'
'lt_'
'leicht_'
'lang_'
'ität_'
'isch_'
'ionen_'
'ht'
'gegenüber_'
'elle_'
'ele'
'einge'
'do'
'bzw_'
'au_'
'au'
'age_'
'] _'
'Windows_'
'Ver'
'Umgebung_'
'US_'
'Preise_'
'Online_'
'Musik_'
'Mar'
'Lin'
'Bitte_'
'Ba'
'Auto'
'Ar'
'Am_'
'Adresse_'
'18'
'ur'
'tz'
'tes_'
'spielen_'
'sa'
'room_'
'op'
'nutzen_'
'ms_'
'is'
'int'
'ht_'
'gemacht_'
'ge'
'führt_'
'fe'
'eri'
'einmal_'
'denn_'
'c'
'auf'
'ap'
'Y'
'X'
'Tag_'
'Sol'
'Li'
'Hilfe_'
'Hi'
'Bild'
'Ber'
'Be'
'Bau'
'Bar_'
'е'
'worden_'
'wohl_'
'we'
'very_'
'uss_'
'ster'
'ssen_'
'sicher_'
'nz_'
'nt'
'ma_'
'leben_'
'il_'
'icht_'
'erung_'
'ep'
'eg'
'ck'
'befinden_'
'anderer_'
'Wein'
'Wei'
'Urlaub_'
'Ste'
'Partner_'
'Markt_'
'Jahrhundert_'
'Geschäfts'
'Fu'
'Firma_'
'Du'
'Da_'
'Bi'
'Berlin_'
'Artikel_'
'198'
'über'
'ü'
'zu'
'weniger_'
'verstehen_'
'verbunden_'
'unterstützt_'
'unter'
'the'
're'
'r'
'per'
'neben_'
'ls_'
'lis'
'insbesondere_'
'größte_'
'eil'
'drei_'
'daß_'
'bu'
'bringen_'
'bare_'
'aus'
'allerdings_'
'Von_'
'Vi'
'Suche_'
'Ri'
'Q'
'Millionen_'
'Meer_'
'Landes_'
'Kosten_'
'Gästebewertungen_'
'Fest'
'Euro_'
'De'
'Berg'
'Al'
'Ad'
'21_'
'15'
'14_'
' ( _'
'wenig_'
'weltweit_'
'ts_'
'setzen_'
'ph'
'ow'
'ommen_'
'nk'
'nf'
'nahe_'
'mus'
'liegen_'
'les_'
'ja_'
'ig'
'ic_'
'hoch'
'historischen_'
'hin'
'h'
'go_'
'gen'
'ganze_'
'frei_'
'ff'
'fahren_'
'en'
'ebenso_'
'com'
'ber_'
'baren_'
'an'
'aktuellen_'
'ag_'
'Web_'
'Wa'
'Unser_'
'Tra'
'TV_'
'Su'
'Sicherheits'
'San_'
'Nach'
'Möglichkeiten_'
'Musik'
'Mitarbeiter_'
'Ko'
'Ki'
'Gäste_'
'Gu'
'Fragen_'
'Er'
'Design_'
'Des'
'DI'
'Au'
'2008_'
'ür'
'äu'
'|_'
'zwar_'
'zeit'
'wirklich_'
'weise_'
'ver_'
'uti'
'unver'
'tte_'
'ste'
'seinem_'
'ro'
'ris'
'ra_'
'one_'
'mor'
'lichkeit_'
'lange_'
'je_'
'ihrem_'
'ier'
'hohe_'
'her_'
'größten_'
'gi'
'genau_'
'fi'
'bringt_'
'bi'
'besch'
'as'
'are_'
'ale_'
']] _'
'Zu_'
'Was_'
'Spiel_'
'Regierung_'
'Pu'
'Privat'
'Post'
'Lebens'
'Gesellschaft_'
'Gebäude_'
'Frühstück_'
'Datei_'
'500_'
'25_'
' “_'
'т'
'ze'
'ys'
'us'
'tet_'
'su'
'solche_'
'rn'
'rk'
'pro'
'ppen_'
'platz_'
'oren_'
'nn'
'ni'
'mo'
'mar'
'lässt_'
'llen_'
'licher_'
'jeweiligen_'
'insgesamt_'
'ide'
'hr'
'haus_'
'gerne_'
'fu'
'fin'
'erk'
'ed'
'ec'
'ebenfalls_'
'ds_'
'doch_'
'dis'
'deutschen_'
'daher_'
'ct'
'chten_'
'ce'
'car'
'bri'
'bleibt_'
'besten_'
'bereich_'
'ba'
'ausge'
'ans'
'Weg_'
'Verein'
'Team_'
'Strand_'
'SI'
'Ru'
'Restaurants_'
'Prozent_'
'Projekt_'
'Problem_'
'Person_'
'Neben_'
'Man'
'Lang'
'LA'
'Hoch'
'Ho'
'En'
'EN_'
'Dieser_'
'Car'
'Bar'
'Bad_'
'Anzahl_'
'An_'
'23'
'13'
'12'
'11'
'10'
'-, _'
'%'
'öffentlichen_'
'ziehen_'
'zen_'
'wi'
'wei'
'vier_'
'verein'
've'
'unseres_'
'ul'
'ug'
'statt_'
'sse_'
'sofort_'
'sk'
'si'
'or'
'no_'
'nb'
'me'
'los_'
'jedem_'
'indem_'
'ihm_'
'ie'
'ha'
'ger'
'ex'
'ert'
'enti'
'enthält_'
'ell'
'eb'
'ci'
'automatisch_'
'ausgestattet_'
'Zusammenarbeit_'
'Zukunft_'
'Wirtschafts'
'Stu'
'Site_'
'Ra'
'Produktion_'
'Pra'
'Platz_'
'NE'
'Küche_'
'Kultur_'
'Ke'
'Kar'
'Je'
'Ja'
'Hotel'
'Herzen_'
'Größe_'
'Gruppe_'
'Geb'
'Frage_'
'Finanz'
'Den_'
'Ca'
'CH'
'Bu'
'Aus'
'Ant'
'Angebot_'
'An'
'AG_'
'199'
'17'
'"_'
'” _'
'® _'
'zurück_'
'zimmer_'
'weiteren_'
'we_'
'wahr'
'verg'
'tionen_'
'th_'
'stu'
'st'
'ssi'
'scher_'
'sbe'
'reich'
'rat'
'po'
'ort_'
'ona'
'oft_'
'od'
'neu_'
'mp'
'mer'
'len'
'könnten_'
'ker'
'keinen_'
'kam_'
'jedes_'
'jede_'
'iv_'
'ink'
'ierten_'
'he_'
'gef'
'fa'
'end'
'eins'
'dra'
'co'
'ch'
'ble_'
'bel'
'ad_'
'[_'
'Zugang_'
'Zeit'
'West'
'Val'
'VI'
'Tage_'
'Stunden_'
'Steuer'
'Staats'
'Schlusselwortern_'
'Produkt_'
'Ober'
'Nutzung_'
'National'
'LE'
'Ku'
'Inter'
'Installation_'
'Gen'
'Gast'
'Ga'
'Funktion_'
'Film_'
'Elektro'
'Daten'
'Bedeutung_'
'2006_'
'2004_'
'19_'
'. '
', '
' | _'
' : _'
'с'
'в'
'üh'
'ß'
'ya'
'www_'
'will_'
'verfügen_'
'tur'
'tt'
'ts'
'ry_'
'rr'
'ret'
'qui'
'pre'
'politischen_'
'oben_'
'mi'
'lit'
'ler'
'lei'
'ku'
'kt_'
'kleinen_'
'ker_'
'kannst_'
'ive_'
'in'
'hier'
'hatten_'
'han'
'gh'
'gesch'
'gel'
'gehören_'
'gegeben_'
'gal'
'etc_'
'ea'
'del'
'chi'
'ca'
'bleiben_'
'bekommen_'
'ationen_'
'all'
'ai'
'ag'
'Wert'
'Thema_'
'Ta'
'TA'
'Rep'
'Rechts'
'Rahmen_'
'Pe'
'Markt'
'Mag'
'In'
'Homepage_'
'Gesamt'
'Familie_'
'Energie'
'ER_'
'Dis'
'Dienstleistungen_'
'Del'
'CD_'
'Bri'
'Bahn'
'BI'
'Außerdem_'
'At'
'Ac'
'AR'
'60_'
'+_'
'! _'
' ) _'
'á'
'zusammen'
'voll_'
'vielleicht_'
'uni'
'ums'
'u'
'tten_'
'tan'
'system_'
'sw'
'stre'
'stra'
'sto'
'sicher'
'ru'
'rei'
'ob'
'nti'
'nie_'
'nde'
'möchte_'
'mon'
'moderne_'
'mir_'
'mehrere_'
'mann_'
'kö'
'ki'
'ine'
'ic'
'handelt_'
'gs'
'gre'
'go'
'genießen_'
'gem'
'ged'
'ga'
'from_'
'euch_'
'es'
'ermöglichen_'
'erm'
'dar_'
'cken_'
'cha'
'besser_'
'ani'
'ac'
'Viel'
'Um'
'Sport'
'Speicher'
'Sie'
'Seit_'
'Pi'
'Or'
'Macht_'
'MA'
'La'
'Kur'
'Kunst_'
'Kunden'
'Karte_'
'Jo'
'Grund'
'GmbH_'
'Flughafen_'
'EU_'
'Damit_'
'Computer_'
'Aus_'
'Aufenthalt_'
'Anforderungen_'
'> _'
'40_'
'25'
'200_'
'16'
' '_'
'н'
'zeug'
'zeigt_'
'xe'
'wählen_'
'wegen_'
'verwenden_'
'verb'
'unbe'
'trans'
'tions'
'stelle_'
'stadt_'
'sin'
'sc'
'rg'
'rec'
'rd_'
'rag'
'pu'
'par'
'online_'
'nisse_'
'nichts_'
'ngs'
'mu'
'meine_'
'mehr'
'le'
'lang'
'kten_'
'konnte_'
'ke'
'ja'
'j'
'ichten_'
'ia'
'hol'
'hi'
'he'
'gleich'
'gemeinsam_'
'fer'
'europäischen_'
'enz'
'einzelnen_'
'ds'
'chte_'
'cht'
'bes'
'auszu'
'aufge'
'art'
'angezeigt_'
'Wohn'
'Woche_'
'Welt'
'Vo'
'UN'
'Standard_'
'Stadt'
'Sicherheit_'
'September_'
'Schweiz_'
'Sal'
'Rolle_'
'Richtung_'
'Ren'
'RI'
'Pro'
'Plat'
'PC_'
'Natur'
'Nachfolgend_'
'Mer'
'MI'
'Lösungen_'
'Luft'
'Komfort_'
'Internet'
'Her'
'H_'
'Grund_'
'Fü'
'Fla'
'Di'
'Dank_'
'Dabei_'
'Cu'
'CO'
'Am'
'2'
'14'
') '
'"._'
'üt'
'zuf'
'zo'
'yl'
'wäre_'
'wer'
'weg'
'verfügbar_'
'ut_'
'ut'
'tt_'
'tragen_'
'tat'
'spe'
'sorgen_'
'sicht'
'sen'
'sei_'
'schöne_'
'rm'
'rit'
'rie'
'reichen_'
'pp'
'politische_'
'os'
'ort'
'ons_'
'one'
'o'
'not_'
'mm_'
'ip'
'ine_'
'icher'
'hl'
'heißt_'
'gute_'
'gu'
'gleichen_'
'gerade_'
'gelegen_'
'gabe_'
'flo'
'erfolgt_'
'erf'
'ere_'
'er'
'ens'
'ech'
'do_'
'bin'
'bet'
'benutzt_'
'bei'
'beg'
'bedeutet_'
'bed'
'assen_'
'ander'
'Zug'
'Za'
'Wi'
'Wer_'
'Web'
'Wasser'
'Ur'
'Tre'
'Stelle_'
'Staaten_'
'St_'
'Sprache_'
'Spe'
'Ski'
'See'
'Sat'
'Rück'
'Reise'
'Rei'
'Region_'
'RE'
'Port'
'Museum_'
'Multi'
'Mittel'
'Man_'
'Mai_'
'Lösung_'
'Inhalte_'
'Har'
'Hand_'
'Ger'
'GE'
'Eins'
'Ein'
'Debian_'
'Dateien_'
'Cor'
'Chi'
'Bru'
'Bre'
'Bes'
'Bei'
'Bef'
'Bedingungen_'
'Anti'
'8'
'300_'
'22'
'2005_'
'... _'
'.'
'„_'
'“, _'
'–_'
'р'
'öl'
'Über_'
'zwei'
'zuge'
'zug'
'wichtigsten_'
'were_'
'wenige_'
'verk'
'ven'
'ust'
'up_'
'tung_'
'tp'
'tag'
'suchen_'
'sieht_'
'serviert_'
'service_'
'schi'
'rück'
'ron'
'richtig_'
'ric'
'rb'
'ran'
'ra'
'qualität_'
'pl'
'pen_'
'pe'
'pat'
'oo'
'oli'
'og'
'nier'
'ner'
'mit'
'mb'
'll_'
'li'
'kt'
'kra'
'ket'
'keiten_'
'kehr'
'itte'
'io'
'ihres_'
'hoch_'
'heiten_'
'hei'
'gestellt_'
'gehört_'
'fil'
'fach'
'ete_'
'ere'
'era'
'ehen_'
'del_'
'deck'
'daten_'
'daran_'
'comp'
'col'
'cin'
'cher'
'benutzen_'
'ben'
'bek'
'beispielsweise_'
'aufgrund_'
'ati'
'ate'
'ami'
'agen_'
'af'
'Y_'
'Wissen_'
'Vielzahl_'
'Video'
'Veranstaltungen_'
'Unter_'
'The'
'TO'
'TI'
'TE'
'Spiel'
'Sou'
'Ros'
'Res'
'Rad'
'RO'
'Projekte_'
'Probleme_'
'Preis'
'Politik_'
'Ph'
'Pan'
'Ni'
'März_'
'Mitte_'
'Mit'
'London_'
'Lauf'
'Kunst'
'Is'
'Hu'
'Heute_'
'Handels'
'Gri'
'Gebiet_'
'Funktionen_'
'Frei'
'Frankreich_'
'Fra'
'For'
'Flug'
'ER'
'Direkt'
'Dar'
'Cha'
'Ce'
'Can'
'Buch'
'Bilder_'
'Benutzer_'
'Basis_'
'Art'
'Anwendungen_'
'Anfang_'
'22_'
'08_'
'' _'
'"'
'– _'
'а'
'ändern_'
'äge_'
'zurück'
'zeigen_'
'zei'
'wissen_'
'wenden_'
'wan'
'vis'
'verl'
'verd'
'ver'
'usi'
'ura'
'ue_'
'tzen_'
'tol'
'tischen_'
'ting_'
'ti'
'ta_'
'steuer'
'ster_'
'speziell_'
'sp'
'son'
'sol'
'schli'
'rt'
'res'
'recht_'
'persönlichen_'
'ori'
'oi'
'nten_'
'nta'
'ng'
'nder_'
'nahme_'
'mü'
'mindestens_'
'mein_'
'lten_'
'lt'
'line'
'lat'
'lar'
'kostenlos_'
'kosten_'
'konnten_'
'ki_'
'kal'
'itt'
'iti'
'im'
'igung_'
'ideal_'
'ib'
'hu'
'hohen_'
'gleichzeitig_'
'gl'
'get'
'geo'
'genannt_'
'gemein'
'ffe'
'ff_'
'ev'
'eth'
'erstellen_'
'ers'
'erlaubt_'
'enthalten_'
'ene_'
'ell_'
'einzu'
'einzige_'
'ege'
'dro'
'drei'
'deut'
'chtig'
'chs'
'cho'
'can'
'bre'
'berühmten_'
'bem'
'barkeit_'
'az'
'aufzu'
'angeboten_'
'ali'
'aft_'
'Zur_'
'Zeitpunkt_'
'Ze'
'Während_'
'Wochen_'
'Wirtschaft_'
'Wann_'
'Villa_'
'Viele_'
'Verk'
'Tu'
'Terrasse_'
'Systeme_'
'Stand_'
'Stadtzentrum_'
'Sk'
'Scho'
'Scha'
'SE'
'Rhein_'
'Pri'
'Pala'
'Pal'
'Mu'
'Motor'
'Mon'
'Maßnahmen_'
'Mal_'
'Lei'
'Le_'
'Land'
'Kurs'
'Kredit'
'Kontrolle_'
'Kla'
'Kat'
'Ka'
'Juni_'
'Interesse_'
'Gew'
'Falls_'
'Exp'
'Ex'
'Erd'
'End'
'El'
'Ebene_'
'EUR_'
'EM'
'Durch'
'Dienst'
'DA'
'Ci'
'CA'
'Bra'
'Bon'
'Bezug_'
'Besuch_'
'Besch'
'Bereiche_'
'Bal'
'BE'
'Auto_'
'90_'
'6'
'30'
'21'
'197'
') (_'
' [_'
' . _'
'м'
'übernachten_'
'Änderungen_'
'zweiten_'
'zen'
'ze_'
'yn'
'wichtige_'
'wert_'
'wert'
'welcher_'
'weg_'
'ware_'
'verkauf'
'utz'
'uns'
'unge'
'ums_'
'ug_'
'ub'
'treffen_'
'ther'
'that_'
'tel'
'teilen_'
'teil'
'stri'
'sti'
'stein'
'stark_'
'staff_'
'sse'
'später_'
'seines_'
'schau'
'sagen_'
'sa_'
'rä'
'richtigen_'
'rep'
'rau'
'que'
'ps_'
'programm_'
'pol'
'plan'
'ot_'
'ok'
'nung_'
'nu'
'nte_'
'nei'
'natürlich_'
'nationalen_'
'mä'
'min'
'mer_'
'ment'
'men'
'mach'
'lung_'
'lla'
'lie'
'leichte'
'lagen_'
'kleine_'
'ken'
'kat'
'kas'
'ka_'
'ju'
'je'
'ite'
'it'
'isten_'
'inde'
'ile'
'id_'
'hrt_'
'hinaus_'
'herunter'
'helfen_'
'haften_'
'guten_'
'gung_'
'größere'
'großer_'
'gra'
'globalen_'
'gleich_'
'getr'
'ganzen_'
'falls_'
'et'
'erreicht_'
'ero'
'ern'
'erb'
'entwickeln_'
'enta'
'enen_'
'ena'
'els_'
'eingerichtet_'
'einfache_'
'ef'
'durch'
'bung_'
'bt_'
'bevor_'
'beste_'
'beste'
'best'
'att'
'ass'
'ara'
'ach_'
'ach'
'Z_'
'Webseite_'
'Wal'
'Vor_'
'Video_'
'Verwendung_'
'Verg'
'Va'
'Unterkategorien_'
'Ton'
'Test'
'Tan'
'Standard'
'Sommer_'
'Selbst'
'Sehenswürdigkeiten_'
'Schw'
'Rest'
'Regierungen_'
'Rec'
'RA'
'Produkten_'
'Position_'
'Play'
'Paris_'
'PA'
'New_'
'Net'
'Mil'
'Lau'
'Klein'
'Insel_'
'Immobilien'
'IT_'
'Höhe_'
'Hauptstadt_'
'Geschmack_'
'Führung_'
'Fre'
'Film'
'Eu'
'Erf'
'Em'
'Einsatz_'
'Einb'
'ES'
'Druck'
'Dra'
'Dan'
'Com'
'Christ'
'Char'
'Bro'
'Bew'
'Betr'
'Besucher_'
'Ben'
'Beginn_'
'Ap'
'All'
'Aktivitäten_'
'Ak'
'Absch'
'AU'
'AL'
'80_'
'70_'
'31'
'). _'
')'
' ('
'л'
'ün'
'ück'
'ös'
'öh'
'è'
'zis'
'za'
'wor'
'wichtig_'
'werk_'
'welches_'
'wand'
'versa'
'vern'
'val'
'ute_'
'uer'
'tru'
'traditionellen_'
'ton_'
'tisch_'
'tis'
'th'
'teilweise_'
'technische_'
'struktur'
'stil'
'stell'
'sre'
'spa'
'sn'
'siehe_'
'schützen_'
'sal'
'rte_'
'rma'
'ring'
'punkt_'
'pri'
'prach'
'paar_'
'ont'
'ond'
'nst'
'nischen_'
'neues_'
'neu'
'nes'
'nen'
'nam'
'mus_'
'modernen_'
'mestre_'
'mat'
'lü'
'log'
'lin_'
'legt_'
'ks'
'kol'
'kan'
'jo'
'iso'
'ins'
'informieren_'
'imm'
'iger_'
'ies_'
'iel'
'id'
'ich'
'hm'
'heraus'
'handel'
'good_'
'gez'
'gesetz'
'genommen_'
'geeignet_'
'gar'
'gab_'
'funktion'
'fs'
'fragen_'
'fort'
'form'
'fläche_'
'fla'
'ffer'
'fel'
'ete'
'esta'
'est_'
'erzeug'
'erkennen_'
'erh'
'eo'
'entdecken_'
'enn'
'eln_'
'ede'
'don'
'dien'
'dd'
'darunter_'
'con'
'cas'
'cal'
'bra'
'bla'
'bl'
'bew'
'bestehen_'
'benötigen_'
'bar'
'bal'
'ausführ'
'art_'
'app'
'ange'
'ande'
'alte_'
'acht_'
'Wir'
'Wegen_'
'War'
'Ve'
'Super'
'Sub'
'Stil_'
'Stat'
'Schlaf'
'Sam'
'SP'
'Rezeption_'
'Reise_'
'Rat_'
'Projekt'
'Programm'
'Produktions'
'Pap'
'Nur_'
'Natur_'
'Motiv'
'Mitglieder_'
'Marc'
'Main_'
'Leg'
'Landschaft_'
'Körper_'
'Kä'
'Kontakt_'
'Kont'
'Klima'
'Jahres_'
'International_'
'Ins'
'Informations'
'IS'
'Hol'
'Hin'
'Herstellung_'
'Hei'
'Großbritannien_'
'Groß'
'Gleich'
'Gerichte_'
'Früh'
'Freunde_'
'Fo'
'Ferien'
'Europas_'
'Et'
'Ergebnisse_'
'Ele'
'Dol'
'DE'
'Con'
'Comm'
'Club_'
'Bek'
'Behandlung_'
'Bas'
'Bade'
'Angst_'
'Aktien'
'Ag'
'AS'
': '
'23_'
'196'
'* _'
' ... _'
'”._'
'“'
'übernehmen_'
'ón_'
'ñ'
'î'
'äl'
'ähr'
'äg'
'â'
'zurückge'
'zentrum_'
'zeiten_'
'zahlreichen_'
'zahlen_'
'ym'
'ye'
'wu'
'wirtschaft_'
'werke_'
'vertreten_'
'vergleich'
'uz'
'ure_'
'up'
'unten_'
'und'
'una_'
'ua'
'tz_'
'too'
'tlich_'
'sur_'
'ständ'
'stoff'
'station_'
'sollen_'
'senden_'
'sel'
'schönen_'
'schutz_'
'sche'
'sch'
'sau'
'rweise_'
'ro_'
'rig'
'ress'
'recht'
'raf'
'prä'
'pot'
'port'
'person'
'ov'
'oti'
'orm'
'order'
'normale'
'nom'
'nnen_'
'nis'
'nie'
'net_'
'nc'
'möglichkeiten_'
'mittel'
'meist_'
'medi'
'links_'
'lin'
'lesen_'
'lde'
'kun'
'kor'
'kennen_'
'kel'
'jet'
'ist'
'ischer_'
'inter'
'integrierte'
'indung_'
'ina'
'heits'
'ging_'
'gek'
'gang_'
'fte_'
'frei'
'for'
'folgenden_'
'fo'
'ey_'
'ew'
'etz'
'erwarten_'
'erne'
'erl'
'erhältlich_'
'env'
'entsprechend_'
'empf'
'em'
'eite'
'einschließlich_'
'einb'
'eigen'
'echte'
'durchs'
'dung_'
'dri'
'dic'
'deutlich_'
'des'
'deine_'
'darin_'
'dan'
'cor'
'con_'
'cio'
'bs'
'bon'
'bisher_'
'bis'
'bez'
'bereit_'
'beh'
'be'
'bahn'
'ausw'
'at'
'asi'
'ant_'
'ank'
'aktuelle_'
'Zum_'
'Zimmern_'
'Wu'
'Will'
'Verl'
'Vergangenheit_'
'Uns'
'Univers'
'Umwelt'
'UR'
'Text'
'Sä'
'Systems_'
'Syn'
'Straße_'
'Star_'
'Sport_'
'Spieler_'
'Spanien_'
'Sonnen'
'Son'
'Si'
'Services_'
'Sch'
'Reihe_'
'Rat'
'Prä'
'Prozess_'
'Per'
'Park_'
'On'
'Nicht_'
'Nacht'
'NS'
'Mus'
'Menge_'
'Medien_'
'Medi'
'Mal'
'Krise_'
'Krieg_'
'Kre'
'Konferenz'
'Komp'
'Klicken_'
'Kau'
'Kap'
'Jedes_'
'II_'
'HA'
'Gruppen_'
'Gott_'
'Google_'
'Gl'
'Gesundheit_'
'Geld_'
'Ged'
'Fuß_'
'Frauen_'
'Firmen'
'Fi'
'Farb'
'FI'
'Entwicklungs'
'Entw'
'Einkaufs'
'Einige_'
'Dusche_'
'Du_'
'Cr'
'Cont'
'Ch'
'Bus_'
'Bundes'
'Buchung_'
'Buch_'
'Betriebs'
'Beim_'
'Bank'
'Autor'
'Ausstellung_'
'April_'
'Ank'
'Alp'
'Abs'
'75_'
'5'
'2003_'
'194'
'192'
'$'
'“._'
'к'
'üll'
'öt'
'örder'
'öffentlich'
'å'
'äum'
'ätze_'
'zentrale_'
'zar'
'ys_'
'wä'
'work_'
'wobei_'
'wo'
'well'
'war'
'vie'
'versucht_'
'verst'
'vergangenen_'
'uter'
'usw_'
'use'
'usch'
'unterstützen_'
'ungs_'
'ue'
'uck_'
'ucht'
'tti'
'tro'
'tori'
'tie'
'tic'
'teile_'
'technischen_'
'tar'
'tag_'
'sä'
'sver'
'sst'
'spiele_'
'spiegel'
'sou'
'sm'
'sichere'
'sge'
'setzt_'
'sem'
'schwer_'
'schwe'
'schu'
'schm'
'scha'
'sb'
'ré'
'reicht_'
'ref'
'rdi'
'rde'
'rd'
'rc'
'ras'
'ral'
'politik_'
'para'
'pan'
'out_'
'ot'
'ost'
'oss'
'ose_'
'obwohl_'
'nit'
'nische_'
'nge'
'ndig'
'mö'
'mitten_'
'mil'
'merk'
'mel'
'logische'
'location_'
'lk'
'lia'
'lg'
'let'
'leg'
'leb'
'ld'
'laden_'
'kün'
'kurzen_'
'kosten'
'komplett_'
'kenn'
'kaum_'
'kap'
'junge'
'jeweils_'
'ira'
'ions'
'inklusive_'
'imp'
'igt_'
'ied'
'iden'
'ida'
'hü'
'hör'
'hält_'
'hren_'
'hor'
'hel'
'hea'
'have_'
'gs_'
'groß'
'gn'
'gg'
'gewe'
'gew'
'gesamten_'
'ges'
'genug_'
'gener'
'fü'
'eten_'
'eta'
'essen_'
'ess'
'erten_'
'erte'
'erre'
'erklärt_'
'erg'
'enz_'
'entl'
'ende'
'ema'
'elt_'
'elektronische'
'ek'
'eit_'
'eher_'
'ee'
'dliche'
'deshalb_'
'den'
'dem'
'darüber_'
'dank_'
'cou'
'chte'
'chl'
'bin_'
'betr'
'benötigt_'
'beide_'
'bau'
'bad_'
'atz_'
'ate_'
'angeh'
'angeb'
'anderem_'
'am'
'alte'
'ade'
'abzu'
'abwe'
'Wählen_'
'Wunsch_'
'Wol'
'Wo'
'Wieder'
'Werte_'
'Weiter'
'Wahl_'
'WC_'
'Voll'
'Vir'
'Veränderungen_'
'Versuch'
'Verst'
'Universität_'
'Trans'
'Themen_'
'Th'
'Te'
'Stre'
'Strand'
'Stor'
'Sp'
'See_'
'Schutz_'
'Schu'
'Sar'
'San'
'Salz'
'SS'
'SO'
'SA'
'Russland_'
'Raum_'
'Pl'
'Pil'
'Personal_'
'PRO'
'Ol'
'ON_'
'Norden_'
'Netz'
'Natürlich_'
'Mitglied_'
'Min'
'Mensch'
'Meer'
'ME'
'MB'
'Lib'
'Late'
'Kü'
'Kultur'
'Klimaanlage_'
'Kindern_'
'Kapital'
'Kamera_'
'Kal'
'Jugend'
'Innen_'
'Inf'
'Ihres_'
'ID_'
'Hon'
'Hier'
'Gästen_'
'Gold'
'Geh'
'Garten_'
'Gal'
'Fö'
'Fried'
'Frau_'
'Franz'
'Fl'
'Feuer'
'Farbe_'
'Fahr'
'Euro'
'Erz'
'Ents'
'Dr_'
'Dezember_'
'Cre'
'CE'
'Bis'
'Bereits'
'Ausl'
'Atmosphäre_'
'Ans'
'Alt'
'Aktion_'
'AN'
'AB'
'38_'
'33'
'32'
'27_'
'27'
'2001_'
'2000_'
'20'
'191'
'190'
'17_'
' --'
' % _'
'д'
'ó'
'zz'
'zunächst_'
'zt_'
'zahl_'
'zahl'
'ystem_'
'yc'
'würden_'
'welt'
'wach'
'vot'
'vorhanden_'
'voll'
'verschl'
'vermeiden_'
'verfolg'
'vera'
'ven_'
'van'
'use_'
'uren_'
'ungss'
'ungsk'
'ung'
'unden_'
'una'
'umge'
'umfasst_'
'ult'
'uld'
'uk'
'ui'
'uber'
'tze_'
'tto'
'tr'
'tlichen_'
'tle'
'tive'
'tin'
'tig'
'tief'
'teil_'
'ted_'
'tand'
'sur'
'spr'
'smus_'
'ska'
'si_'
'sf'
'set'
'scheint_'
's'
'rze'
'rten_'
'rot'
'rl'
'richtige_'
'rg_'
'reich_'
'rechten_'
'rank'
'pt_'
'prop'
'pres'
'politischer_'
'pie'
'pfe'
'pe_'
'pal'
'ow_'
'ova'
'ory_'
'org_'
'org'
'ons'
'ologie_'
'olge'
'ober'
'nächsten_'
'nächste_'
'notwendig_'
'nos'
'nitt'
'nge_'
'netz'
'nal'
'ms'
'mpe'
'mont'
'mmer'
'mehreren_'
'maschine_'
'mals_'
'lot'
'lig'
'liegende'
'lau'
'lass'
'kürzlich_'
'kur'
'ktur'
'ktiv'
'kro'
'kri'
'kre'
'korrekt'
'konze'
'kont'
'kn'
'kar'
'jahr_'
'ium_'
'its'
'ition'
'isierung_'
'io_'
'interessante'
'inte'
'ings_'
'industrie_'
'if'
'iefer'
'ideale_'
'ichtung_'
'icht'
'ial_'
'ial'
'hören_'
'hä'
'hung'
'hunderte'
'hte'
'hlen_'
'hervor'
'günstige'
'groß_'
'gier'
'gewähr'
'get_'
'gesetzt_'
'genaue'
'genannten_'
'gemäß_'
'gelangen_'
'gefunden_'
'gebiet_'
'ga_'
'füll'
'führende'
'fs_'
'freuen_'
'fol'
'festge'
'fest_'
'feld_'
'fe_'
'fallen_'
'eß'
'eure_'
'eug'
'ette'
'eti'
'erle'
'erla'
'erforderlich_'
'entf'
'eno'
'eni'
'enh'
'ellen_'
'eiten_'
'eis'
'einigen_'
'egen_'
'effiziente'
'dürfen_'
'digitale'
'dig'
'dell'
'dat'
'dar'
'cu'
'cs_'
'cr'
'ckt_'
'check'
'cam'
'but_'
'bun'
'bru'
'britische'
'bild'
'bessere_'
'bef'
'bare'
'auen_'
'atz'
'are'
'anti'
'annt'
'anges'
'angeme'
'ang'
'ane'
'and'
'amm'
'alt'
'alen_'
'akti'
'ah'
'able_'
'Zusammen'
'Zugriff_'
'Wohl'
'Winter_'
'Wert_'
'Wer'
'Wander'
'WLAN_'
'WE'
'Vom_'
'Volk'
'Versa'
'Vers'
'Verf'
'Verd'
'Verb'
'Union_'
'Uni'
'Tor'
'Titel_'
'Teile_'
'Technologien_'
'Technologie_'
'Tar'
'Tages'
'Tab'
'Süden_'
'Stra'
'Str'
'Sterne_'
'Sonne_'
'Sof'
'Sil'
'Shi'
'Sei'
'Schul'
'Schrift'
'Schne'
'Schl'
'Schau'
'Saa'
'Reisen_'
'Präsident_'
'Profi'
'Pot'
'Photo'
'Pf'
'Pass'
'PE'
'Oste'
'Option_'
'Ob'
'OM'
'Nord'
'Nachricht_'
'NI'
'Mün'
'My'
'Monat_'
'Mini'
'Meter_'
'Messe'
'Mess'
'Material_'
'Mat'
'Mark'
'Management_'
'Live_'
'Links_'
'Leistungs'
'Las'
'Kr'
'Japan_'
'Ja_'
'Italien_'
'Int'
'Institutionen_'
'Innen'
'IM'
'IC'
'Hor'
'Hardware_'
'Halb'
'HT'
'HE'
'Grand_'
'Golf_'
'Golf'
'Geräte_'
'Geo'
'Gegensatz_'
'Gan'
'Freund'
'Free'
'Fan'
'Europäischen_'
'Ess'
'Ergebnis_'
'Erfolg_'
'Ent'
'Ed'
'EN'
'EI'
'Dia'
'Den'
'DVD_'
'Cl'
'Chr'
'Chef'
'Check_'
'Business_'
'Bestellung_'
'Bestandteil_'
'Best_'
'Bel'
'Band'
'BO'
'Aussicht_'
'Auss'
'As'
'Ankunft_'
'Angebote_'
'Ang'
'And'
'Alter'
'Abw'
'Abend'
'Abb'
'@_'
'35_'
'3'
'29'
'28_'
'28'
'26_'
'201'
'2002_'
'., _'
'“ '
'ι'
'ügen_'
'überprüfen_'
'üb'
'ärt'
'äre_'
'ändig'
'än'
'ßt_'
'ßt'
'ße_'
'Ö'
'­_'
'zza'
'zweite_'
'zer'
'zent'
'zeichnet_'
'zeichen_'
'yt'
'you_'
'yo'
'ws'
'wid'
'which_'
'werte'
'werk'
'werde_'
'weiß_'
'wasser_'
'wagen_'
'vorbe'
'voraus'
'vollständig_'
'vollen_'
'vier'
'verz'
'vertrau'
'vertr'
'verla'
'verkehr_'
'verh'
'va'
'urs'
'ungsm'
'unde'
'ula'
'ual'
'tä'
'tw'
'tter'
'tsche'
'trä'
'tor_'
'tl'
'tellung_'
'tec'
'tal_'
'sy'
'stü'
'stie'
'stets_'
'stellte_'
'statt'
'stand_'
'sste'
'spo'
'somit_'
'sli'
'sit'
'sier'
'sh'
'selbst'
'seite_'
'sd'
'schneller_'
'schal'
'schaffen_'
'rufen_'
'rp'
'rm_'
'rek'
'regelmäßig_'
'rate_'
'problem'
'pr'
'ppe'
'port_'
'pen'
'part'
'ott'
'orte'
'ora'
'oni'
'omi'
'oll'
'oc'
'ny'
'nsi'
'notwendige'
'nger'
'neuesten_'
'nda'
'natürlichen_'
'nan'
'nahe'
'möglichen_'
'mmern_'
'mittel_'
'misch'
'meiner_'
'maß'
'mand'
'mag'
'ly'
'lo_'
'ln_'
'lli'
'lick'
'lf'
'lernen_'
'leich'
'legen_'
'lediglich_'
'lan'
'kü'
'kostet_'
'kostenlose'
'kostenfreie'
'kons'
'kon'
'ko_'
'klar_'
'kl'
'kis'
'keits'
'jun'
'jegliche'
'iv'
'its_'
'italienischen_'
'ita'
'ismus_'
'ional'
'internationale_'
'installiert_'
'innen_'
'inge'
'inf'
'ili'
'ieg'
'idi'
'ick'
'ichts'
'ian_'
'ian'
'häufig_'
'hy'
'hre'
'hmen_'
'hl_'
'historische_'
'herrliche'
'herr'
'heim_'
'heil'
'heb'
'gleiche_'
'gkeit_'
'gie'
'gesamte_'
'gern_'
'geri'
'gende'
'gele'
'gefä'
'gan'
'führte_'
'ft'
'frühe'
'freundlich_'
'fre'
'form_'
'flu'
'fizier'
'fahr'
'etzen_'
'esti'
'erwartet_'
'erw'
'erv'
'erneut_'
'era_'
'eng'
'empfehlen_'
'elt'
'eld'
'eisen_'
'eingesetzt_'
'ehl'
'eas'
'durchgeführt_'
'digen_'
'dient_'
'diejenigen_'
'dh'
'deutsche_'
'det_'
'denk'
'deiner_'
'definiert_'
'comfortable_'
'chw'
'chan'
'chaft_'
'cer'
'cel'
'can_'
'burg_'
'buchen_'
'ble'
'bit_'
'bit'
'bil'
'bie'
'bewa'
'besuchen_'
'bestimmten_'
'bestimmt_'
'besitzt_'
'berichte'
'benutzer'
'bekannten_'
'beit'
'behandelt_'
'bedarf_'
'basierte'
'außer'
'auto'
'ausges'
'aufs'
'ato'
'ations'
'aste'
'ard'
'arbeit_'
'ann'
'anlagen_'
'anh'
'angew'
'anal'
'alle'
'ais'
'age'
'aden_'
'abs'
'abl'
'abhängig_'
'abe_'
'Zug_'
'Ziel'
'Zeichen_'
'Zahl_'
'World_'
'Wirkung_'
'Winter'
'Wind'
'Werk'
'Webs'
'Warum_'
'Vorteile_'
'Vertrags'
'Verbesserung_'
'Ven'
'Unternehmens_'
'Unterhaltung_'
'Ums'
'Tool'
'Tier'
'Teil'
'Technik_'
'Tatsächlich_'
'Tagen_'
'Support_'
'Stärke_'
'Städte_'
'Standort_'
'Standards_'
'Spo'
'Spaß_'
'Sozial'
'Sommer'
'Software'
'Sitz_'
'Situation_'
'Send'
'Sel'
'Schritte_'
'Schloss_'
'Sau'
'Saint_'
'SS_'
'SC'
'Rot'
'Reg'
'Prop'
'Pre'
'Polen_'
'Pfl'
'Patienten_'
'Park'
'Parameter_'
'Par'
'Osten_'
'Open'
'Op'
'Ob_'
'November_'
'Netzwerk_'
'Nachfrage_'
'NO'
'Mot'
'Mos'
'Modern'
'Mittel_'
'Miss'
'Microsoft_'
'Methode_'
'Media_'
'Mari'
'Ly'
'List'
'Linux_'
'Liefer'
'Küste_'
'Künstler_'
'Kreis'
'Kommunikations'
'Kirche_'
'Kana'
'Jon'
'Jede_'
'Jahres'
'Jahr'
'Institut'
'Industrie_'
'Industrie'
'Imp'
'Hä'
'House_'
'Hel'
'Handy_'
'Hamburg_'
'Hafen_'
'HD'
'Gran'
'Gla'
'Gewalt_'
'Ges'
'Gegend_'
'Gegen'
'Gef'
'Ge'
'Frank'
'Forum_'
'Formular_'
'Form'
'Flor'
'Firmen_'
'Fehler_'
'Februar_'
'Est'
'Erwachsene'
'Erste'
'Ern'
'Erk'
'Erfahrungen_'
'Einw'
'Eintr'
'Eink'
'Einf'
'Download_'
'Don'
'Deutschen_'
'Dem'
'Dann_'
'Daher_'
'Computer'
'Che'
'Cana'
'Cal'
'Büro_'
'Bü'
'Bos'
'Bis_'
'Bio'
'Betrieb_'
'Besuchen_'
'Beschreibung_'
'Bereichen_'
'Beg'
'Banken_'
'Ausz'
'Auswirkungen_'
'Ausgabe_'
'Aufgaben_'
'Anwendung_'
'Anst'
'Anlage_'
'Angel'
'Anb'
'Analyse_'
'Amerika'
'Altstadt_'
'All_'
'Album_'
'Akt'
'Agr'
'Af'
'68'
'24'
'1998_'
'195'
'193'
'1'
'0er_'
'.._'
'..." _'
','
'" (_'
'!!'
'ов'
'ан'
'übertr'
'überall_'
'öste'
'öko'
'ées_'
'äß'
'ätzen_'
'ät'
'Üb'
'Ü'
'Änderung_'
'zurückzu'
'zip'
'zin'
'yer'
'wär'
'wirk'
'wind'
'welt_'
'was'
'wachsenden_'
'vous_'
'vorstell'
'vors'
'vorher_'
'vorges'
'vol'
'vo'
'vielfältige'
'verse'
'versch'
'verläss'
'verfügbare'
'verf'
'verbundenen_'
'verantwortlich_'
'veran'
'venti'
'unterschiedlichen_'
'unternehmen_'
'uner'
'umgeb'
'umen_'
'uellen_'
'uch_'
'tätig'
'tät'
'täglich_'
'tzung'
'tungen_'
'tte'
'trotzdem_'
'tolle'
'tim'
'tigen_'
'szeit'
'sz'
'systeme_'
'sup'
'stä'
'stro'
'stabil'
'ssel'
'sprache'
'spiel'
'slo'
'sl'
'situ'
'sha'
'ses_'
'selt'
'schüt'
'schw'
'schn'
'schie'
'schen'
'schein'
'sat'
'rw'
'rum'
'ruhigen_'
'rte'
'rst'
'rote'
'rolle'
'riesigen_'
'richte'
'ri_'
'rem'
'rei_'
'registriert'
'red'
'rea'
'ragen_'
'ques'
'präs'
'projekt'
'produkte_'
'privaten_'
'positive'
'ple'
'pic'
'phon'
'pha'
'out'
'ossene'
'ordnung_'
'ord'
'ohner'
'offen_'
'objekt'
'nze'
'nutzt'
'nste'
'nose'
'nommen_'
'nnt_'
'nner'
'nm'
'nimmt_'
'neuer_'
'nes_'
'nachdem_'
'möglicherweise_'
'muß_'
'mut'
'mod'
'mmen'
'mmel'
'miss'
'mini'
'min_'
'mi_'
'messe'
'mes_'
'meinem_'
'mei'
'mba'
'markt_'
'manch'
'management_'
'lösen_'
'luxuriöse'
'lungs'
'lte_'
'lst'
'lsch'
'los'
'lor'
'loca'
'llier'
'ller_'
'liz'
'liefern_'
'lec'
'ld_'
'langfristige'
'lage_'
'ktor_'
'kti'
'kte_'
'klicken_'
'king_'
'kate'
'jederzeit_'
'izier'
'iven_'
'itu'
'iss'
'ise'
'ions_'
'ini'
'ing'
'indu'
'ilt'
'ile_'
'iff'
'ierende'
'iede'
'ica'
'hoher_'
'hochwertige'
'hinzu'
'hinter_'
'high'
'halt'
'hab'
'gy'
'gten_'
'gruppen_'
'grund'
'grosse_'
'graph'
'gr'
'gle'
'gin'
'gh_'
'geöffnet_'
'gewinnen_'
'gericht'
'gene'
'gelten_'
'geladen'
'gel_'
'gefe'
'fünf_'
'fru'
'frische'
'ford'
'fft_'
'fer_'
'fehl'
'far'
'europäische_'
'est'
'erstklassige'
'erster_'
'erscheint_'
'ersch'
'err'
'erkunden_'
'erfüllen_'
'entweder_'
'entlang_'
'enk'
'enge'
'ener'
'einig'
'eide'
'ehemaligen_'
'ehe'
'ecke'
'dynamische'
'dom'
'darf_'
'char'
'centre_'
'cen'
'cc'
'bur'
'brauchen_'
'bor'
'bol'
'bewusst'
'bestimmte_'
'besondere_'
'berg'
'bekannte'
'beinhaltet_'
'begleite'
'beginnt_'
'bedien'
'bearbeite'
'bau_'
'ban'
'bahn_'
'außerdem_'
'automatische'
'aut_'
'ausschließlich_'
'ausländische'
'ausgel'
'ausgeg'
'ative'
'ari'
'aren'
'ard_'
'archi'
'ans_'
'angegebenen_'
'anf'
'amerikanischen_'
'allein_'
'alist'
'alb'
'akt'
'air'
'ahlung_'
'ahl_'
'acht'
'Ziele_'
'Zentral'
'Wien_'
'Werkzeuge'
'Werke'
'Wen'
'Wachstums'
'Wachstum_'
'Vorf'
'Vision_'
'Vertr'
'Versionen_'
'Verbindungen_'
'Venedig_'
'Urlaubs'
'Unternehmens'
'UND_'
'Tur'
'Trend'
'Termin'
'Tele'
'Such'
'Strom'
'Straßen'
'Strategie'
'Stoff'
'Spitzen'
'Sorg'
'Sitz'
'Sim'
'Sicht_'
'Serie_'
'Sen'
'Seine_'
'Schm'
'Schli'
'Schiff'
'Sche'
'Sca'
'Rund'
'Room_'
'Risiken_'
'Ric'
'Rek'
'Regeln_'
'Reali'
'RE_'
'Qui'
'Que'
'Präsidenten_'
'Praxis_'
'Pool_'
'Politi'
'Plu'
'Player_'
'Plan'
'Pin'
'Ori'
'Oper'
'Not'
'Niederla'
'Monaten_'
'Mode'
'Mitt'
'Miet'
'Mein'
'Mehr'
'Maß'
'Maschinen_'
'Manager_'
'Mailand_'
'Mac'
'MP'
'ME_'
'Liebe_'
'Lehr'
'Lands'
'König'
'Käufer_'
'Kurz'
'Kreditkarte_'
'Kraft'
'Kor'
'Konzert_'
'Konse'
'Komponenten_'
'Kom'
'Kn'
'Kle'
'Kir'
'Kinder'
'Kernel_'
'Ker'
'Kenntnis'
'Kenn'
'Kas'
'KA'
'Juli_'
'Jos'
'Jan'
'Jac'
'Insta'
'Inn'
'Infrastruktur_'
'IT'
'ID'
'Heil'
'Ham'
'Hall'
'Gut'
'Gründe'
'Grundlage_'
'Gre'
'Getränke'
'Geschäftsbe'
'Gesch'
'Gericht'
'Gegenst'
'Gebiete'
'GN'
'Fro'
'Freu'
'Freizeit'
'Folge_'
'Feld_'
'Familien_'
'FR'
'Express_'
'Esp'
'Erst'
'Englisch_'
'Engl'
'Elemente_'
'Einwohner_'
'Einrichtungen_'
'Einrichtung_'
'Einfluss_'
'Eigen'
'Ec'
'Diskussion'
'Dennoch_'
'Dazu_'
'Control_'
'City_'
'Centr'
'Bä'
'Blue'
'Bl'
'Bez'
'Bewu'
'Bestell'
'Besonder'
'Besitz'
'Beach'
'Bea'
'Ball'
'Ausse'
'Ausgaben_'
'Ausb'
'Aufgabe_'
'Architektur_'
'App'
'Anwe'
'Anteil_'
'Anschl'
'Anbieter_'
'Alle'
'Alg'
'Abst'
'Abschluss_'
'Ab_'
'AP'
'AI'
'64_'
'63'
'37_'
'07_'
'06_'
'01_'
'/'
'...'
'-/_'
'''
'" '
' /_'
' ''_'
'ы'
'о_'
'и_'
'е_'
'б'
'ünstig'
'ückt_'
'üche_'
'überw'
'übers'
'öffentliche_'
'ê'
'ée_'
'ç'
'äußer'
'är_'
'änk'
'änge_'
'äll'
'ählt'
'Übersetzung_'
'Öl_'
'»'
'°'
' _'
'züge_'
'zus'
'zte_'
'zle'
'ziert_'
'zept'
'würdig'
'woch'
'wirtschaftliche_'
'wirtschaft'
'wirksam'
'will'
'wesen'
'wer_'
'wenigen_'
'weiterhin_'
'weite'
'weder_'
'warum_'
'walt'
'wal'
'vorbei_'
'vin'
'vil'
'views_'
'viele'
'via_'
'versuchen_'
'verste'
'version_'
'verschieden'
'verm'
'verloren_'
'verkauft_'
'verbreitet'
'verbessern_'
'verarbeite'
'va_'
'ux_'
'uss'
'urg'
'ure'
'unw'
'unternehme'
'ungefähr_'
'under'
'unbes'
'unabhängige'
'umfassende'
'ument'
'ule'
'uit'
'uh'
'uft_'
'ufe'
'uck'
'tö'
'tungs'
'tsch'
'trägt_'
'träge'
'traum'
'transport_'
'tos'
'tor'
'toff'
'tische'
'til'
'teuer'
'tem'
'tehen'
'tal'
'system'
'sucht_'
'sub'
'stimm'
'starken_'
'standard'
'ssung_'
'sste_'
'speicher'
'spar'
'soziale'
'sor'
'son_'
'solche'
'sko'
'sho'
'senk'
'schönsten_'
'schwarz'
'schl'
'sbr'
'rste'
'rs'
'rre'
'ros'
'rooms_'
'rom'
'rische'
'ringen_'
'rin'
'rik'
'ria_'
'rf'
'res_'
'reine'
'reiche_'
'regel'
'reale'
'real'
'rbe'
'rap'
'rai'
'rad'
'quie'
'qualit'
'qua'
'publi'
'präsentiert_'
'prof'
'proc'
'pret'
'preis'
'praktisch_'
'porta'
'pool_'
'photo'
'pass'
'ovi'
'ote_'
'ose'
'orientierte'
'organisat'
'orde'
'onne'
'onie'
'olu'
'olo'
'ol_'
'og_'
'oe'
'od_'
'ock'
'nämlich_'
'nächst'
'nutz'
'nummer_'
'ntr'
'nten'
'not'
'nne'
'nken_'
'nke'
'nice_'
'ngs_'
'nette'
'net'
'ndlich'
'ndl'
'ndi'
'nder'
'nce_'
'national'
'ml_'
'minute'
'militärische'
'mente_'
'meinen_'
'mass'
'mai'
'lus'
'low'
'lon'
'logi'
'load'
'ln'
'llung_'
'lls'
'llen'
'liste'
'ling'
'lif'
'leu'
'lder'
'lbe'
'las'
'landschaft'
'küste_'
'künstlerische'
'kurze_'
'ktion'
'kret'
'konfigurier'
'konf'
'kom'
'km'
'kk'
'kin'
'karte_'
'kam'
'ka'
'jährigen_'
'jährige_'
'jor'
'jen'
'iz'
'ission'
'isi'
'ini_'
'informationen_'
'individuellen_'
'inc'
'ina_'
'ill'
'ik'
'ifi'
'ier_'
'identi'
'ida_'
'ichen_'
'ice_'
'höher_'
'hängt_'
'hof_'
'hn_'
'hle_'
'hinge'
'hie'
'heutigen_'
'herz'
'hervorragend'
'hende'
'hause'
'har'
'hand'
'gte_'
'gruppe_'
'gro'
'gli'
'gewi'
'gesta'
'gesehen_'
'gese'
'geschlossen_'
'geschl'
'geschi'
'gemütliche'
'gelt'
'gelang'
'geko'
'gegründet_'
'gege'
'geführt_'
'gebracht_'
'gebli'
'gebe'
'gebaut_'
'fro'
'fri'
'freien_'
'freie'
'fr'
'fon'
'folgt_'
'folgende_'
'folge'
'flich'
'fl'
'finanzielle'
'fig'
'fen'
'falt_'
'fahrt_'
'ever'
'etzung_'
'ets'
'esse'
'erwei'
'erstellt_'
'erleb'
'erklären_'
'erhöhte'
'erha'
'ergänz'
'erfolgreich_'
'erei'
'erd'
'erbaut'
'entwickelte_'
'entsprechen_'
'entschieden_'
'ents'
'entgegen'
'ensi'
'enf'
'enburg'
'eli'
'elegante'
'ela'
'einn'
'einf'
'eig'
'egi'
'ect'
'echt'
'dt'
'dr'
'dor'
'direkte'
'din'
'dern_'
'dens'
'def'
'damal'
'cre'
'conf'
'cli'
'cle'
'ckl'
'cker'
'chuld'
'chin'
'ces'
'cad'
'bus'
'bro'
'brau'
'bot'
'book'
'boden'
'block'
'bili'
'bildet_'
'bik'
'bezüglich_'
'beziehen_'
'beweg'
'betrieb'
'beton'
'bestä'
'berge'
'berg_'
'bequem_'
'bein'
'behält_'
'awa'
'ave'
'ausser'
'ausr'
'ausb'
'auftr'
'att_'
'ative_'
'asti'
'arr'
'aro'
'aria'
'arbeitet_'
'ape'
'any_'
'anten_'
'ante_'
'ant'
'angs'
'angen'
'angelegt'
'angebot_'
'anerkannt'
'ands'
'anc'
'ana'
'alis'
'ah_'
'aga'
'afe'
'adi'
'absch'
'able'
'aben'
'['
'Zy'
'Zwei_'
'Zwei'
'Zudem_'
'Zahlung_'
'Wor'
'Win'
'Widerstand'
'Wetter'
'Wettbewerb_'
'Westen_'
'Werk_'
'Wellness'
'Wechsel'
'We'
'WI'
'Vortr'
'Viertel'
'Verwaltung'
'Verle'
'Verfügbarkeit_'
'Vereinigten_'
'Verantwortung_'
'VO'
'Unters'
'Ukraine_'
'Typ'
'Trä'
'Tro'
'Touris'
'Tour'
'Tiere_'
'Theater_'
'Terror'
'Tennis'
'Telefon_'
'Teilnehmer_'
'Tauch'
'Tat'
'Tag'
'Sy'
'Stimme_'
'Sti'
'St'
'Sprachen_'
'Sprach'
'Spr'
'Spezi'
'Spa_'
'Sor'
'Slo'
'Sin'
'Shop'
'She'
'Ser'
'Schäden_'
'Schwarz'
'Schi'
'Salo'
'ST'
'SM'
'Roh'
'Republik_'
'Reli'
'Regierungs'
'Rechte_'
'Raum'
'Publi'
'Prüf'
'Prozess'
'Programme_'
'Power'
'Personal'
'Pau'
'Patent'
'Passwort_'
'Para'
'Pack'
'PO'
'Ost'
'Os'
'Organi'
'Optionen_'
'Oktober_'
'Oh'
'OR'
'ON'
'Nor'
'Niveau_'
'Nichtraucherz'
'Nachbar'
'NG'
'Modelle'
'Mobil'
'Mitgliedschaft_'
'Mio_'
'Met'
'Meinung_'
'Medien'
'Maschine'
'Marin'
'Lä'
'Luft_'
'Log'
'Lizenz'
'Lieb'
'Licht'
'Lese'
'Leit'
'Lastwagen_'
'LICH'
'LC'
'Kri'
'Kraft_'
'Komple'
'Kombination_'
'Koch'
'Kit'
'Kant'
'Kampf_'
'KT'
'Jung'
'Januar_'
'Jahrhunderts_'
'Ist_'
'Inseln_'
'Inhalt_'
'Image'
'Idee_'
'IP_'
'III_'
'Häuser'
'Hinter'
'Herz'
'Hea'
'Hause_'
'Haupts'
'HO'
'HI'
'Grenz'
'Gest'
'Gesetz_'
'Geschäftsp'
'Gepäck'
'Gent'
'GA'
'Fußball'
'Foto'
'Forschungs'
'Format_'
'Flugzeug'
'Flas'
'Fin'
'Festival_'
'Fer'
'Fels'
'Fel'
'Fehler'
'Farben_'
'Fal'
'FA'
'Eure'
'Erl'
'Entspann'
'Entscheidungen_'
'Empf'
'Eisen'
'Einzel'
'Einstellungen_'
'Einge'
'Eff'
'ED'
'Dü'
'Dä'
'Dro'
'Dorf_'
'Dom'
'Dollar_'
'Dienstleistung'
'Dienste_'
'Demokratie_'
'Def'
'Dam'
'DIE_'
'Comp'
'Chance_'
'Cast'
'Carl'
'Cam'
'CD'
'Bus'
'Buchungs'
'Bucht'
'Brand'
'Bou'
'Booking_'
'Blut'
'Bildungs'
'Bestimmungen_'
'Beste'
'Benutzer'
'Beitrag_'
'Begr'
'Befehl'
'Bedarf_'
'Bat'
'Base'
'Bars_'
'Bahnlinie_'
'Autobahn_'
'Ausg'
'Ausfl'
'August_'
'Augen_'
'Aufnahme'
'Aufenthalt'
'Ass'
'Arten_'
'Archiv'
'Applikation'
'Apartments_'
'Anspr'
'Anreise'
'Ano'
'Anlagen_'
'Anfrage_'
'Ana'
'Alb'
'Abt'
'Abl'
'Abf'
'? _'
': „_'
': "_'
'97'
'80'
'76'
'34'
'33_'
'29_'
'26'
'250_'
'1996_'
'150_'
'.“'
'.-'
')_'
'): _'
' + _'
'€'
'• _'
'’ _'
'п'
'Гј'
'üsse'
'ürf'
'üng'
'ührer_'
'ühr'
'üg'
'öhne'
'ér'
'änder'
'änden_'
'ähnliche'
'ächt'
'án'
'Öffentlichkeit_'
'}'
'{{_'
'zuvor_'
'zusätzliche_'
'zusätzlich'
'zun'
'zudem_'
'zige'
'zierung_'
'ziele'
'zess'
'zerstört_'
'zentralen_'
'za_'
'yp'
'yi'
'xt'
'wö'
'wären_'
'wähl'
'worte'
'won'
'wohn'
'wit'
'wirtschaftlichen_'
'wirkung'
'win'
'wie'
'wichtigen_'
'wesentliche'
'wend'
'wel'
'weiteres_'
'weiter'
'weis'
'wartet_'
'wandel'
'vorherige'
'villa'
'verwende_'
'verur'
'vertrete'
'versuch'
'verlang'
'verfa'
'vereinbart'
'verbra'
'verbessert_'
'vat'
'uri'
'unterschiedliche'
'untersch'
'unterl'
'unterhal'
'unterg'
'ungsp'
'ungsge'
'ungsa'
'une_'
'uelle'
'ud'
'ualisier'
'ty_'
'tschaft'
'tritt_'
'treten_'
'trac'
'ton'
'tm'
'tion'
'time_'
'tik_'
'tik'
'this_'
'tha'
'text'
'test'
'tellt'
'tel_'
'tekt'
'tas'
'tage_'
'systems_'
'stör'
'stärker'
'str'
'stilvolle'
'stet_'
'sten'
'statis'
'star'
'sst_'
'spro'
'spricht_'
'spri'
'spre'
'sport'
'spi'
'spezifischen_'
'spanische'
'sonn'
'solchen_'
'sofern_'
'sobald_'
'smit'
'sle'
'sh_'
'sens'
'send'
'selten_'
'sein'
'schön_'
'schrift'
'schrieb'
'schreiben_'
'schlu'
'schließlich_'
'schlag'
'schirm'
'sam_'
'sam'
'sach'
'sab'
'rse'
'rou'
'rischen_'
'richtung'
'richt'
'rich'
'rhe'
'relativ_'
'reisen_'
'reduzier'
'reb'
'read'
'rbeit'
'rat_'
'rage_'
'quer'
'qualifizierte'
'qu'
'pul'
'prom'
'produkt'
'pos'
'plat'
'pla'
'pfer'
'persönlich'
'pens'
'passt_'
'passende'
'parte'
'pack'
'ous'
'ors'
'orient'
'ordn'
'optimale_'
'om_'
'ok_'
'offe'
'ochen_'
'och'
'obi'
'nä'
'nw'
'nor'
'nkt'
'nig'
'niedrige'
'ngt_'
'nehm'
'nds'
'nch'
'märkte_'
'mächtig'
'm²_'
'multi'
'moderne'
'mmlung_'
'ml'
'mischen_'
'mig'
'met'
'mess'
'mens'
'maximal'
'mas'
'markt'
'läss'
'läng'
'ländern_'
'lungen_'
'lose'
'lokale'
'lle'
'lität_'
'linie_'
'light'
'lige'
'liebe'
'lib'
'li_'
'lekt'
'leid'
'legte'
'lations'
'kürz'
'könnt_'
'kurz_'
'kräfte_'
'kraft_'
'kos'
'kontrolle'
'kontaktieren_'
'komp'
'kommen'
'kle'
'klare'
'kla'
'kes'
'jou'
'iter'
'ite_'
'itali'
'istischen_'
'isti'
'isse'
'isiert_'
'isieren_'
'ir_'
'interne'
'interessier'
'intensive'
'integr'
'ind'
'import'
'ille'
'ih'
'ign'
'ige'
'iffe'
'iens'
'ien'
'ieben'
'ichtet'
'hörig'
'höchste_'
'hätte_'
'hs'
'hr_'
'hop'
'hon'
'hme'
'his'
'hilf'
'het'
'hera'
'hell'
'hauptsächlich_'
'has'
'hal'
'ha_'
'gute'
'gua'
'grün'
'größte'
'grundlegend'
'grafische'
'gos'
'glo'
'glieder'
'glich'
'gla'
'gge'
'geändert_'
'gewünschte'
'geworden_'
'gewa'
'gesund'
'gesp'
'ges_'
'geru'
'geringe'
'genutzt_'
'genießt_'
'gelös'
'gelin'
'gat'
'gast'
'garantieren_'
'gar_'
'fur'
'fun'
'ful_'
'fuer_'
'fts'
'früh_'
'fried'
'fort_'
'folgen_'
'fest'
'fern'
'fens'
'fass'
'famili'
'fal'
'ezi'
'extrem'
'europäische'
'erweitert_'
'erwart'
'erstmals_'
'erstatt'
'erreichbar_'
'erleben_'
'erinnern_'
'erhöht_'
'erhält_'
'erbe'
'eral'
'entwickelten_'
'entw'
'entstehen_'
'entspricht_'
'entscheide'
'ente_'
'entdeckt'
'ensch'
'enp'
'enl'
'endet_'
'ence_'
'enbe'
'enb'
'emp'
'ementier'
'ektion'
'ekte'
'eits'
'einzigartige_'
'einst'
'einmalige'
'eingel'
'eingefü'
'eingeb'
'eilig'
'eigentlich_'
'ehr_'
'ehr'
'egt_'
'dyn'
'druck_'
'druck'
'drig'
'dort'
'div'
'dische'
'dir_'
'ding_'
'digung_'
'dienste'
'dich_'
'dia'
'dge_'
'det'
'dep'
'dent'
'deine'
'dauer_'
'datei'
'dargestellt_'
'dans_'
'cl'
'cki'
'cken'
'cke_'
'chu'
'chron'
'chnitt'
'chli'
'chb'
'chaften_'
'cent'
'cal_'
'bus_'
'bots'
'blieb'
'blick_'
'bli'
'bilden_'
'betten_'
'betra'
'beteilig'
'besuch'
'bestätigt_'
'bestellen_'
'bessere'
'besonderes_'
'beschäftigt_'
'beschrieben_'
'beru'
'bereit'
'berech'
'beobachten_'
'bene'
'belieb'
'bela'
'begr'
'begann_'
'beende'
'bedingungen_'
'bedeutende'
'bec'
'beauftragt'
'bac'
'ays_'
'ay'
'ava'
'aust'
'auss'
'ausgew'
'ausgeführt_'
'ausgabe'
'aufw'
'auff'
'auber'
'ath'
'aten_'
'ase'
'arten_'
'arte'
'ars'
'anz'
'ante'
'anspr'
'ansch'
'anne'
'anke'
'anische'
'ane_'
'anderes_'
'amp'
'amerikanische_'
'ame'
'altung_'
'alter'
'alt_'
'aler'
'ahr'
'adem'
'act'
'ack'
'achten_'
'abzus'
'absolute'
'abf'
'aa'
'Zimmers'
'Zentralbank'
'York_'
'Ya'
'Xi'
'Wünsche_'
'Wü'
'Wä'
'Worte'
'Wird_'
'Weltm'
'Wahr'
'Wahl'
'Waffen'
'Vors'
'Vorh'
'Vorga'
'Vita'
'Vis'
'Vill'
'Videos_'
'Verwe'
'Verständnis_'
'Versch'
'Vern'
'Verkehrs'
'Verkauf_'
'Verge'
'Veranstaltung_'
'Veran'
'Van'
'VER'
'VA'
'Ut'
'User_'
'Update'
'Unterkunft_'
'Unterk'
'Unimog_'
'Ungl'
'Umf'
'Typ_'
'Tiefe'
'This_'
'Texte_'
'Temp'
'Techni'
'Tas'
'Tal_'
'Tal'
'TU'
'System'
'Stück_'
'Stä'
'Streit'
'Stock'
'Stimm'
'Stil'
'Stern'
'Stein'
'Status_'
'Stahl'
'Staat_'
'Speisen_'
'Spam'
'Sound_'
'Sorti'
'Soll'
'Ski_'
'Sinne_'
'Siedlung'
'Sehr_'
'Sec'
'Scr'
'Schritt_'
'Schreib'
'Schlacht'
'Schic'
'Schei'
'Schalt'
'Santa_'
'Sand'
'Sachen_'
'Sache_'
'SA_'
'Ruf'
'Resort_'
'Reservierung_'
'Reich'
'Reform'
'Real'
'Rand'
'Ram'
'Quart'
'Qua'
'Pul'
'Prov'
'Profess'
'Pro_'
'Premier'
'Potenzial'
'Politiker_'
'Pie'
'Pic'
'Phase'
'Pflege_'
'Peter_'
'Pen'
'Partner'
'Part'
'Panorama'
'Pakete_'
'Paket_'
'PS_'
'PS'
'PR'
'PP'
'PCs_'
'Orte_'
'Organisation_'
'Oder_'
'Objekte'
'OR_'
'Nu'
'Nieder'
'Nic'
'Netzwerk'
'Name_'
'Nachdem_'
'Müll'
'Märkte_'
'Muse'
'Monte'
'Mont'
'Mond'
'Mona'
'Mitglieds'
'Mitgliedern_'
'Messe_'
'Mem'
'Mel'
'Mehrheit'
'Materialien_'
'Marketing_'
'Mann_'
'Mach'
'MT'
'Lü'
'Lou'
'Linien_'
'Lieferung_'
'Licht_'
'Lev'
'Leute_'
'Leu'
'Let'
'Leiter_'
'Leistung_'
'Leider_'
'Laufe_'
'Lat'
'Lac'
'Lab'
'LO'
'LL'
'Künstler'
'Kö'
'Kunsts'
'Kunde_'
'Kriegs'
'Kra'
'Kopier'
'Kopf_'
'Kopf'
'Kooperation_'
'Konzern'
'Konzept'
'Kontroll'
'Konto_'
'Konte'
'Kommunikation_'
'Kommentar'
'Kolle'
'Klass'
'Kin'
'Karten_'
'Kan'
'Kam'
'Kaffee'
'Kabel_'
'J_'
'Ir'
'Invest'
'Interview'
'Integr'
'Inse'
'Innovation_'
'Info'
'Inc_'
'IL'
'Hö'
'Hostel'
'Host'
'Holz_'
'His'
'Hersteller_'
'Herr_'
'Haus'
'Hau'
'Haftung_'
'Gute'
'Gro'
'Grenzen_'
'Green'
'Gold_'
'Gesundheits'
'Geschi'
'Generation_'
'General'
'Gene'
'Gemein'
'Gem'
'Gel'
'Gehe'
'Gefühl_'
'Gefahr'
'Gas'
'Fähigkeit'
'Frequenz'
'Frankfurt_'
'Franc'
'Fr'
'Fotos_'
'Fotografie'
'Folgen_'
'Flugh'
'Flu'
'Fitness'
'Finanzs'
'Fenster_'
'Fax_'
'Fass'
'Fas'
'Falle_'
'FOR'
'Export'
'Exe'
'Eurozone_'
'Europä'
'Europe'
'Erweiterung_'
'Erstellung_'
'Erlebnis_'
'Erholung_'
'Erg'
'Erfo'
'Ereignis'
'Erde_'
'Ep'
'Entscheidungs'
'Eltern_'
'Eli'
'Einschr'
'Eine'
'Ei'
'Ea'
'EP'
'EL'
'EADS_'
'Dritte'
'Doppel'
'Dokumente_'
'Die'
'Deutsch'
'Datenschutz'
'DS'
'Costa_'
'Chip'
'Cer'
'Center_'
'Cap'
'Camping'
'CI'
'Büro'
'Bürger_'
'Bühne'
'Brenn'
'Bord'
'Boot'
'Bol'
'Blog_'
'Bie'
'Beziehungen_'
'Bewertung_'
'Bewegungen_'
'Bet'
'Besucher'
'Best'
'Berech'
'Bell'
'Bee'
'Basis'
'Barcelona_'
'Bank_'
'Ban'
'Balkon_'
'Baby'
'Außen'
'Auth'
'Austr'
'Aussch'
'Ausr'
'Ausnahme'
'Ausga'
'Ausführung_'
'Auge'
'Aufw'
'Ast'
'Armut'
'Arme'
'Arbeiten_'
'Anwender_'
'Anmeldung_'
'Anl'
'Andre'
'Allgemeinen_'
'Alles_'
'Ali'
'Air_'
'Air'
'Abschnitt_'
'AV'
'AM'
'AD'
'='
'82'
'65_'
'400_'
'32_'
'1000_'
'/ _'
', „_'
', "_'
'#'
'!'
' )'
' !_'
'ст'
'г'
'ат'
'а_'
'ν'
'ünde'
'ückliche'
'üch'
'übrig'
'ött'
'ört'
'öpf'
'ön'
'öger'
'öffn'
'ía_'
'ë'
'ét'
'ès_'
'äufe_'
'äte'
'ässig'
'äng'
'äne_'
'ändert'
'ältere'
'ähig'
'äft'
'ßig'
'ßen'
'Überw'
'Übersetzungen_'
'Übersch'
'Österreich_'
'Öl'
'Ökonom'
'Ã_'
'» _'
'«'
'zweit'
'zuverlässig'
'zust'
'zunehmend'
'zumindest_'
'zuletzt_'
'zul'
'zukünftig'
'zuges'
'zug_'
'zl'
'zit'
'zion'
'zin_'
'ziel_'
'zeuge_'
'zertifiziert'
'zerstör'
'zell'
'zan'
'yse'
'yon'
'yamato_'
'xel'
'wunderschönen_'
'wohl'
'wir'
'widers'
'wider_'
'wichtiger_'
'wh'
'wertvolle'
'weiterge'
'weisen_'
'weig'
'way_'
'wald_'
'wahrscheinlich'
'vre'
'vos_'
'vorge'
'von'
'volu'
'vollst'
'voller_'
'vill'
'vid'
'vet'
'ves'
'veröffentlicht_'
'verä'
'verwe'
'vert'
'verstärk'
'verständlich'
'verspr'
'verpflichtet_'
'verlie'
'verletz'
'verkehr'
'verhindern_'
'vergessen_'
'verbindung_'
'veranstalt'
'vel'
'var'
'ustr'
'urn'
'urm'
'upp'
'unterw'
'unterst'
'unt'
'unkt'
'ungst'
'ungsbe'
'umfassende_'
'umfangreiche'
'ume_'
'umb'
'uer_'
'ubl'
'ua_'
'türkis'
'tägliche'
'typischen_'
'typ_'
'ture_'
'ture'
'tum_'
'ttl'
'trock'
'trin'
'tre_'
'transport'
'traditionell'
'touristische'
'touri'
'tnis'
'tigung'
'ti_'
'tf'
'ters_'
'ters'
'terrasse_'
'tern_'
'telle'
'tele'
'tea'
'tb'
'sü'
'synchron'
'sweise_'
'sung_'
'sun'
'such'
'sts'
'straße_'
'stor'
'stl'
'steiger'
'stec'
'stattfinden_'
'stas'
'stammt_'
'stag'
'staate'
'staat'
'ssu'
'sso'
'ssion'
'spätere'
'sprechen_'
'spielt_'
'spezialisiert'
'sper'
'spann'
'sme'
'skr'
'ski_'
'ske'
'sische_'
'sis'
'sione'
'signal'
'side'
'sicherheit'
'show'
'shi'
'sfähig'
'sfe'
'setzte'
'setz'
'ser_'
'sel_'
'seitig'
'sechs_'
'sec'
'schwierig'
'schule_'
'schläg'
'schalte'
'schaften_'
'sca'
'sammel'
'sagt_'
'römische'
'räume_'
'räsenta'
'russischen_'
'run'
'ruhiger_'
'rts_'
'rtier'
'rter_'
'rsche'
'rol'
'rob'
'rne'
'rli'
'rin_'
'rigen'
'riffe'
'ries'
'riere'
'rier'
'rieb'
'rha'
'rer_'
'renovierte'
'reit'
'reife'
'reicher'
'regionale'
'regi'
'reg'
'rechts_'
'realisiert_'
'rce_'
'rasen'
'rahmen_'
'rael'
'rad_'
'rac'
'quenz'
'quen'
'quartier_'
'pä'
'put'
'präsentier'
'profitieren_'
'prin'
'pra'
'post'
'position'
'por'
'politisch'
'plus_'
'phe'
'perfekt_'
'pekt'
'paket'
'oz'
'ox'
'ovo_'
'over'
'other'
'orit'
'oris'
'organisiert'
'ordentliche'
'option'
'optimal'
'opp'
'oper'
'op_'
'ols'
'oliti'
'ole_'
'ola'
'ogische'
'ogen_'
'offenbar'
'ode_'
'oa'
'nüpf'
'nö'
'näher_'
'nähe'
'nue'
'nts'
'nto'
'nsche'
'nsch'
'nre'
'nnten_'
'nnte_'
'nna_'
'nn_'
'nla'
'nik'
'nic'
'nia_'
'nha'
'ngen'
'neue'
'nel'
'ndung_'
'ndern_'
'nationale_'
'nat'
'nar'
'mär'
'män'
'my_'
'mt_'
'modifi'
'mittler'
'mittels_'
'miete'
'menta'
'menge'
'melden_'
'max'
'mas_'
'mal'
'mak'
'machte_'
'm2_'
'lö'
'läge'
'luss'
'lse'
'ls'
'lose_'
'lokalen_'
'live_'
'link'
'lim'
'like'
'lik'
'ließ'
'lieb'
'lic'
'lge_'
'leitung'
'leistungs'
'led'
'leben'
'lb'
'laufen'
'lauf_'
'laub'
'langer_'
'langen_'
'lam'
'lag_'
'kunden'
'ks_'
'kreis'
'kopier'
'konzipiert_'
'konferenz'
'kompo'
'komplette'
'kompa'
'komm'
'komfortable_'
'kollekti'
'kleiner_'
'klein'
'kel_'
'kaufen_'
'kana'
'kampf'
'jene_'
'jekt'
'japan_'
'izit'
'ive'
'itz_'
'itz'
'ity_'
'isten'
'issen'
'isen_'
'ise_'
'isches_'
'isch'
'irr'
'irk'
'ire'
'ioni'
'ion'
'inu'
'interne_'
'internationale'
'international_'
'installieren_'
'insta'
'innovative'
'inn'
'inis'
'informati'
'inform'
'inent'
'inen_'
'individuelle'
'individuell_'
'inbegriffen_'
'ima'
'ily_'
'ilde'
'iko'
'igte_'
'igen'
'if_'
'ierungs'
'ierte'
'ient'
'iehung_'
'ibe'
'höhere_'
'höhere'
'höchsten_'
'häuser_'
'hänge'
'hs_'
'how'
'house_'
'hou'
'hot'
'hmig'
'hit'
'hes'
'herausge'
'hen'
'hem'
'helpful_'
'haltige'
'halbe'
'halb_'
'hafte_'
'habe'
'guter_'
'gungen_'
'gue'
'grö'
'grundsätzlich_'
'gri'
'greif'
'gramm'
'gorie'
'gol'
'ght'
'gezeigt_'
'gewonnen_'
'gewo'
'gewisse'
'gesto'
'gest'
'gesellschaft_'
'geschichte_'
'gescha'
'gesagt_'
'geräte_'
'gerecht'
'gemeinsame'
'gelungen'
'gelegene_'
'gelegen'
'geg'
'gefährlich'
'gebr'
'geboren'
'gant'
'gaben'
'führung'
'füg'
'fördern_'
'förder'
'fäl'
'fäh'
'funktioniert_'
'früher_'
'freundlichen_'
'freundliche_'
'frau'
'frage_'
'frag'
'fra'
'foto'
'flü'
'fliegen_'
'flie'
'fisch'
'fiel'
'ffi'
'ffe_'
'fein'
'fang'
'fand_'
'fan'
'fair'
'fahrer'
'fac'
'expo'
'existier'
'event'
'eur_'
'eun'
'euer'
'ett'
'eter_'
'este'
'esp'
'esi'
'erzähl'
'erwähn'
'erwer'
'erung'
'erte_'
'erta'
'erste'
'erschienen'
'ernst'
'erneuer'
'erkenn'
'erische'
'erinner'
'erin_'
'erhielt_'
'ergr'
'ergeben'
'erge'
'erfüllt_'
'erfolg'
'equip'
'enzie'
'entsteht_'
'entsprechenden_'
'entsprechende_'
'enten'
'ene'
'ender_'
'enc'
'empfi'
'emi'
'elo'
'elli'
'elektr'
'eister'
'eise_'
'einzus'
'einstimm'
'einsch'
'einhe'
'einfa'
'eigene'
'eif'
'eiche'
'effi'
'edi'
'eben'
'ear'
'drücke'
'dritte'
'dre'
'dn'
'direkte_'
'digt'
'dies'
'did'
'dev'
'dest'
'design'
'derzeit_'
'dera'
'dene'
'demokratische'
'dein_'
'decken_'
'daraus_'
'dadurch_'
'cy_'
'cut'
'cul'
'ction_'
'ct_'
'contr'
'cond'
'cks_'
'cket'
'cit'
'cie'
'cia'
'chä'
'chtung'
'chr'
'chn'
'center'
'bü'
'buch_'
'buch'
'bsch'
'breiten_'
'breite'
'brand'
'brachte'
'br'
'boot'
'bnis'
'blier'
'blei'
'blau'
'bio'
'bezeichnet_'
'bezahlen_'
'bewert'
'bewerb'
'beträgt_'
'betreu'
'betre'
'bestimm'
'bestehende_'
'bese'
'beschäftig'
'beschreib'
'beruht'
'bereitgestellt'
'bera'
'bequeme'
'bend'
'bena'
'bel_'
'beitragen_'
'behalt'
'begeister'
'bee'
'bedeut'
'bat'
'basiert_'
'bank'
'aß'
'azin'
'ausse'
'ausdrücklich_'
'aufgezahlt_'
'aufgeb'
'aufen'
'attraktiv'
'ation'
'ater'
'asse'
'arkt'
'arie'
'area_'
'arab'
'appar'
'anzi'
'anzeige'
'anwe'
'anste'
'ano_'
'ano'
'anle'
'angeschlossen_'
'angen_'
'angek'
'angegeben_'
'anders_'
'ance'
'anbieten_'
'anbi'
'amerika'
'allgemeinen_'
'alische'
'akzeptieren_'
'aktuell'
'aktivi'
'aktive_'
'aine'
'ain_'
'ahren_'
'ahn'
'ages_'
'afrika'
'ae'
'ade_'
'ache_'
'ache'
'absol'
'abh'
'abgestimmt'
']]_'
']]'
'Zwischen_'
'Zusammens'
'Zul'
'Zuge'
'Zer'
'Zeitraum_'
'Zeiten_'
'Wohnung_'
'Wochenende_'
'Wo_'
'Wild'
'Whi'
'Wettbewerbs'
'Wett'
'Werkzeug_'
'Welle'
'Wel'
'Weiß'
'Weg'
'Webseiten_'
'Wassers'
'Wasch'
'Wand'
'WA'
'Vorschriften_'
'Voraus'
'Vista_'
'Via'
'Very_'
'Verw'
'Vertreter_'
'Verpfl'
'Vermögens'
'Verkehrsmittel'
'Verha'
'Vergleich_'
'Variante'
'Urs'
'Up'
'Umg'
'Ul'
'UK'
'Türkei_'
'Tür_'
'Tö'
'Tät'
'Treffen_'
'Tradi'
'Top'
'Tok'
'Tha'
'Text_'
'Test_'
'Terr'
'Telefon'
'Tatsache_'
'Tabellen'
'THE_'
'TC'
'Szene'
'Suite'
'Studie'
'Studi'
'Struktur'
'Stei'
'Stationen_'
'Start_'
'Start'
'Standorte'
'Spur'
'Spiegel'
'Spezialität'
'Spende'
'Spar'
'Spann'
'Sony_'
'Som'
'Sollten_'
'Sohn_'
'Snack'
'Skype_'
'Sit'
'Signal'
'Sig'
'Show'
'Set'
'Seminar'
'Sek'
'Sehen'
'Sege'
'Schönheit_'
'Schön'
'Schwimm'
'Schwierigkeit'
'Schwe'
'Schule'
'Schnell'
'Schlüssel'
'Schlag'
'Schaden'
'Sauna_'
'Sant'
'Sand_'
'Safe_'
'SQL_'
'Rä'
'Roulette_'
'Rin'
'Richt'
'Ressourcen_'
'Rennen_'
'Regime'
'Regen'
'Regel_'
'Ref'
'Rechnung_'
'Rau'
'Ratschlag_'
'Ras'
'Rahmen'
'Radi'
'Rac'
'RS'
'RM'
'RD'
'Qualitäts'
'Punkt_'
'Ps'
'Prozesse_'
'Prom'
'Projekte'
'Prog'
'Print'
'Portal'
'Poli'
'Pol'
'Platte'
'Place_'
'Piazza_'
'Pflanzen'
'Peri'
'Paul_'
'Partners'
'Parte'
'Parlament'
'Parkplätze_'
'PHP_'
'Ordnung_'
'Opti'
'Om'
'Offi'
'Off'
'Obama_'
'Nutzer_'
'Nutzen_'
'Nutz'
'Norm'
'Nie'
'Newsletter_'
'Nep'
'Nacht_'
'NICHT_'
'NA'
'München_'
'Mär'
'MySQL_'
'Multimedia'
'Mor'
'Monta'
'Moment_'
'Modell_'
'Mission'
'Mischung_'
'Minister'
'Milliarden_'
'Migra'
'Metro'
'Merkmale'
'Men'
'Meist'
'Mega'
'Meeres'
'Mc'
'Mau'
'Massage'
'Mas'
'Male'
'Main'
'Mail'
'Lös'
'Logistik'
'Link_'
'Linie_'
'Life'
'Liege'
'Lie'
'Les'
'Lerne'
'Leistungen_'
'Lebe'
'Lay'
'Last'
'Landes'
'Krä'
'Kriege'
'Kreat'
'Krankheiten_'
'Krank'
'Kos'
'Kopie'
'Konzert'
'Kontakt'
'Kompon'
'Komm'
'Kol'
'Kli'
'Kleid'
'Klasse_'
'Klang'
'Kino'
'Kilometer_'
'Kern'
'Keine'
'Kategorie_'
'Karl'
'KE'
'Jes'
'Jed'
'Je_'
'Java'
'It'
'Isol'
'Iran_'
'Inv'
'Interessen'
'Innens'
'Information_'
'Indien_'
'Indi'
'Ind'
'Ideen_'
'Händler_'
'Hände'
'Hyp'
'Hy'
'Hunde'
'Hun'
'Hub'
'Hohe'
'Hochs'
'Hintergrund'
'Herz_'
'Hen'
'Heizung_'
'Heimat'
'Heilig'
'Hans'
'Haf'
'Haar'
'HP'
'Grün'
'Group_'
'Grafik'
'Grad'
'Gr'
'Glo'
'Glas_'
'Gib'
'Gewähr'
'Gespräch'
'Gesetze'
'Gesellschaft'
'Geschäfte_'
'German_'
'Genießen_'
'Gener'
'Genau'
'Gemüse'
'Gemeinschaft_'
'Gehminuten_'
'Geburt'
'Gebi'
'Gam'
'GR'
'GI'
'Führungs'
'Fällen_'
'Fuss'
'Funktions'
'Frühstücksbuffet_'
'Friend'
'Fremd'
'Freie'
'Frag'
'Foto_'
'Forsch'
'Flexibilität_'
'Fire'
'Finde_'
'Fil'
'Fi_'
'Fertigungs'
'Felde'
'Fei'
'Fed'
'Far'
'Fahrzeug'
'Extr'
'Experten_'
'Eva'
'Etage_'
'Essen_'
'Erwe'
'Erm'
'Erle'
'Eric'
'Entscheidung_'
'Entf'
'Engine'
'Energie_'
'El_'
'Eingabe'
'Eing'
'Edition_'
'ET'
'Dyna'
'Durchschnitt'
'Durchführung_'
'Dun'
'Drucker_'
'Dreh'
'Dorf'
'Dokumentation_'
'Dokument_'
'Dokument'
'Dir'
'Digital'
'Designer'
'Deshalb_'
'Dep'
'Denke'
'Demokrat'
'Datenbank_'
'Datenb'
'Das'
'Darüber_'
'Darstellung_'
'Court'
'Coll'
'Cle'
'Chat'
'Charakter'
'Cas'
'CR'
'CP'
'CN'
'CC'
'Bush'
'Burg_'
'Bur'
'Bug'
'Browser_'
'Brie'
'Brau'
'Br'
'Boot_'
'Bli'
'Black'
'Bit'
'Bill'
'Bildschirm_'
'Bewegung_'
'Bevölkerung_'
'Bett_'
'Bett'
'Betracht'
'Bestand'
'Bern'
'Benutzern'
'Bem'
'Bedi'
'Bed'
'Bay_'
'Bauern'
'Back'
'BR'
'BL'
'BA'
'Award'
'Av'
'Automati'
'Auftrag_'
'Aufb'
'Audi'
'Attrakti'
'Atom'
'Aspekt'
'Anwendungs'
'Anspruch_'
'Ansicht'
'Anre'
'Anpassung'
'Anle'
'Angaben_'
'Andere_'
'Also_'
'Allerdings_'
'Albe'
'Aktualisierung'
'Afrika_'
'Abh'
'A1'
'; '
'95_'
'900'
'89_'
'71_'
'60'
'59_'
'55_'
'53'
'52'
'48_'
'45_'
'44_'
'42_'
'3D_'
'38'
'36_'
'35'
'31_'
'185'
'160'
'02_'
'00'
'*'
'() '
'">'
'".'
' ….. _'
' «_'
' ..'
' -'
' ("_'
' "..._'
'… '
'—'
'я_'
'ь'
'у'
'пр'
'по'
'но'
'з'
'ен'
'Г'
'σ'
'ρ'
'ο'
'α'
'ı'
'č'
'üs'
'ürz'
'ündig'
'ühre'
'üge_'
'überzeugt_'
'übersetz'
'übersch'
'überrasch'
'überprüft_'
'übernimmt_'
'übern'
'überleb'
'überl'
'überg'
'überd'
'ösung'
'öse'
'öglichkeiten_'
'ô'
'és_'
'éri'
'ég'
'ère_'
'äuse'
'äusch'
'ätzt'
'ätig'
'äten_'
'äst'
'ärk'
'ären_'
'änkungen_'
'ängt_'
'ände_'
'ältig'
'älle_'
'ähle'
'ähl'
'ädig'
'äde'
'äch'
'á_'
'Übernachtung_'
'Überga'
'Är'
'· _'
'¤_'
'  '
'zügige'
'zählt_'
'zy'
'zwi'
'zweck'
'zw'
'zuz'
'zustellen_'
'zung_'
'zula'
'zugleich_'
'zub'
'zon'
'zogen'
'zig_'
'zier'
'ziemlich_'
'zieht_'
'zern_'
'zentral_'
'zeitgenössische'
'zeichnete'
'zeichnen_'
'zeichn'
'zehn_'
'yw'
'yr'
'yan'
'xxx_'
'wü'
'wung'
'wunderschöne'
'would'
'wort'
'wies'
'wiederh'
'wieder'
'westlich'
'west'
'wes'
'weni'
'weitgehend_'
'weit'
'weh'
'wechseln'
'wechsel_'
'wechsel'
'wart'
'warme'
'wann_'
'walk'
'wahl_'
'wachsende_'
'wachsen'
'völlig_'
'vé'
'vorübergehend'
'vorteil'
'vornehme'
'vorhandene'
'vorgestellt'
'vollkommen_'
'virtuelle'
'view'
'vierte'
'via'
'verwand'
'verwa'
'verursacht'
'vertie'
'verteilt_'
'vertei'
'verstanden_'
'versicher'
'versi'
'verschw'
'verschuld'
'verschiedener_'
'verringer'
'vermut'
'vermittel'
'verme'
'verleih'
'verha'
'vere'
'verbringen_'
'verbrauch'
'verbinden_'
'verbinde'
'verbi'
'verbesserte'
'vari'
'uten_'
'ute'
'uta'
'usg'
'urteil'
'urre'
'urch_'
'uo'
'unterschiedlichsten_'
'unmittelbarer_'
'ungsv'
'ungsr'
'unft'
'unent'
'unen'
'unabhängig_'
'ummer_'
'ulta'
'ulier'
'ular_'
'ugi'
'ugen'
'uf_'
'ues'
'uen_'
'uel'
'uche_'
'uch'
'uc'
'uben_'
'tür'
'tü'
'tänd'
'tzt_'
'ty'
'tv'
'tter_'
'träger_'
'trotz_'
'traditionelle_'
'tour'
'tliche_'
'tigt'
'thou'
'tge'
'tert'
'terie'
'tera'
'temp'
'technologische'
'technologie_'
'tch'
'tani'
'tale'
'südlich'
'sym'
'swert'
'stücke'
'stück_'
'ständige'
'ständig_'
'styl'
'stung_'
'stun'
'streng'
'streck'
'strategie_'
'stolz'
'stes_'
'stellung'
'steig'
'stehende_'
'stehend'
'stay'
'starten_'
'stan'
'stab'
'ssta'
'sser'
'ssene'
'sra'
'spü'
'spät_'
'spon'
'spieler_'
'spiel_'
'spezielle'
'spezi'
'sp_'
'sozi'
'sort_'
'sorg'
'som'
'soft'
'sitz'
'situation_'
'site'
'sink'
'sim'
'sign'
'sieb'
'sie'
'sg'
'setzung_'
'servi'
'selben_'
'seitens_'
'seien_'
'sehe'
'seh'
'see_'
'see'
'schäd'
'schwere'
'schul'
'schs'
'schritt'
'schriftlich'
'schnelle'
'schnell'
'schließen_'
'schicken_'
'scheinlich'
'scheinen_'
'schafts'
'sberei'
'sar'
'sanl'
'samen_'
'same_'
'salle'
'sagte_'
'rö'
'räum'
'räfte'
'rz'
'rv'
'rut'
'runde'
'ruhig_'
'ruh'
'rth'
'rsch'
'ror'
'romantische'
'rodu'
'rken'
'riert_'
'rie_'
'rger'
'reserv'
'religiös'
'relevante'
'reisende_'
'reihe'
'rechtzeitig'
'rechte_'
'rechne'
'rakt'
'rahl'
'ragende'
'rab'
'quis'
'quid'
'quell'
'quar'
'q_'
'ption'
'pte'
'prüfen_'
'programme'
'prog'
'profit'
'profes'
'produziert_'
'produz'
'produktion_'
'price'
'preise'
'preis_'
'praktische_'
'praktische'
'ppi'
'popul'
'poli'
'plätze_'
'platten'
'plant'
'place_'
'place'
'ping_'
'piele'
'piel_'
'pflicht'
'pflanz'
'persönlicher_'
'perfekte_'
'pend'
'ped'
'passe'
'pas'
'park_'
'param'
'oy'
'our_'
'osten_'
'ossen_'
'orn'
'orme'
'original'
'organ'
'ordnet'
'optische'
'onis'
'ome'
'ologische'
'ohn'
'ohlen'
'oft'
'offizielle'
'offensichtlich'
'offenen_'
'off_'
'ode'
'oci'
'och_'
'nützlich'
'nütz'
'nü'
'nötig_'
'nter'
'nteil'
'nsw'
'nsp'
'nse'
'nord'
'nomie'
'nomi'
'nli'
'nisse'
'nin'
'night_'
'niert_'
'nien_'
'nh'
'nfr'
'nete'
'ners'
'nem'
'near'
'ndungen_'
'ndr'
'nce'
'nberg'
'namen'
'nahme'
'nachf'
'mäßige'
'musik'
'mung_'
'mse'
'mpf'
'motor'
'motiv'
'moni'
'moment'
'modernste'
'modell'
'mobile_'
'mobil'
'mithilfe_'
'mite'
'minister_'
'mier'
'metri'
'method'
'meter_'
'meter'
'meta'
'mern_'
'meni'
'meister'
'medizinische'
'mea'
'mation'
'mati'
'material'
'maschinen_'
'mark'
'mari'
'manager_'
'mali'
'lösung'
'löst'
'läufig'
'lud'
'ltung'
'lti'
'ltet'
'lten'
'lte'
'lp'
'llte'
'llo'
'lip'
'lineare'
'limi'
'lies'
'lier'
'liefert_'
'liefe'
'letzte'
'lett'
'les'
'lern_'
'leistung_'
'lehn'
'lebt_'
'lea'
'laut'
'lant'
'lange'
'lands_'
'land'
'lad'
'lac'
'kühl'
'kurze'
'kurs'
'kund'
'kulture'
'kult'
'kula'
'ktor'
'ktion_'
'kte'
'ksa'
'kritisiert_'
'kreativ'
'kop'
'konzentriert'
'kontr'
'konto'
'kontinuierliche'
'kontextuell_'
'komplette_'
'kompeten'
'kommunizier'
'kommuni'
'komfortabel_'
'kombinier'
'klus'
'kleine'
'kirche_'
'kett'
'kern'
'kau'
'karten_'
'kamen'
'kad'
'jüngsten_'
'jährlich_'
'jpg_'
'ji'
'jemand'
'jekte'
'jar'
'japanischen_'
'jan'
'j_'
'ize'
'iz_'
'ivi'
'iva'
'iums'
'ität'
'itor'
'itig'
'iten_'
'ital'
'isse_'
'isierte'
'ish'
'ire_'
'ique'
'investi'
'interaktiv'
'innere'
'inne'
'inmitten_'
'inh'
'ingt'
'info'
'inan'
'impl'
'imen'
'ildungs'
'ike'
'ika'
'ießen_'
'ieß'
'ieu'
'iess'
'iesen_'
'ielt'
'ident'
'ideale'
'idat'
'ichtig'
'ibt_'
'iP'
'höhe'
'hö'
'http_'
'hrung'
'holen_'
'hoffe'
'hnte'
'hne'
'hle'
'historisch'
'hio'
'hinzu_'
'hinterl'
'hilft_'
'hilfe'
'hi_'
'heutige'
'hergestellt_'
'heraus_'
'heitlich'
'has_'
'ham'
'halte'
'hai'
'had_'
'gültige'
'gültig_'
'gui'
'gründet'
'größe'
'grenzt'
'grenz'
'grammatisch_'
'grafi'
'gor'
'gm'
'glaubt'
'glaub'
'ginal'
'gig'
'gewöhnlich'
'gewährleisten_'
'gewählt_'
'gewann'
'gewalt'
'getre'
'gestellte'
'gestalte'
'gespr'
'gesetzliche'
'geschützte'
'geschützt_'
'geschäft'
'geschrieben_'
'gesam'
'geräumige'
'gerichte'
'gepr'
'gens_'
'gend_'
'gement'
'gelassen_'
'geka'
'geho'
'gehe'
'geha'
'gegenwärtig'
'gegangen'
'gefallen_'
'gebucht'
'gebo'
'gebi'
'geber_'
'geb'
'garten_'
'fühlen_'
'fälle'
'funktionieren'
'fung'
'ftige'
'ftig'
'fter'
'fte'
'friendly_'
'freu'
'freie_'
'französischen_'
'französisch'
'format'
'flächen_'
'flexib'
'fle'
'finanzier'
'film_'
'fic'
'ffend'
'ffen_'
'ffen'
'fet'
'festi'
'feste'
'fert'
'fern_'
'fam'
'fahrt'
'ez_'
'ewi'
'europa_'
'eure'
'etzt_'
'ette_'
'esische'
'ese'
'esch'
'eröffnet_'
'erz'
'erweiterte'
'erver'
'erst'
'ersetzt_'
'erseits_'
'erse'
'erschw'
'erscheinen'
'errichtet_'
'erklärte'
'erie'
'eria_'
'erhol'
'erheb'
'erforder'
'erfolgreichen_'
'erfolgreich'
'erfolgen_'
'erfahrene'
'erfahren_'
'erend'
'ereit'
'erc'
'eratur'
'entwicklung_'
'entwick'
'entre'
'entr'
'enthalt_'
'englische'
'engagier'
'energi'
'empfangen_'
'els'
'ellt'
'eller_'
'elegante_'
'einstell'
'einrichtung'
'einr'
'einla'
'eingestellt_'
'eingerichtete'
'einfache'
'einander_'
'eilung_'
'eigenes_'
'eifen_'
'eichn'
'eich'
'eibung'
'eib'
'ehrt'
'ehme'
'ehemalige'
'egu'
'egn'
'ega'
'effektive'
'effekt'
'efer'
'eber_'
'eau_'
'dy_'
'durchführen_'
'dunkle'
'dt_'
'dst'
'dreh'
'dorf_'
'dopp'
'dol'
'dl'
'dit'
'distan'
'dini'
'dingungen_'
'dienstleist'
'df'
'derartige'
'demo'
'deb'
'date'
'danach_'
'dam'
'dag'
'coo'
'cont'
'cons'
'code'
'close_'
'clean_'
'ckt'
'chung'
'chts_'
'chtet'
'chter_'
'chst'
'chs_'
'christliche'
'chrift'
'chri'
'chm'
'chlag'
'chinesischen_'
'chinesische_'
'chemische'
'chambre'
'büh'
'bö'
'burger_'
'bring'
'breit'
'bour'
'bot_'
'board'
'bitten_'
'bisherige'
'bildung_'
'bezeichn'
'bewährt'
'bestand_'
'besondere'
'besi'
'beschr'
'beschlossen_'
'beschl'
'berücksichtigt_'
'berü'
'bereiche_'
'beraten_'
'beliebte'
'beliebigen_'
'beleg'
'behe'
'behaupte'
'begre'
'beginnen'
'begeh'
'bega'
'beeindruckende'
'beein'
'beachten_'
'bea'
'basi'
'barung'
'bahnhof'
'azität'
'ax'
'avec_'
'außerhalb_'
'außergewöhnlich'
'ausreichend_'
'ausgewählten_'
'ausgestattete'
'ausgest'
'ausger'
'ausgedr'
'ausgeb'
'ausf'
'ausdrück'
'ausch'
'aur'
'aulich'
'aufzub'
'aufre'
'aufget'
'aufgef'
'aufbe'
'aufbau'
'ator_'
'atm'
'atischen_'
'atin'
'ata'
'artig'
'armen_'
'aris'
'arbeitete'
'arbe'
'api'
'ansta'
'anschließend_'
'anr'
'anp'
'anonym'
'anlage_'
'angest'
'ange_'
'anfä'
'anfa'
'andlung_'
'anda'
'amt'
'ament'
'amen'
'alw'
'alu'
'alo'
'alls'
'allgemeine'
'aller'
'alit'
'alisiert'
'aktualisieren_'
'aktiviert_'
'ak_'
'agung'
'agne'
'agi'
'after_'
'add'
'ace'
'abo'
'abgesch'
'abe'
']] [[_'
']'
'Zürich_'
'Zwi'
'Zw'
'Zusätzlich_'
'Zustimmung_'
'Zustell'
'Zust'
'Zusatz'
'Zusammenhang_'
'Zuc'
'Zone'
'Zinss'
'Zeug'
'Zel'
'Zeichn'
'Zahlungs'
'Zahlen'
'You'
'Yo'
'XP_'
'Wörter'
'Wär'
'Wort_'
'Work'
'Wochen'
'Wissenschaft_'
'Willkommen_'
'Wil'
'Wiki'
'Wide'
'Wesen'
'Weltkrieg_'
'Weltb'
'Weinberge'
'Wege_'
'We_'
'Waren'
'WM'
'Vorstand'
'Vorlage'
'Vorgänge'
'Volkswirtschaft'
'Vic'
'Verzeichnis'
'Vertrieb'
'Verteidig'
'Vert'
'Verpackung'
'Vermi'
'Verbrechen_'
'Verbraucher'
'Verbr'
'Verarbeitung_'
'Veranstaltungs'
'Vene'
'Vale'
'Us'
'Ursprung'
'Update_'
'Unterschied'
'Unternehmer'
'Universität'
'Unge'
'Umwelt_'
'Umw'
'Umstände'
'UT'
'USS_'
'USB_'
'US'
'UNG'
'Tür'
'Turi'
'Trock'
'Traum'
'Transport_'
'Transport'
'Transaktion'
'Trag'
'Trac'
'Touristen_'
'Tour_'
'Top_'
'Tom'
'Tode'
'Tisch_'
'Tickets_'
'Therapie'
'Theorie'
'Tests'
'Ten'
'Tel'
'Teilnahme'
'Tec'
'Tau'
'Taten_'
'TZ'
'TS'
'TRA'
'TER'
'Sym'
'Sur'
'Sul'
'Suite_'
'Städt'
'Studien_'
'Studie_'
'Street_'
'Strecke_'
'Strahl'
'Straf'
'Stock_'
'Steuern_'
'Stellen_'
'Station_'
'Star'
'Stadtt'
'Staatss'
'Spiele_'
'Spezial'
'Spektr'
'Spalte'
'Spa'
'Sonde'
'Skript'
'Sinn'
'Single'
'Sing'
'Sicherung_'
'Sic'
'Shar'
'Sha'
'Server'
'Serien'
'Sens'
'Selbst_'
'Sekt'
'Schä'
'Schwerpunkt_'
'Schweizer_'
'Schutz'
'Schre'
'Schlusselwort_'
'Schlusselphrase_'
'Schlu'
'Schlei'
'Schiff_'
'Schie'
'Sankt'
'SU'
'STE'
'SH'
'SD'
'SCH'
'Rücks'
'Rücken'
'Rü'
'Ruhe_'
'Ruh'
'Rub'
'Roy'
'Rom_'
'Rom'
'Roll'
'Robert_'
'Riv'
'Ris'
'Richtlinien_'
'Rhe'
'Revolution_'
'Ret'
'Residen'
'Reserv'
'Rel'
'Reinigung_'
'Reihen'
'Regionen_'
'Rechn'
'Reb'
'Reaktion'
'Rea'
'Quellen_'
'Quell'
'Pyr'
'Provinz'
'Proto'
'Prote'
'Produzent'
'Problemen_'
'Problem'
'Prinz'
'Pres'
'Prag_'
'Portfolio'
'Poly'
'Point'
'Plug_'
'Pis'
'Perspektive'
'Pers'
'Pat'
'Passa'
'Partei_'
'Parkplatz_'
'Paradi'
'Palette_'
'PG_'
'Ox'
'Out'
'Orte'
'Ort'
'Org'
'Ordn'
'Ord'
'Optimi'
'Obs'
'Oas'
'OS_'
'ODER_'
'Nun_'
'Nummer_'
'Nr_'
'Note'
'Nord_'
'Neue_'
'Neue'
'Naturp'
'Nachrichten_'
'NT'
'NAT'
'Möbel'
'Mö'
'Mädchen'
'Mut'
'Museen_'
'Morgen'
'Monate_'
'Modul_'
'Model_'
'Mode_'
'Mobili'
'Mobilfunk'
'Mitarbeitern_'
'Minibar_'
'Mine'
'Mindest'
'Milli'
'Mill'
'Method'
'Meta'
'Menü'
'Mehr_'
'Master'
'Massen'
'Mass'
'Mahlzeit'
'Madr'
'Mac_'
'MS'
'ML_'
'Lö'
'Län'
'Lounge_'
'Lon'
'Lok'
'Lohn'
'Literat'
'Lite'
'Lit'
'Lip'
'Leipzig_'
'Lebens_'
'Landwirtschaft'
'Lam'
'Lager_'
'Lage'
'Lag'
'Laden'
'Lad'
'Labo'
'LD'
'Kürze_'
'Köln'
'Kritik_'
'Kosten'
'Korre'
'Kontext_'
'Konsu'
'Konstrukt'
'Konflikt'
'Kompetenz'
'Kommun'
'Kommen_'
'Kollegen_'
'Kohle'
'Know'
'Kno'
'Klä'
'Klo'
'Kirchen_'
'Kauf_'
'Katalo'
'Kapitel'
'Kanada_'
'Kampagne_'
'Kaiser'
'Jur'
'Jor'
'Joh'
'Jeder_'
'Jazz'
'Jam'
'Italien'
'Investitionen_'
'Internetseite'
'Internationale_'
'Instru'
'Installation'
'Insp'
'Innovation'
'Ing'
'Individu'
'Impl'
'Immer'
'Ideal'
'Ic'
'ISO_'
'IC_'
'IB'
'IA_'
'Hü'
'Höhe'
'Hostels_'
'Home_'
'Hom'
'Holz'
'Hoffnung_'
'Hitler'
'Hinweis_'
'Hinsicht_'
'Highlights_'
'High_'
'Herr'
'Herb'
'Herausforderung_'
'Hektar_'
'Hauses_'
'Harr'
'Halle_'
'Hai'
'HS_'
'Gründung'
'Grunds'
'Gross'
'Griech'
'Global'
'Glauben_'
'Glas'
'Gitarre'
'Gewinne_'
'Gewinne'
'Gewebe'
'Getr'
'Gerät_'
'Gerät'
'German'
'Generat'
'General_'
'Gelände'
'Gelegenheit_'
'Geld'
'Geist_'
'Gebäuden_'
'Geben_'
'Garten'
'Garant'
'Gar'
'Galle'
'GS'
'Förderung_'
'Fähr'
'Fund'
'Frühstücks'
'Fris'
'Friedens'
'Freitag_'
'Francisco_'
'Fortschritt'
'Fort'
'Formen'
'Forma'
'Ford'
'Foo'
'Fon'
'Flüge'
'Flüchtling'
'Fläche_'
'Fluss'
'Fle'
'Finn'
'Final'
'Filter'
'Filmen_'
'Fertig'
'Ferienwohnung'
'Fans_'
'Fakt'
'Exc'
'Eröffnung_'
'Erst_'
'Ersatz'
'Erre'
'Erklärung'
'Erkenntnis'
'Eri'
'Erhöhung_'
'Ereignisse_'
'Erb'
'Entwicklungsländer'
'Entwicklungen_'
'Entwickler_'
'Enterprise_'
'Engagement_'
'Empfangs'
'Emp'
'Eintritt_'
'Einstieg'
'Einr'
'Einkommens'
'Einklang_'
'Eindr'
'Eigentümer_'
'Eigent'
'Eigenschaften_'
'Eb'
'ENT'
'EE'
'EC'
'Dub'
'Druck_'
'Drive'
'Dre'
'Dr'
'Dort_'
'Dona'
'Div'
'Distribut'
'Dies'
'Dicht'
'Dialog'
'Diag'
'Detail'
'Desktop'
'Deine'
'Dea'
'De_'
'Datum_'
'Datei'
'Data'
'DS_'
'DO'
'DJ_'
'DF'
'DE_'
'Cur'
'Cookies_'
'Cons'
'Colo'
'Code_'
'Cocktail'
'Client_'
'Cli'
'Class'
'Chor'
'Chinas_'
'Chemi'
'Chan'
'Cat'
'Card_'
'Camp'
'Café_'
'CT'
'CS'
'Börse_'
'Bö'
'Busse'
'Buche'
'Brow'
'Breme'
'Bras'
'Box'
'Bogen'
'Boden_'
'Block'
'Blo'
'Ble'
'Bildung_'
'Bibliothek_'
'Bewer'
'Bevölkerung'
'Betriebssystem'
'Beschäftig'
'Beschr'
'Berufs'
'Berichte'
'Beitr'
'Begriff_'
'Bedürfnisse_'
'Beat'
'Bearbeitung'
'Baum'
'Bau_'
'BU'
'Autor_'
'Austausch_'
'Ausstell'
'Ausstattung_'
'Ausland_'
'Ausf'
'Ausblick'
'Ausbildung_'
'Auftrags'
'Aufst'
'Aufr'
'Auflösung'
'Aufgrund_'
'Asi'
'Arr'
'Aro'
'Arena'
'Arbeitsplätze'
'Arbeitgeber'
'Anzeige'
'Anz'
'Antwort_'
'Ansa'
'Annehmlichkeiten_'
'Anna'
'Anhänger'
'Anha'
'Angriff_'
'Ange'
'Anfänge'
'Anf'
'Anerkennung_'
'Ande'
'Amt'
'Amsterdam'
'Ami'
'Amerikaner_'
'Ambiente_'
'Alternative'
'Alm'
'Ala'
'Aktionen_'
'Airport_'
'Airbus_'
'Agentur'
'Ade'
'Acht'
'Abfa'
'Abenteuer'
'AT'
'?'
'= '
'://_'
'99'
'96_'
'94'
'87'
'62'
'61'
'51'
'500'
'46'
'45'
'39'
'170'
'04_'
'---'
'-'
''' _'
' �_'
' *'
' $_'
' "'
'�'
'™ '
'“.'
'“)'
'‘'
'у_'
'ор'
'ль'
'й_'
'π'
'βe'
'α_'
'üß'
'üste'
'üssel'
'üns'
'ünfte'
'ührung'
'ührte'
'ücke_'
'übliche'
'überz'
'überwinden_'
'übertragen'
'überschrei'
'übernahm'
'übermittel'
'überhaupt_'
'östlich'
'önli'
'öme'
'ögen'
'öffnen_'
'ó_'
'ça'
'äufe'
'ätt'
'ästi'
'ässe'
'äs'
'änze'
'änkt'
'ängig'
'änger'
'ängen_'
'ändige'
'änd'
'ämpfe'
'ämpf'
'ältnis'
'älte'
'ällig'
'äler'
'ähnlich_'
'äh'
'äfen_'
'ächen'
'äche'
'ál'
'ßli'
'Übertragung'
'Übersicht'
'Überprüf'
'Überleben'
'Überblick_'
'ÜBER'
'Öffnung'
'Öff'
'Ära_'
'®'
'}})'
'zün'
'züglich'
'zü'
'zählen'
'zwan'
'zutre'
'zutage_'
'zustand_'
'zurückk'
'zukünftigen_'
'zuk'
'zuha'
'zugänglich_'
'zugrunde_'
'zugr'
'zufrieden'
'zuerst_'
'zone_'
'zim'
'zif'
'zierte'
'zieren_'
'zier_'
'zien'
'ziel'
'zer_'
'zentra'
'zeitige'
'zeigte_'
'zed'
'zation'
'zahlt_'
'ysteme'
'ypt'
'your'
'yn_'
'yg'
'ye_'
'yb'
'yag'
'xn'
'xiko'
'würdige_'
'wünschen_'
'wöchentlich'
'wäch'
'wunderbare'
'wunder'
'wollten_'
'woll'
'wod'
'wissenschaftlich'
'wissens'
'willkommen_'
'wien'
'wiederum_'
'wide'
'wichtig'
'wic'
'whe'
'wett'
'westlichen_'
'wendung'
'weltweite'
'welchen_'
'weißen_'
'weiterer_'
'weile'
'web'
'warten_'
'ward'
'wahre'
'wah'
'vorzu'
'vorschlagen_'
'vorn'
'vorliegt_'
'vorkomm'
'vorher'
'vorbereitet'
'voran'
'vollständige_'
'volle_'
'volle'
'vita'
'vilis'
'viertel_'
'vielf'
'veröffentlichen_'
'verändert'
'verändern_'
'verzi'
'verzeichne'
'verwendeten_'
'verwei'
'verwaltung'
'verw'
'vertrag_'
'versteh'
'verso'
'verschli'
'verschi'
'vers_'
'vers'
'verr'
'verp'
'vermiet'
'verlä'
'verlieren_'
'verlieh'
'verlauf'
'verhältnis'
'verhe'
'verge'
'verdiene'
'verbindungen_'
'verban'
'verantwortungs'
'vent'
'veni'
'vell'
'varia'
'uße'
'uv'
'uto'
'ustellen_'
'uste_'
'usse'
'ursprünglichen_'
'ursprünglich'
'uro'
'urgisch'
'urf_'
'unz'
'unvergessliche'
'untr'
'unterz'
'untersucht'
'unterstütz'
'unterschiedlich_'
'unterscheide'
'unterliegen'
'untere'
'unmittelbar'
'unko'
'ungsl'
'ungsf'
'ungen'
'unf'
'une'
'unda'
'unbedingt_'
'umz'
'umw'
'umgesetzt'
'umgehen'
'umgeben_'
'umfassen'
'umfangreicher'
'umfangreichen_'
'umfa'
'ulär'
'uli'
'ulation'
'ular'
'ugn'
'uen'
'ueber'
'uchen_'
'ublikan'
'ubig'
'ube'
'uar'
'tück'
'tätig_'
'täten_'
'tädte'
'tzte'
'tzend'
'typische_'
'typisch_'
'typen'
'twortung'
'twortlich'
'twi'
'tun'
'tu_'
'tts'
'ttet'
'tta'
'trächtig'
'tropische'
'tro_'
'trieb'
'trenn'
'treibe'
'trav'
'trau'
'trat_'
'trage'
'tradi'
'tra_'
'town'
'tot'
'tne'
'tli'
'tiv'
'tirol'
'tip'
'tike'
'tige_'
'tig_'
'tierte'
'tiere'
'tier'
'tia'
'thr'
'thi'
'there_'
'thei'
'tform_'
'tete'
'terr'
'termin'
'tens'
'tene'
'tende'
'telefone'
'tein'
'teilt'
'teilnehme'
'teig'
'technologi'
'technik'
'techni'
'team_'
'td'
'tausende_'
'tausend_'
'tause'
'taus'
'tation'
'taten_'
'tadt_'
'sämtliche'
'sächlich'
'sze'
'svoll'
'sv'
'sum'
'stütz'
'stärke'
'ständigkeit_'
'studie'
'strei'
'strat'
'strahl'
'straf'
'stliche'
'stische_'
'stische'
'stisch_'
'stetig'
'stelle'
'steigen_'
'stehenden_'
'starte'
'starke_'
'starke'
'stanz'
'stande'
'staben'
'staatlichen_'
'staatliche_'
'sstr'
'sson_'
'sr'
'squa'
'squ'
'spu'
'sprachige'
'sportlich'
'spielte'
'spezifische'
'spezielle_'
'spektak'
'soweit_'
'sorti'
'sorgt_'
'sonstige_'
'sonstige'
'sogenannte'
'sog'
'smar'
'sman'
'small_'
'sitze'
'sion_'
'sio'
'silber'
'sig'
'sierung_'
'sierte'
'sib'
'shop'
'ship'
'sgr'
'sges'
'sex'
'sern_'
'seri'
'separate'
'sendet'
'selb'
'seit'
'sechs'
'schönes_'
'schöne'
'schö'
'schä'
'schwierig_'
'schweiz'
'schwarze_'
'scht'
'schränk'
'schreib'
'schra'
'schoen'
'schnellen_'
'schnelle_'
'schlechte'
'schlecht_'
'schla'
'schic'
'schenke'
'schei'
'schaff'
'saubere'
'satz'
'same'
'sak'
'saf'
'rüst'
'rün'
'rüh'
'röße'
'rät'
'rän'
'rzeit'
'ry'
'russ'
'rus'
'rupt'
'rup'
'rungen'
'ruf'
'ruck'
'ruc'
'rtung'
'rtig'
'rtet_'
'rsen'
'rov'
'round'
'roni'
'roma'
'roh'
'rog'
'roc'
'rkt_'
'rität'
'ristische'
'rise'
'rim'
'riff'
'rieg'
'richten_'
'rich_'
'rge_'
'rge'
'rfe'
'reu'
'result'
'restli'
'restaurant'
'restaur'
'ression'
'resp'
'rent'
'renov'
'renommierte'
'rend'
'rela'
'rel'
'reitung_'
'reiten_'
'reise_'
'rein'
'reibung'
'regulier'
'registr'
'regelmäßige'
'rege'
'ree'
'red_'
'rechts'
'rechtliche_'
'reche'
'realisier'
'reagier'
'rder'
'rche'
'rant'
'rangi'
'ramm'
'ram'
'rale'
'radi'
'racht'
'quellen_'
'qm_'
'punkte'
'punk'
'pto'
'pti'
'psy'
'prüf'
'prozess_'
'prozess'
'provide'
'professionelle_'
'produkten_'
'probier'
'prob'
'private'
'prechen'
'ppo'
'ppe_'
'pour_'
'potenti'
'politi'
'pm'
'pli'
'ple_'
'play'
'platz'
'planen_'
'pite'
'pisch'
'piel'
'phy'
'pher'
'pflege'
'pert'
'persönliche_'
'personenbezogenen_'
'perf'
'pel'
'pei'
'passiert_'
'parung'
'partner_'
'parat'
'papier'
'pai'
'page_'
'oß'
'othek_'
'othek'
'oten'
'ote'
'osit'
'osi'
'osen'
'orti'
'ors_'
'orge'
'orfen_'
'orf'
'oren'
'ore_'
'ore'
'ordi'
'optimier'
'opi'
'operation'
'onsten_'
'onst'
'onomi'
'only_'
'onia'
'omme'
'omat'
'oma'
'olen_'
'oire'
'oh'
'ogie'
'ogene'
'offi'
'offene'
'off'
'oberfl'
'obachte'
'nügen_'
'nördlich'
'nya_'
'nve'
'nungen_'
'num'
'ntie'
'nte'
'nstig'
'noi'
'nnu'
'nlo'
'nive'
'nischer_'
'ning_'
'niemals_'
'niedrigere'
'nieder'
'nich'
'nhei'
'ngl'
'ngeb'
'nga'
'nf_'
'nenne'
'nehmer_'
'negative'
'ndlungen_'
'ndete_'
'ndes_'
'nci'
'nche'
'nba'
'nati'
'nas'
'namen_'
'nahm'
'nachzu'
'mögliche'
'mäßig_'
'mässig_'
'musikalischen_'
'muse'
'mte'
'mou'
'most'
'modul'
'modernes_'
'modern'
'mo_'
'mmung'
'mmert'
'mitteln_'
'mittelalterliche'
'mitte'
'mitt'
'mis'
'ministrat'
'ministerium'
'minier'
'mind'
'metr'
'met_'
'menü_'
'ments_'
'menschliche_'
'menschlich'
'mens_'
'meld'
'meist'
'meint'
'meine'
'meer'
'mediterran'
'mechanis'
'maßgeschneiderte_'
'mau'
'mate'
'marke'
'mar_'
'mant'
'maler'
'male'
'mail'
'magi'
'läuf'
'länger'
'ländische'
'länder_'
'lze'
'lw'
'luss_'
'luft'
'lts'
'love'
'lossen_'
'look'
'locke'
'llige'
'ller'
'llel'
'liziert_'
'liti'
'linien'
'ling_'
'licht_'
'licht'
'lichst'
'lichkeit'
'liches_'
'liche'
'lfe'
'lev'
'letzter_'
'letz'
'lem'
'leitet_'
'leiten'
'leite'
'leistungen_'
'leistet_'
'leisten_'
'leiste'
'leider_'
'leiden_'
'lehre'
'legen'
'laufende'
'late'
'langsam_'
'lande'
'lage'
'künftig'
'kämpf'
'kut'
'kus_'
'kurzfristig'
'kunst_'
'kulturellen_'
'kulturelle_'
'kulinarische'
'ktr'
'kriti'
'kris'
'krati'
'krank'
'korrigier'
'korea'
'konve'
'kontrolliere'
'konstru'
'komple'
'kommerzielle_'
'kommenden_'
'komfortable'
'kohol'
'kno'
'klima'
'kli'
'klassischen_'
'klassische_'
'klassi'
'klas'
'kg_'
'kennt_'
'keln'
'keines'
'keiner'
'kation_'
'kanischen_'
'kani'
'kan_'
'kalen'
'kale'
'kai'
'jüdischen_'
'jährliche'
'jä'
'just'
'jew'
'jener_'
'jed'
'jahre'
'jahr'
'jag'
'ió'
'izont'
'izie'
'izi'
'ivität'
'iu'
'itä'
'itut'
'itung_'
'italienische_'
'isung'
'istische'
'ister'
'islamis'
'isie'
'iro'
'irgendw'
'irc'
'iran'
'ipp'
'ior_'
'inzwischen_'
'intern'
'interes'
'integriert_'
'institut'
'inst'
'insp'
'ino_'
'ino'
'initi'
'ingl'
'ingen_'
'iness'
'industrielle'
'indlich'
'indisch'
'indig'
'inder'
'inden_'
'immt_'
'illa'
'ilit'
'ilien_'
'ilette'
'ildung'
'ild_'
'igungen_'
'igu'
'igno'
'igkeiten_'
'ight'
'iges_'
'ift'
'ifen'
'iere_'
'iehe'
'iegen_'
'iegen'
'iebe'
'idung'
'ider_'
'ickl'
'ichtungen_'
'ichtigung_'
'iche'
'ible_'
'hört'
'höf'
'höchst'
'hôte'
'häufig'
'häu'
'hän'
'hydr'
'hund'
'htl'
'hrt'
'holt'
'hoh'
'hno'
'hlich'
'histori'
'hisch'
'hinzuf'
'hinweisen_'
'hinte'
'hinsichtlich_'
'heut'
'herzlich_'
'hervorragende_'
'herstell'
'here_'
'heiße'
'heim'
'hedra'
'haushalt'
'haus'
'haupt'
'hart'
'hard'
'handwerk'
'haltung_'
'hall'
'hafte'
'haft_'
'haf'
'haber_'
'günstig'
'gäste'
'gänger'
'gänge_'
'gäng'
'gut'
'gura'
'gt'
'gsten'
'gründe'
'gröss'
'große'
'grou'
'grossen_'
'gross'
'griff'
'grat'
'graphisch'
'grand'
'grad_'
'grad'
'gni'
'gner_'
'gmen'
'globale_'
'gleiche'
'glaube_'
'gion'
'ginge'
'gewicht'
'gete'
'getan'
'gesu'
'gestr'
'geste'
'gestaltet_'
'gespielt'
'gespeichert_'
'gesellschaftliche'
'geschu'
'geschoss_'
'geschn'
'geschmackvoll'
'geschaffen'
'gerät_'
'gerät'
'gert'
'gere'
'geprägt_'
'geplant'
'gepfl'
'gep'
'genügend_'
'genie'
'gena'
'gemeinsamen_'
'gelände_'
'geltenden_'
'geln'
'geliefert_'
'geli'
'gelei'
'geke'
'geistige'
'gehen'
'gehalten_'
'gegens'
'gefüh'
'gefügt'
'gefol'
'geeignete'
'gebü'
'gebun'
'gebrauch'
'gebiete'
'geba'
'gearbeitet_'
'gb'
'garn'
'garantiert'
'gang'
'galerie'
'fünft'
'führer_'
'führ'
'fühlt'
'fé'
'fäll'
'fähigkeit'
'fähige'
'fung_'
'ftw'
'ften_'
'fristig'
'freundlich'
'freund'
'free_'
'fou'
'fortge'
'forsch'
'fordert'
'fordern'
'first_'
'fir'
'finde'
'fertigt'
'fertige'
'felder'
'feier'
'fehlen'
'fat'
'faszinierende'
'fas'
'farbe'
'fant'
'falsche'
'fall'
'facilit'
'ez'
'exzellente'
'extr'
'extern'
'ext'
'expl'
'exper'
'exp'
'exklusiven_'
'exklusive'
'excellent_'
'exakt'
'ex_'
'eva'
'eute'
'europ'
'ett_'
'etr'
'estr'
'ester_'
'esen'
'eröffnete'
'erzielt'
'erzie'
'erworben'
'erstreckt_'
'erstell'
'erschl'
'ermo'
'erleichter'
'erkun'
'erkennt'
'erkannt_'
'ering_'
'erheblich'
'ergänzen_'
'ergehe'
'erforderliche'
'erfassen_'
'erfa'
'eration'
'eran'
'entstand_'
'entsta'
'entsprechender_'
'entspannt'
'entspannen_'
'entsp'
'entschlossen'
'entscheidend'
'enthaltene'
'enth'
'entferne'
'enst'
'enschaft'
'enorme'
'enne'
'enland'
'enken_'
'englisch'
'enger_'
'enge_'
'enfalls_'
'endl'
'empfängt_'
'ement'
'ely_'
'elf'
'ektor_'
'ekt'
'eitig'
'einzigen_'
'einzigartige'
'einzig'
'einzelne'
'eintr'
'einstellen_'
'einsetze'
'eink'
'einheit'
'eingeschr'
'eingesch'
'eingen'
'einfachen_'
'eindruck'
'eignet_'
'eichnung'
'eichen_'
'ei_'
'ehen'
'egungs'
'egs_'
'egorie'
'egen'
'egal_'
'eff'
'ef_'
'ee_'
'eckt_'
'echn'
'echen'
'ebra'
'dürf'
'dü'
'däm'
'dus'
'durchzu'
'durchge'
'durchaus_'
'dun'
'dul'
'dritten'
'dringen'
'dp'
'down'
'double_'
'dose'
'dokument'
'dlich_'
'dler_'
'divers'
'dium'
'diti'
'diskut'
'direc'
'ding'
'dige'
'dier'
'dienen_'
'diag'
'dge'
'deutsche'
'deutsch_'
'ders_'
'dere'
'denken_'
'denke_'
'denh'
'dende'
'dei'
'deh'
'definierte'
'defini'
'ded_'
'day'
'dauert'
'dauerhafte'
'dah'
'cus'
'cur'
'could'
'convenient_'
'ckten_'
'cks'
'cia_'
'chul'
'chts'
'chtigen_'
'chsen'
'chni'
'chle'
'chkeit'
'chir'
'ches_'
'chem_'
'charm'
'chance'
'chal'
'chaft'
'centra'
'cci'
'cati'
'case'
'cac'
'bür'
'bunte'
'bui'
'bst'
'breite_'
'breche'
'breakfast_'
'braucht_'
'brauch_'
'bloß'
'blic'
'blauen_'
'biss'
'billig'
'bild_'
'big'
'beziehung'
'bezahlt'
'bewir'
'bewegen_'
'bevor'
'bette'
'bett_'
'betroffen_'
'betrieben_'
'betreffende'
'betrachtet_'
'besuchte'
'bestimmte'
'bestehenden_'
'besitz'
'beschränkt'
'berühmte'
'berufliche'
'bereitet'
'berechnet'
'bere'
'berater'
'benachbarte'
'bemerken'
'bell'
'beliebten_'
'bekommt_'
'behoben_'
'behinderte'
'beher'
'behandeln_'
'begründe'
'befre'
'befo'
'befa'
'beeinfluss'
'bedro'
'bedeutendste'
'beda'
'bed_'
'beb'
'bearbeitung'
'beant'
'beach'
'bb'
'baus'
'bauen_'
'basiere'
'base_'
'bas'
'band'
'ball'
'bald_'
'avo'
'aux_'
'autori'
'automatisier'
'automat'
'auth'
'aut'
'ausstell'
'ausstatt'
'ausschl'
'aussch'
'ausgezeichnete_'
'ausgezeichnete'
'ausgezeichnet_'
'ausgeschlossen_'
'aufst'
'aufnehmen_'
'aufn'
'aufges'
'aufgenommen_'
'auer'
'auc'
'aub'
'ature'
'atur_'
'atoren_'
'ator'
'atische_'
'atisch'
'ates'
'atemberaubende'
'ated_'
'astr'
'ast'
'assu'
'ase_'
'artment'
'artigen_'
'arriv'
'ark_'
'ark'
'arg'
'arbeitung'
'arbeite'
'anwende'
'antike'
'anspruchsvoll'
'anschlie'
'anschl'
'anhalten'
'angesi'
'angepa'
'angenehme'
'angefa'
'angef'
'angebote'
'aner_'
'ando'
'andi'
'amo'
'ama'
'alternativ'
'alm'
'allge'
'ale'
'aktiviere'
'aktive'
'aktion'
'akte'
'ahre'
'ahmen_'
'ahl'
'agt'
'ager'
'aft'
'affen_'
'ada_'
'acti'
'aci'
'achte_'
'achstum_'
'achsen'
'acco'
'access'
'abt'
'`'
']], _'
'\\'
'Zü'
'Zweiten_'
'Zweck'
'Zulassung'
'Zuf'
'Zube'
'Zoll'
'Zo'
'Zimmerbeschreibung'
'Zieh'
'Zertifi'
'Zent'
'Zem'
'Zelle'
'Zeitung_'
'Zeile'
'Zei'
'Zahl'
'XML_'
'XI_'
'Wür'
'Wäsche'
'Wäldern_'
'Währungs'
'Wäh'
'Wunsch'
'Workshop'
'Wohnungen_'
'Wohlstand'
'Wit'
'Wissenschaft'
'Wissens'
'Wirtschaftsw'
'Wirtschaftsk'
'Wirksamkeit_'
'Wirklichkeit_'
'Wintersp'
'Wies'
'Wiener_'
'Wiederh'
'Wh'
'Western_'
'Werbe'
'Weltk'
'Welche'
'Weiterentwicklung_'
'Weitere_'
'Weing'
'Wash'
'Wartung'
'Warn'
'Waren_'
'Ware_'
'Wandern_'
'Wandel_'
'Wall'
'Wahrheit_'
'Wahle'
'Wagen'
'Wac'
'Vö'
'Vorste'
'Vorschlag_'
'Vorsch'
'Vorr'
'Vorbe'
'Voraussetzungen_'
'Vol'
'Visi'
'View'
'Vier'
'Vie'
'Veröffentlichun'
'Verz'
'Vertrauen'
'Vertrag_'
'Versicherung'
'Verschie'
'Verpackungs'
'Verme'
'Verm'
'Verlust_'
'Verlauf_'
'Verkäufer'
'Verhältnis'
'Verhalten_'
'Verfass'
'Verfahren_'
'Verbreit'
'Verbesserungen_'
'Verband'
'Vater_'
'Vari'
'Urheberrecht'
'Upgrade'
'Untersuchung'
'Unterschiede_'
'Unterricht'
'Unterhal'
'Unf'
'Unbe'
'Unabhängigkeit'
'Umsatz'
'Umgebung'
'Umfeld_'
'Uh'
'USE_'
'UA'
'Tut'
'Tunes'
'Tschechische'
'Ts'
'Trump'
'Tru'
'Trotz'
'Trop'
'Trek_'
'Treib'
'Train'
'Tradition_'
'Tourismus_'
'Tor_'
'Tis'
'Time'
'Tie'
'Ticket'
'Tho'
'Thes'
'Thermal'
'Therm'
'Theater'
'Territor'
'Terminal'
'Termin_'
'Ter'
'Tep'
'Tendenz'
'Temperatur_'
'Tempera'
'Teilnehmer'
'Teilen_'
'Tei'
'Technologie'
'Team'
'Taxi'
'Tat_'
'Tai'
'TE_'
'Systemen'
'Symbol_'
'Symb'
'Swimmingpool_'
'Swi'
'Suchmaschine'
'Stück'
'Stü'
'Störung'
'Stunde_'
'Studio_'
'Studenten_'
'Strände_'
'Straßen_'
'Stras'
'Stift'
'Sternen'
'Steph'
'Stellung'
'Stand'
'Stadtv'
'Stadtp'
'Stabili'
'Spri'
'Spreche'
'Spitz'
'Spir'
'Spieler'
'Spielen_'
'Spezialist'
'Speci'
'Spaziergang_'
'Spani'
'Space_'
'Sowohl_'
'Sound'
'Sonntag_'
'Song_'
'Sondera'
'Solar'
'Soci'
'Sn'
'Smart'
'Sm'
'Sli'
'Sl'
'Skifahre'
'Sign'
'Sieg_'
'Sicher'
'Shutt'
'Servic'
'Selbstver'
'Sein'
'Security'
'Sco'
'Sci'
'Schü'
'Schwer'
'Schwei'
'Schulung'
'Schulden'
'Schnittstelle_'
'Schmerz'
'Schlo'
'Schiffe'
'Schalte'
'Schal'
'Schaffung_'
'Sands'
'Samstag_'
'Sammlung'
'Salzburg_'
'Saf'
'Sach'
'ST_'
'STA'
'SITE_'
'SE_'
'SDL_'
'Rückk'
'Röm'
'Räume_'
'Russ'
'Route'
'Rotary_'
'Rooms_'
'Roma'
'Rock'
'Rob'
'Risiko_'
'Richtig'
'Rezept'
'Revi'
'Reservierung'
'Repräsentation'
'Rele'
'Reit'
'Reisende'
'Reiche'
'Regist'
'Regelung'
'Referen'
'Redu'
'Rede_'
'Redakt'
'Red_'
'Rechner_'
'Reche'
'Radio_'
'Rab'
'RT'
'REN'
'Quar'
'Qualit'
'Quad'
'Putin'
'Punkte_'
'Puerto_'
'Prüfung_'
'Präsent'
'Pros'
'Programmier'
'Prof'
'Produktionss'
'Probe'
'Private_'
'Prim'
'Presse'
'Press_'
'Premi'
'Praktik'
'Posit'
'Portug'
'Polizei'
'Poker_'
'Pod'
'Plätze'
'Plaza_'
'Plas'
'Planung_'
'Planeten'
'Plane'
'Plan_'
'Pir'
'Philosoph'
'Phi'
'Pha'
'Pfa'
'Performance_'
'Pension'
'Patr'
'Pati'
'Patch'
'Past'
'Partnerschaft_'
'Parad'
'Pakistan'
'PM'
'PL'
'PI'
'Ortschaft'
'Original_'
'Organisationen_'
'Ora'
'Opfer_'
'Olym'
'Oliven'
'Od'
'Obst_'
'Objekt_'
'Oberfläche_'
'OU'
'OF'
'Nutzer'
'Null'
'Nov'
'Norma'
'Nokia_'
'Niko'
'News'
'Neues'
'Nero'
'Ner'
'Nebe'
'Navig'
'Natursch'
'Nationen_'
'Nahrung'
'Nahe'
'Nachhaltigkeit'
'Nachf'
'NET'
'ND'
'Müh'
'Möchte'
'Männer'
'Mängel_'
'Mä'
'Muss'
'Muslime'
'Musike'
'Music_'
'Mur'
'Mountain'
'Moska'
'Mol'
'Modus_'
'Modul'
'Mittelpunkt_'
'Mittag'
'Mitarbeit'
'Mir'
'Militär'
'Micro'
'Micha'
'Metern_'
'Metall'
'Messung'
'Menü_'
'Menschenrechte'
'Meine'
'Mei'
'Maß_'
'Maxi'
'Mauer'
'Math'
'Martin_'
'Mars'
'Marktf'
'Market'
'Marken_'
'Marken'
'Marke_'
'Mario'
'Mann'
'Manch'
'Mana'
'Mallor'
'Macht'
'MO'
'MAT'
'Luxu'
'Luftfahr'
'Luc'
'Loca'
'Lobby'
'Lizenz_'
'Lis'
'Lig'
'Lieferanten'
'Len'
'Leistungsverh'
'Leidenschaft'
'Lehrer'
'Lee'
'Learn'
'LTE'
'LIN'
'LIE'
'LI'
'Küsten'
'Kün'
'Kühlsch'
'Körper'
'König_'
'Kämpf'
'Kulturen_'
'Kris'
'Krankheit_'
'Koordinat'
'Konzern_'
'Kontakti'
'Konk'
'Kongress_'
'Kongress'
'Konflikt_'
'Konfiguration_'
'Konfi'
'Komplettpreise_'
'Kommission'
'Kolumb'
'Kollektion'
'Kling'
'Klin'
'Klima_'
'Klaus'
'Kind_'
'Kind'
'Kern_'
'Kei'
'Kata'
'Karriere_'
'Kanäle'
'Kann_'
'Kand'
'Kamin_'
'Kamera'
'Just'
'Jun'
'John_'
'Job'
'Jetzt_'
'Jet'
'Jak'
'Jahrzehnt'
'It_'
'Israel_'
'Islam_'
'Isl'
'Ira'
'Investition'
'Intervention'
'Internationalen_'
'Interface'
'Interess'
'Intel'
'Instrumente_'
'Innerhalb_'
'Ink'
'Inhalte'
'Inha'
'Infra'
'Inflation_'
'Index_'
'Inde'
'Impuls'
'Immo'
'Im'
'Ill'
'Il'
'Ig'
'Ide'
'IV'
'IA'
'Hügel'
'Hör'
'Höchs'
'Hôtel'
'Hälfte_'
'Hof_'
'Hof'
'Hobb'
'Histori'
'Hir'
'Himmel_'
'Hilfs'
'Herrschaft'
'Herrn_'
'Herberge_'
'Herausforderungen_'
'Hera'
'Heiligen_'
'Haushalts'
'Haushalt'
'Hannover'
'Handwerk'
'Handlung'
'Handel_'
'Halte'
'Halt'
'Hab'
'HL'
'Güter'
'Gü'
'Gär'
'Guide_'
'Gua'
'Grö'
'Grupp'
'Große'
'Gottes'
'Glück_'
'Glä'
'Globalisierung'
'Gleichg'
'Gewinn'
'Gewicht_'
'Gewerkschaft'
'Gestaltung_'
'Gesicht'
'Geschäftsle'
'Geschw'
'Geschlecht'
'Geschichten_'
'Geschenk_'
'Gerü'
'Georgi'
'George'
'Gemeinsam'
'Gemeinde_'
'Geis'
'Geheimnis'
'Gegenwa'
'Gefängnis'
'Gefangen'
'Gebäude'
'Gebrauch_'
'Gau'
'Gastro'
'Gastgeber_'
'Garmi'
'Gard'
'Games'
'Galerie'
'GU'
'GPS_'
'GEN'
'GB_'
'Führungsk'
'Führer'
'Fäl'
'Fuß'
'Funktionalität_'
'Fri'
'Freunden_'
'Freiheit_'
'Freih'
'Frame'
'Fotog'
'Formate'
'Folg'
'Fol'
'Flü'
'Flugzeuge_'
'Flugges'
'Flug_'
'Flotte'
'Flie'
'Fische'
'Fisch'
'Finanzkrise_'
'Finanzierung_'
'Finanzi'
'Filme_'
'Festplatte_'
'Fernseher_'
'Fernsehen_'
'Ferns'
'Fern'
'Ferienhaus_'
'Feld'
'Fau'
'Fast'
'Familien'
'Fahrzeuge'
'Fahrt_'
'Fahrr'
'Fahrer'
'Fachl'
'FT'
'Experte'
'Events_'
'Event'
'Etagen'
'Ersch'
'Erhalt'
'Ergebnisse'
'Ergebnis'
'Entl'
'Entdeckung'
'Entdecken_'
'Enge'
'Energiep'
'Empfang_'
'Email_'
'Elefanten'
'Eis'
'Einzelne'
'Einstellung_'
'Einste'
'Einla'
'Einheit'
'Einh'
'Eingang_'
'Einführung'
'Einfach'
'Eigentum_'
'Ehe'
'Effekt_'
'Ede'
'Ecke'
'Ebenso_'
'Ebenen'
'EO'
'EA'
'Dritten_'
'Dres'
'Drei_'
'Downloads'
'Dow'
'Dos'
'Don_'
'Domini'
'Domain'
'Display'
'Direktor_'
'Diplom'
'Dinge_'
'Dim'
'Digital_'
'Dich'
'Dev'
'Deutschlands_'
'Deutsche_'
'Detail_'
'Der'
'Denn_'
'Demo'
'Dekor'
'Definition_'
'Deck'
'Debatte_'
'David_'
'Dau'
'Datens'
'Dach'
'DM'
'DER'
'Cro'
'Corporati'
'Copyright_'
'Content_'
'Consul'
'Computers'
'Compos'
'Community_'
'Codes_'
'Code'
'Clubs_'
'Clin'
'Champ'
'Casino_'
'Casa'
'Capt'
'Call'
'CK'
'Bügel'
'Büch'
'Bäu'
'Bundesre'
'Bun'
'Buffe'
'Bud'
'Brüs'
'Brücke'
'Breit'
'Branche'
'Bots'
'Borg'
'Bor'
'Boden'
'Blin'
'Blan'
'Bila'
'Bier'
'Bezirk'
'Beweis'
'Betreiber'
'Bestimmung'
'Bestellungen_'
'Bescha'
'Bergen_'
'Berge_'
'Beratungs'
'Beratung_'
'Bera'
'Beobachtung'
'Benutz'
'Bele'
'Bela'
'Beispiele'
'Behörde'
'Beha'
'Bedürfnis'
'Bedrohung'
'Bedienung'
'Bede'
'Bean'
'Baute'
'Bann'
'Badezimmer_'
'Baden_'
'Bac'
'BMW_'
'Az'
'Aven'
'Automobil'
'Auswe'
'Ausw'
'Ausstellungen_'
'Ausst'
'Aussagen_'
'Ausrü'
'Ausge'
'Ausgangspunkt_'
'Ausfahrt'
'Ausdr'
'Aufzug_'
'Auftri'
'Auftrag'
'Aufmerksamkeit_'
'Aufkl'
'Auffa'
'Audio_'
'Astron'
'Associat'
'Asien_'
'Artikel'
'Arm'
'Ari'
'Argument'
'Argentin'
'Are'
'Archi'
'Arbeite'
'Aqua'
'Appartements_'
'Appartement_'
'Appart'
'Apartment_'
'Antrag'
'Anm'
'Anleitung_'
'Anlass_'
'Ani'
'Anges'
'Angebote'
'Anfa'
'Anders'
'Anbieter'
'Analy'
'American_'
'Ame'
'Alpen_'
'Alexan'
'Alarm'
'Aktivit'
'Aktivi'
'Aktionär'
'Akteur'
'Afghanistan_'
'Adria'
'Adress'
'Adapter'
'Ach'
'Acc'
'Abz'
'Absti'
'Absich'
'Abreise_'
'Abge'
'="_'
';'
'85'
'83'
'73'
'700_'
'66'
'600_'
'58'
'56'
'50'
'47_'
'41_'
'36'
'320_'
'300'
'1992_'
'1991_'
'1987_'
'1930'
'187'
'110'
'05_'
'.) _'
'. „_'
'. ('
'. "'
'- '
'*_'
'('
''''
'") _'
' € _'
' –'
' ), _'
'†'
'”'
'ж'
'ε'
'δ'
'ί'
'ř'
'ň'
'ã'
'´'
' '
''
'|'
'q'
'„'
'я'
'ч'
'х'
'ф'
'ω'
'τ'
'μ'
'η'
'β'
'ά'
'ž'
'ń'
'ĺ'
'ę'
'ć'
'ú'
'æ'
'Ã'
'¶'
''
'>'
'+'
'…'
'щ'
'χ'
'κ'
'Ÿ'
'š'
'ŕ'
'û'
'à'
'²'
'§'
'{'
'ﬂ'
'™'
'і'
'ц'
'В'
'υ'
'ς'
'λ'
'γ'
'ű'
'Š'
'œ'
'ě'
'Č'
'ý'
'ù'
'Ó'
'Â'
'º'
''
':'
'リ'
'→'
'•'
'’'
'–'
'‑'
'ु'
'न'
'џ'
'ё'
'ш'
'С'
'Н'
'ώ'
'ό'
'θ'
'ż'
'ş'
'ś'
'ō'
'ò'
'ð'
'ï'
'ì'
'Ø'
'¼'
'©'
'¥'
'£'
''
'&'
'ﬁ'
'マ'
'カ'
'エ'
'ア'
'‚'
'‎'
'ा'
'र'
'ग'
'क'
'ی'
'ۆ'
'ن'
'س'
'ر'
'ا'
'є'
'ю'
'э'
'Я'
'Э'
'Х'
'К'
'З'
'Д'
'І'
'ύ'
'ϊ'
'ή'
'έ'
'Τ'
'Κ'
'Η'
'ů'
'ū'
'ť'
'ő'
'ł'
'ğ'
'ą'
'ă'
'ø'
'Ñ'
'Ê'
'É'
'Å'
'Á'
'À'
'¿'
'½'
'¹'
'¸'
'·'
'³'
'­'
'¡'
'~'
'@'
'ј'
'й'
'¤'
'\'
'<'
