'<pad>'
'<EOS>'
'[MASK]'
'the_'
', _'
'._'
'_'
'of_'
'and_'
'to_'
'a_'
's_'
'in_'
'is_'
'-_'
'for_'
'on_'
'with_'
'The_'
'that_'
'are_'
'as_'
'you_'
'or_'
'be_'
'by_'
'e_'
'. _'
'ing_'
'from_'
'ed_'
'an_'
' (_'
'd_'
'at_'
'it_'
'was_'
'y_'
'can_'
'this_'
't_'
'will_'
'not_'
'your_'
''_'
'have_'
'es_'
'which_'
'our_'
'has_'
'all_'
': _'
'’_'
'n_'
'its_'
'r_'
'we_'
') _'
'also_'
'In_'
'ly_'
'I_'
'their_'
'more_'
'one_'
'o_'
'This_'
'er_'
'/_'
'l_'
' , _'
'but_'
' - _'
'new_'
'ng_'
' "_'
'only_'
'time_'
'al_'
'm_'
'A_'
'hotel_'
'us_'
'2_'
'use_'
'other_'
'up_'
'well_'
'1_'
'his_'
'any_'
'We_'
'It_'
'ion_'
'about_'
'they_'
')._'
'most_'
'?_'
'de_'
' – _'
'been_'
' ._'
'were_'
'Hotel_'
'3_'
'" _'
'no_'
'information_'
'out_'
'i_'
'into_'
'if_'
'very_'
'like_'
'so_'
'en_'
'than_'
'who_'
'there_'
'; _'
'would_'
'rs_'
'You_'
'first_'
'5_'
'when_'
'he_'
'!_'
'g_'
'may_'
'do_'
'years_'
'where_'
'h_'
'after_'
'k_'
'world_'
'If_'
'many_'
'service_'
'such_'
'), _'
've_'
'used_'
'ers_'
'data_'
'over_'
'able_'
'them_'
'system_'
'ation_'
'through_'
' “_'
'offers_'
'4_'
'work_'
'rooms_'
'people_'
'between_'
'these_'
'make_'
'two_'
'room_'
'city_'
'find_'
'S_'
'year_'
'way_'
'now_'
'high_'
'area_'
',_'
'some_'
'good_'
'tion_'
'For_'
'0_'
'ment_'
'had_'
'day_'
'6_'
'should_'
'located_'
'even_'
'quality_'
'p_'
'order_'
'le_'
'just_'
'ts_'
'ic_'
'available_'
'ies_'
'company_'
'place_'
'ons_'
' '
'x_'
'own_'
'free_'
'then_'
'te_'
'ce_'
'c_'
'part_'
'There_'
'But_'
'what_'
'services_'
'offer_'
'number_'
'take_'
'right_'
'her_'
'All_'
'stay_'
'during_'
'th_'
'every_'
'best_'
'being_'
':_'
'using_'
'get_'
'ge_'
'ble_'
'Our_'
'page_'
'made_'
'including_'
'how_'
'great_'
'Europe_'
'..._'
'” _'
'see_'
'same_'
'important_'
'before_'
'8_'
'under_'
'public_'
'much_'
'As_'
'se_'
'international_'
'business_'
'without_'
'need_'
'here_'
'because_'
'C_'
'10_'
'products_'
'ne_'
'could_'
'st_'
'site_'
'each_'
'different_'
'US_'
' _'
'within_'
'ry_'
'nt_'
'centre_'
'With_'
're_'
'around_'
'7_'
'small_'
'go_'
'com_'
' | _'
'those_'
'possible_'
'per_'
'my_'
'must_'
' & _'
'ions_'
'while_'
'la_'
'both_'
'To_'
'want_'
'non_'
'9_'
'support_'
'location_'
'' _'
'based_'
'D_'
'% _'
'me_'
'market_'
'long_'
'last_'
'countries_'
'Germany_'
'00_'
'A'
'set_'
'life_'
'air_'
'M'
'name_'
'modern_'
'less_'
'help_'
'O'
'B_'
'personal_'
'known_'
'And_'
'since_'
'main_'
'customers_'
'access_'
'At_'
'2008_'
'water_'
'ty_'
'special_'
'power_'
'form_'
'website_'
'town_'
'political_'
'design_'
'der_'
'real_'
'end_'
'On_'
'E'
'z_'
'ous_'
'open_'
'large_'
'When_'
'- _'
'via_'
'ted_'
'production_'
'means_'
'ive_'
'ia_'
'el_'
'U'
'S'
'ss_'
'provide_'
'ity_'
'ar_'
'C'
'um_'
'land_'
'et_'
'back_'
'am_'
'R_'
'He_'
' [[_'
'still_'
'software_'
'process_'
'old_'
'line_'
'family_'
'economic_'
'G'
'range_'
'pages_'
'know_'
'him_'
'full_'
'few_'
'experience_'
'down_'
'ary_'
'European_'
'50_'
'21_'
'systems_'
'shall_'
'na_'
'government_'
'enjoy_'
'days_'
'called_'
'away_'
'30_'
'2009_'
'1917_'
'three_'
'os_'
'man_'
'areas_'
'K'
'E_'
' ..._'
'user_'
'ent_'
'T_'
'P_'
'view_'
'until_'
'product_'
'management_'
'ls_'
'km_'
'house_'
'guests_'
'four_'
'does_'
'di_'
'companies_'
'ch_'
'breakfast_'
'beautiful_'
'R'
' '_'
'too_'
'ting_'
'll_'
'change_'
'20_'
'several_'
'performance_'
'minutes_'
'ings_'
'home_'
'century_'
'tic_'
'making_'
'far_'
'f_'
'art_'
'working_'
'station_'
'please_'
'night_'
'list_'
'ke_'
'conditions_'
'complete_'
'become_'
'against_'
'What_'
'They_'
'L_'
'D'
'web_'
'w_'
'und_'
'private_'
'play_'
'easy_'
'development_'
'building_'
'beach_'
'always_'
'V_'
'These_'
'O_'
'L'
'German_'
'China_'
'top_'
'technology_'
'situated_'
'second_'
'que_'
'ors_'
'game_'
'future_'
'found_'
'course_'
'b_'
'already_'
'age_'
' / _'
'wide_'
'various_'
'ure_'
'u_'
'today_'
'members_'
'look_'
'left_'
'group_'
'etc_'
'equipment_'
'children_'
'W'
'000_'
'(_'
'version_'
'ter_'
'staff_'
'person_'
'next_'
'food_'
'excellent_'
'country_'
'Please_'
'M_'
'H'
'short_'
'project_'
'near_'
'light_'
'global_'
'famous_'
'd'
'customer_'
'current_'
'contact_'
'close_'
'T'
'24_'
'state_'
'space_'
'single_'
'related_'
'given_'
'further_'
'especially_'
'did_'
'X_'
'New_'
'G_'
'12_'
'works_'
't'
'search_'
'red_'
'point_'
'ness_'
'level_'
'les_'
'case_'
'World_'
'Internet_'
'100_'
'z'
'views_'
'tions_'
'team_'
'region_'
'ra'
'member_'
'financial_'
'example_'
'energy_'
'ding_'
'cultural_'
'costs_'
'car_'
'avi_'
'One_'
'F'
'B'
'walk_'
'style_'
'research_'
'provided_'
'price_'
'off_'
'lly_'
'individual_'
'file_'
'facilities_'
'event_'
'another_'
'ance_'
'social_'
'restaurant_'
'program_'
'ns_'
'network_'
'low_'
'hours_'
'hotels_'
'growth_'
'gi'
'create_'
'ck_'
'better_'
'\u_'
'P'
'Lo'
'I'
'15_'
'"._'
'trade_'
'together_'
'party_'
'national_'
'n'
'ments_'
'major_'
'king_'
'include_'
'content_'
'bus_'
'body_'
'below_'
'ations_'
'again_'
'U_'
'N'
'"_'
'whole_'
'w'
'vo'
'value_'
'type_'
'traditional_'
'takes_'
'si'
'ro'
'result_'
'provides_'
'others_'
'needs_'
'kind_'
'ian_'
'heart_'
'hand_'
'control_'
'come_'
'check_'
'Rooms_'
'Na'
'2010_'
'а'
'|_'
'ways_'
'she_'
'sea_'
'reviews_'
'present_'
'nce_'
'local_'
'ke'
'developed_'
'designed_'
'des_'
'cost_'
'center_'
'built_'
'Ro'
'N_'
'After_'
'’ _'
'www_'
'times_'
'terms_'
'standard_'
'professional_'
'music_'
'little_'
'keyword_'
'k'
'film_'
'fact_'
'equipped_'
'date_'
'atmosphere_'
'ate_'
'ant_'
'almost_'
'X'
'V'
'United_'
'TV_'
'why_'
'visit_'
've'
'ta_'
'start_'
'sites_'
'recent_'
'period_'
'p'
'never_'
'm'
'language_'
'interest_'
'friendly_'
'features_'
'events_'
'directly_'
'] _'
'That_'
'Se'
'Ko'
'However_'
'3'
'2007_'
'14_'
'0'
'term_'
'security_'
'run_'
'pool_'
'often_'
'natural_'
'ling_'
'industry_'
'history_'
'following_'
'est_'
'ds_'
'da'
'along_'
'allow_'
'addition_'
'activities_'
'States_'
'EU_'
'5'
'11_'
'y'
'sure_'
'solutions_'
'side_'
'series_'
'ring_'
'restaurants_'
'property_'
'online_'
'once_'
'material_'
'ma_'
'let_'
'ju'
'inter'
'holiday_'
'guest_'
'either_'
'details_'
'call_'
'c'
'account_'
'Y_'
'W_'
'Jo'
'International_'
'By_'
'Berlin_'
'u'
'travel_'
'total_'
'summer_'
'success_'
'rate_'
'r'
'pri'
'policy_'
'perfect_'
'pa'
'original_'
'necessary_'
'nature_'
'might_'
'law_'
'key_'
'ine_'
'health_'
'gs_'
'fully_'
'fla'
'field_'
'er'
'environment_'
'comfortable_'
'big_'
'bi'
'b'
'among_'
'across_'
'Su'
'Sch'
'Sa'
'Pi'
'Lu'
'Li'
'Al'
' [_'
'video_'
'ves_'
'v'
'users_'
'unique_'
'uni'
'started_'
'specific_'
'size_'
'show_'
'risk_'
'results_'
'put_'
'problem_'
'pro'
'pre'
'os'
'media_'
'mail_'
'knowledge_'
'ist_'
'internet_'
'industrial_'
'image_'
'however_'
'give_'
'ge'
'g'
'due_'
'digital_'
'culture_'
'card_'
'cannot_'
'book_'
'ber'
'bar_'
'applications_'
'ally_'
'To'
'Pa'
'Mar'
'whether_'
'ur_'
'thus_'
'sti'
'screen_'
's'
'role_'
'required_'
'needed_'
'makes_'
'longer_'
'leading_'
'l'
'keep_'
'included_'
'held_'
'general_'
'function_'
'friends_'
'f'
'den_'
'da_'
'Vi'
'Ta'
'K_'
'Ha'
'From_'
'France_'
'25_'
'18'
'é'
'zi'
'up'
'training_'
'third_'
'ten_'
'taking_'
'son_'
'share_'
'sh_'
'said_'
'rt_'
'received_'
'receive_'
'pi'
'parking_'
'park_'
'mp'
'ful_'
'forms_'
'e'
'den'
'ces_'
'bu'
'bo'
'additional_'
'ability_'
'a'
'Service_'
'Ri'
'Or'
'Here_'
'10'
'.'
'ä'
'young_'
'x'
'treatment_'
'tra'
'to'
'ti'
'technical_'
'star_'
'standards_'
'ses_'
'section_'
'ne'
'ms_'
'living_'
'links_'
'itself_'
'ical_'
'hi'
'having_'
'everything_'
'don_'
'allows_'
'address_'
']] _'
'Mo'
'May_'
'Gra'
'EC'
'During_'
'Bu'
'American_'
' $_'
'ze_'
'ying_'
'yet_'
'tri'
'think_'
'things_'
'table_'
'ta'
'qui'
'questions_'
'prices_'
'particular_'
'over'
'op'
'nice_'
'nearby_'
'markets_'
'led_'
'huge_'
'fa'
'ever_'
'enough_'
'effective_'
'ed'
'economy_'
'early_'
'de'
'daily_'
'cy_'
'created_'
'comes_'
'co_'
'according_'
'St_'
'La_'
'La'
'F_'
'An_'
'2005_'
'ö'
'usually_'
'took_'
'tes_'
'subject_'
'source_'
'seen_'
'say_'
'responsible_'
'press_'
'potential_'
'position_'
'places_'
'parts_'
'nts_'
'news_'
'lu'
'li'
'ka'
'jo'
'isi'
'instead_'
'increase_'
'ial_'
'ho'
'highest_'
'ger_'
'files_'
'fi'
'ely_'
'easily_'
'distance_'
'del_'
'complex_'
'cal_'
'became_'
'Switzerland_'
'Park_'
'Paris_'
'No_'
'Ne'
'MP'
'40_'
'4'
'ys_'
'ye'
'worldwide_'
'wa'
'ver_'
'transport_'
'study_'
'sports_'
'ru'
'ro_'
'resort_'
'report_'
'reach_'
'que'
'protection_'
'projects_'
'problems_'
'ou'
'option_'
'og'
'meet_'
'le'
'includes_'
'ideal_'
'ha'
'force_'
'fo'
'floor_'
'es'
'entire_'
'el'
'double_'
'done_'
'di'
'connection_'
'common_'
'co'
'changes_'
'central_'
'ce'
'categories_'
'ca_'
'application_'
'apartment_'
'ai'
'Pro'
'North_'
'Located_'
'Ka'
'Group_'
'Go'
'America_'
'196'
'&_'
'", _'
'с'
'ya'
'whose_'
'variety_'
'tu'
'track_'
'test_'
'ter'
'structure_'
'sta'
'sha'
'send_'
'self_'
'san'
'rates_'
'popular_'
'photo_'
'office_'
'ob'
'nothing_'
'ni'
'na'
'mis'
'military_'
'love_'
'lines_'
'latest_'
'ks_'
'is'
'in'
'har'
'half_'
'feel_'
'ero'
'email_'
'download_'
'direct_'
'dan_'
'contains_'
'con'
'computer_'
'choice_'
'ch'
'bra'
'bed_'
'approach_'
'action_'
'above_'
'Your_'
'Some_'
'Si'
'Russia_'
'Ru'
'Ra'
'How_'
'Her'
'Find_'
'En'
'Ba'
'Ad'
'2'
'+_'
' : _'
' ( _'
'written_'
'ties_'
'taken_'
'sub'
'stri'
'solution_'
'ski_'
'server_'
'rich_'
'remains_'
'quiet_'
'protected_'
'pay_'
'partner_'
'operation_'
'operating_'
'ki'
'j'
'island_'
'images_'
'i'
'ht'
'higher_'
'her'
'hard_'
'groups_'
'goods_'
'fast_'
'eri'
'do'
'district_'
'dis'
'conference_'
'click_'
'clear_'
'clean_'
'class_'
'ci'
'care_'
'cally_'
'ca'
'beds_'
'ba'
'ap'
'York_'
'Web_'
'South_'
'RE'
'President_'
'Per'
'Me'
'Linux_'
'Hi'
'Gi'
'Ge'
'French_'
'Centre_'
'Ab'
'16_'
'ü'
'zed_'
'wine_'
'walking_'
'train_'
'tourist_'
'te'
'suitable_'
'so'
'sing_'
'sin'
'ship_'
'rights_'
'return_'
'requirements_'
'registered_'
'ral_'
'post_'
'possibility_'
'population_'
'po'
'phone_'
'partners_'
'offered_'
'mo'
'million_'
'me'
'machine_'
'live_'
'link_'
'late_'
'largest_'
'job_'
'ja'
'integrated_'
'human_'
'gra'
'ga'
'fun_'
'front_'
'exchange_'
'established_'
'delivery_'
'damage_'
'contract_'
'combination_'
'ck'
'certain_'
'capital_'
'capacity_'
'bathroom_'
'basic_'
'bars_'
'al'
'airport_'
'ah_'
'ago_'
'Ti'
'TE'
'Mu'
'II_'
'Due_'
'Co'
'CA'
'Austria_'
'6'
'ya_'
'wo'
'wing_'
'week_'
'war_'
'visitors_'
'village_'
'ung_'
'ug'
'towards_'
'thing_'
'sub_'
'something_'
'smoking_'
'situation_'
'simply_'
'significant_'
'select_'
'road_'
'ra_'
'powerful_'
'post'
'per'
'parties_'
'packages_'
'offering_'
'nu'
'ner_'
'mountains_'
'money_'
'model_'
'meeting_'
'mb'
'materials_'
'map_'
'ma'
'la'
'kan_'
'ization_'
'idea_'
'hu'
'hour_'
'historical_'
'h'
'going_'
'final_'
'estate_'
'ensure_'
'die_'
'community_'
'commercial_'
'character_'
'cards_'
'button_'
'build_'
'board_'
'bas'
'ated_'
'ar'
'ac'
'September_'
'SI'
'Q'
'Public_'
'Of_'
'Le'
'Ki'
'June_'
'Ja'
'J'
'Du'
'Da'
'April_'
'AS'
' ‘_'
' . _'
'о'
'и'
'ó'
'é_'
'un'
'ue_'
'true_'
'throughout_'
'though_'
'spaces_'
'south_'
'si_'
'shows_'
'selection_'
'sed_'
'request_'
'ready_'
'processing_'
'pp'
'player_'
'pen'
'payment_'
'or'
'oo'
'om'
'oil_'
'official_'
'numerous_'
'ng'
'nd_'
'multiple_'
'mind_'
'micro'
'menu_'
'lot_'
'looking_'
'lo_'
'lo'
'limited_'
'least_'
'ken'
'je'
'ita'
'ish_'
'highly_'
'helpful_'
'green_'
'former_'
'five_'
'fer'
'feature_'
'ern'
'enter_'
'cu'
'code_'
'climate_'
'cho'
'che'
'camera_'
'bri'
'ban'
'automatically_'
'ari'
'apartments_'
'amount_'
'advanced_'
'add_'
'act_'
'accommodation_'
'[_'
'Wi'
'Ver'
'So_'
'SP'
'Restaurant_'
'Private_'
'Po'
'Man'
'House_'
'Do'
'Di'
'Check_'
'Che'
'Ca'
'Bar_'
'Air'
'60_'
'200_'
'2006_'
'198'
'18_'
'15'
'13_'
'“_'
'л'
'yang_'
'war'
'v_'
'ut'
'upon_'
'une'
'ua'
'turn_'
'tro'
'tre'
'tour_'
'ton_'
'therefore_'
'themselves_'
'tax_'
'submitted_'
'step_'
'starting_'
'stage_'
'sound_'
'soon_'
'sol'
'sm_'
'similar_'
'shops_'
'sales_'
'rk'
'rest_'
'reservation_'
'really_'
'read_'
'rather_'
'ps_'
'providing_'
'programs_'
'probably_'
'pl'
'ping_'
'pictures_'
'ole'
'ok'
'oc'
'ny_'
'nta'
'nt'
'mu'
'mountain_'
'moment_'
'men'
'mar'
'later_'
'larger_'
'ku'
'ir'
'interested_'
'il_'
'hor'
'head_'
'ha_'
'ght_'
'gas_'
'ess_'
'eli'
'elegant_'
'ele'
'efficient_'
'effects_'
'effect_'
'du'
'documents_'
'distribution_'
'display_'
'cs_'
'communication_'
'coming_'
'client_'
'cities_'
'brand_'
'bly_'
'billion_'
'beginning_'
'beaches_'
'back'
'an'
'Ze'
'Windows_'
'State_'
'Sta'
'Since_'
'Re'
'Pu'
'November_'
'No'
'National_'
'Museum_'
'Most_'
'LI'
'July_'
'Guest_'
'Cor'
'Click_'
'Ci'
'Chi'
'Car'
'Bo'
'Bel'
'An'
'Ac'
'@_'
'8'
'7'
'17_'
'17'
'р'
'® _'
'white_'
'warm_'
'uses_'
'ur'
'una'
'un_'
'types_'
'tors_'
'tin'
'tar'
'sun_'
'su'
'stra'
'story_'
'stop_'
'states_'
'speed_'
'served_'
'sale_'
'recommended_'
'reason_'
'quickly_'
'processes_'
'pleasant_'
'players_'
'para'
'paid_'
'ow_'
'note_'
'nor_'
'ning_'
'ni_'
'net_'
'nd'
'multi_'
'mon'
'minute_'
'metres_'
'logical_'
'levels_'
'ko'
'ka_'
'ism_'
'io_'
'investment_'
'improve_'
'id_'
'ia'
'houses_'
'historic_'
'gu'
'growing_'
'governments_'
'ges_'
'foreign_'
'existing_'
'et'
'ert'
'ep'
'en'
'ema'
'electronic_'
'ee'
'ec'
'device_'
'detailed_'
'des'
'decorated_'
'ction_'
'competition_'
'command_'
'comfort_'
'coast_'
'club_'
'clients_'
'cla'
'choose_'
'chi'
'charge_'
'came_'
'bit_'
'bility_'
'benefit_'
'began_'
'basis_'
'banks_'
'availability_'
'ata'
'ask_'
'arrival_'
'architecture_'
'allowed_'
'agreement_'
'ae'
'Y'
'While_'
'Vo'
'Rep'
'Pe'
'Now_'
'More_'
'Min'
'Mil'
'Italy_'
'India_'
'East_'
'Debian_'
'DVD_'
'Chinese_'
'CO'
'British_'
'Booking_'
'Because_'
'Be'
'Ar'
'AL'
'9'
'500_'
'20'
'19_'
', '
'і'
'zz'
'zation_'
'word_'
'wi'
'von_'
'ving_'
'vehicle_'
'values_'
'va'
'ust'
'um'
'try_'
'transfer_'
'steps_'
'society_'
'setting_'
'sen'
'sa'
'rig'
'purposes_'
'pti'
'pressure_'
'port_'
'persons_'
'par'
'package_'
'options_'
'ones_'
'onal_'
'oi'
'no'
'nk_'
'mobile_'
'methods_'
'maximum_'
'mark_'
'luxury_'
'listed_'
'lack_'
'ja_'
'ip'
'indi'
'immediately_'
'il'
'ide'
'ice_'
'hot_'
'ground_'
'greater_'
'gar'
'fine_'
'fin'
'fee_'
'extremely_'
'enc'
'ena'
'ei'
'drive_'
'difference_'
'deli'
'continue_'
'considered_'
'condition_'
'comp'
'church_'
'car'
'bre'
'black_'
'bio'
'be'
'bath_'
'bank_'
'attractive_'
'ati'
'appear_'
'ans_'
'announced_'
'als_'
'advantage_'
'active_'
'ab'
'War_'
'Up'
'Russian_'
'Pol'
'Mon'
'Many_'
'Ku'
'His_'
'Gu'
'Google_'
'Free_'
'Fi'
'Each_'
'Do_'
'Del'
'City_'
'Cap'
'AG_'
'26_'
'23_'
'... _'
'. '
'í'
'ze'
'yer_'
'wood_'
'won_'
'ut_'
'unt'
'ul'
'ub'
'tt'
'translation_'
'tool_'
'tly_'
'tan'
'swimming_'
'storage_'
'sse'
'spa'
'shower_'
'shop_'
'separate_'
'sent_'
'selected_'
'sector_'
'school_'
'sch'
'rs'
'round_'
'rit'
'recommend_'
'rad'
'prior_'
'prepared_'
'pre_'
'policies_'
'piece_'
'pe_'
'pe'
'opened_'
'nge'
'names_'
'museum_'
'mes'
'memory_'
'mel'
'matter_'
'man'
'ler_'
'lead_'
'kitchen_'
'kernel_'
'issue_'
'integration_'
'ine'
'guarantee_'
'go'
'gen_'
'games_'
'ft'
'follow_'
'flo'
'fixed_'
'extra_'
'element_'
'ela'
'eg'
'dro'
'defined_'
'dec'
'color_'
'cc'
'bul'
'break'
'box_'
'born_'
'becomes_'
'au'
'anti'
'ade'
'Wa'
'Villa_'
'Union_'
'Son'
'Smoking_'
'Sc'
'San_'
'Saint_'
'Room_'
'Par'
'Non_'
'Middle_'
'Mark'
'Mal'
'Ju'
'Je'
'Japan_'
'Italian_'
'In'
'IS'
'IN'
'GmbH_'
'Ga'
'English_'
'EUR_'
'DI'
'Com'
'Cal'
'Ben'
'Barcelona_'
'Au'
'As'
'Am'
'Africa_'
': '
'90_'
'2003_'
'2000_'
'195'
'á'
'worth_'
'women_'
'win'
'west_'
'wer'
'walls_'
'ver'
'und'
'ult'
'ue'
'tz'
'typical_'
'ture_'
'tur'
'tru'
'trip_'
'tools_'
'ther_'
'th'
'task_'
'surrounded_'
'successful_'
'strong_'
'street_'
'stock_'
'sto'
'stic'
'ste'
'ssi'
'spi'
'sp'
'six_'
'simple_'
'shown_'
'sho'
'seems_'
'safe_'
'rt'
'rl'
'ri'
'rent_'
'recently_'
'quite_'
'question_'
'purpose_'
'purchase_'
'published_'
'pt'
'positive_'
'pin'
'past_'
'outside_'
'out'
'opportunity_'
'ong'
'on'
'ol_'
'od_'
'north_'
'nde'
'motor'
'men_'
'mal'
'lower_'
'lin'
'likely_'
'legal_'
'lea'
'ite_'
'issues_'
'ing'
'ic'
'ian'
'hr'
'happy_'
'hal'
'golf_'
'gli'
'giving_'
'generation_'
'gen'
'fall_'
'face_'
'eye_'
'external_'
'exclusive_'
'eti'
'est'
'era_'
'engine_'
'enable_'
'ea'
'dra'
'don'
'doesn_'
'die'
'dia'
'despite_'
'demand_'
'deep_'
'concept_'
'completely_'
'collection_'
'ches_'
'che_'
'ced_'
'cation_'
'can'
'bring_'
'boot_'
'bla'
'attention_'
'ass'
'asi'
'arm'
'appropriate_'
'ali'
'administration_'
'activity_'
'Win'
'Western_'
'VI'
'Use_'
'Uni'
'Tu'
'Swiss_'
'Station_'
'Spanish_'
'SC'
'RI'
'Photo'
'Other_'
'ME'
'Lan'
'LE'
'Just_'
'Inter'
'High_'
'He'
'Ham'
'Grand_'
'God_'
'Fa'
'Er'
'Cha'
'Central_'
'Can'
'CE'
'Auto'
'44_'
'16'
'1'
'). _'
') '
' ), _'
'ón_'
'è'
'worked_'
'wor'
'window_'
'watch_'
'vision_'
'var'
'van'
'va_'
'ures_'
'ts'
'trans'
'traffic_'
'sted_'
'stands_'
'sport_'
'spacious_'
'sign_'
'shi'
'sheet_'
'ser'
'season_'
'scientific_'
'sal'
'rules_'
'root_'
'river_'
'ren'
'rea'
'rati'
'ran'
'rag'
'pla'
'pil'
'pho'
'perform_'
'peace_'
'orders_'
'operations_'
'ona'
'oli'
'od'
'nst'
'ned_'
'nci'
'named_'
'months_'
'middle_'
'mi'
'measures_'
'mas'
'machines_'
'luxurious_'
'lt'
'library_'
'learn_'
'leaders_'
'las_'
'kon'
'kept_'
'item_'
'it'
'ion'
'involved_'
'institutions_'
'installation_'
'install'
'inf'
'increased_'
'ina'
'if'
'ie_'
'ie'
'ideas_'
'ide_'
'ida'
'hostels_'
'home'
'hold_'
'ging_'
'ger'
'garden_'
'ft_'
'founded_'
'format_'
'focus_'
'films_'
'fields_'
'families_'
'exhibition_'
'emi'
'ement_'
'em'
'effort_'
'ect_'
'domestic_'
'dit'
'discover_'
'disc'
'direction_'
'difficult_'
'destination_'
'default_'
'ded_'
'cur'
'ct'
'critical_'
'credit_'
'cor'
'cooperation_'
'convenient_'
'continued_'
'concerning_'
'con_'
'colour_'
'coffee_'
'coa'
'charged_'
'channels_'
'changed_'
'cha'
'cause_'
'cases_'
'cal'
'bet'
'believe_'
'behind_'
'beauty_'
'bal'
'award_'
'ane'
'ain'
'admi'
'Ya'
'Te'
'Star_'
'Ser'
'Pri'
'Pen'
'Mag'
'Ke'
'Its_'
'Is'
'Ir'
'IT_'
'Hol'
'Han'
'Ei'
'Ed'
'Dis'
'DA'
'Christ'
'Bre'
'Bank_'
'August_'
'App'
'Ap'
'70_'
'22_'
'14'
'12'
'11'
'..." _'
'"'
'! _'
' ('
' ''_'
'”._'
'´_'
'}}'
'zing_'
'yt'
'ym'
'xi'
'weeks_'
'websites_'
'wanted_'
'vis'
'vir'
'uri'
'uns'
'ual_'
'ty'
'transform'
'ters_'
'terrace_'
'ten'
'tal_'
'tac'
'store_'
'stin'
'status_'
'spot_'
'spa_'
'sm'
'settings_'
'sel'
'se'
'scale_'
'saw_'
'ron'
'rn_'
'rg'
'rest'
'require_'
'relevant_'
'relax_'
'regular_'
're'
'prec'
'picture_'
'physical_'
'path_'
'pat'
'participants_'
'pan'
'ot_'
'ont'
'oni'
'omi'
'om_'
'o'
'nti'
'nsi'
'nie'
'models_'
'mer'
'marketing_'
'manner_'
'managed_'
'lost_'
'loss_'
'll'
'leisure_'
'leave_'
'learning_'
'lan'
'kl'
'ji'
'ities_'
'ire_'
'ional_'
'internal_'
'interesting_'
'innovative_'
'ied_'
'hostel_'
'gro'
'gives_'
'gardens_'
'fied_'
'fe'
'fantastic_'
'except_'
'everyone_'
'evening_'
'ets_'
'eo'
'elements_'
'eas'
'dri'
'door_'
'dom_'
'develop_'
'democracy_'
'death_'
'cut_'
'currently_'
'currency_'
'cuisine_'
'crisis_'
'cosy_'
'construction_'
'const'
'configuration_'
'collect'
'cle'
'chain_'
'cell_'
'break_'
'bin'
'beyond_'
'bes'
'ber_'
'bar'
'arr'
'apply_'
'anti_'
'air'
'aff'
'ad'
'actions_'
'achieve_'
'Za'
'Vol'
'Vienna_'
'Ven'
'Val'
'University_'
'Take_'
'Str'
'Storage_'
'Services_'
'ST'
'Res'
'Pre'
'October_'
'NO'
'NE'
'Mediterranean_'
'MA'
'Hei'
'Fo'
'First_'
'Federal_'
'El'
'Dr_'
'Dep'
'Comm'
'Char'
'Ce'
'Bri'
'Bra'
'Bei'
'BI'
'BA'
'Although_'
'AR'
'2001_'
'199'
'197'
' "..._'
'™ _'
'т'
'м'
'е'
'zu'
'za_'
'yourself_'
'ws_'
'writing_'
'wn_'
'whom_'
'wel'
'wed_'
'ware_'
'wan'
'ven'
'vel'
'vas'
'uti'
'urn'
'touch_'
'tor'
'ticket_'
'thanks_'
'technologies_'
'tation_'
'tat'
'tap'
'swi'
'surface_'
'supplier_'
'ster'
'stand_'
'st'
'sse_'
'square_'
'sla'
'sis_'
'sco'
'save_'
'sauna_'
'sar'
'running_'
'rte'
'roads_'
'responsibility_'
'res_'
'requires_'
'remain_'
'relaxing_'
'relationship_'
'relate_'
'regarding_'
'reg'
'reduced_'
'record_'
'reb'
'reached_'
'rai'
'qua'
'prove'
'president_'
'presented_'
'presentation_'
'ppe'
'police_'
'plus_'
'password_'
'particularly_'
'otherwise_'
'ote'
'osi'
'ory_'
'ore_'
'ol'
'nis'
'nic'
'mus'
'movement_'
'min'
'mid'
'meters_'
'met_'
'ls'
'lli'
'lle'
'lit'
'lim'
'late'
'labor_'
'keys_'
'ker_'
'int'
'insurance_'
'install_'
'info_'
'indeed_'
'inde'
'inc'
'impressive_'
'importance_'
'ile_'
'ile'
'ier'
'idi'
'hol'
'hel'
'heat_'
'hat'
'hardware_'
'gon'
'gna'
'ght'
'gene'
'furnished_'
'fuel_'
'fresh_'
'free'
'followed_'
'eu'
'essential_'
'ere'
'emerge'
'edit_'
'dor'
'domain_'
'discovered_'
'din'
'diagnos'
'decision_'
'ct_'
'cross_'
'corporate_'
'conditioned_'
'cond'
'components_'
'compared_'
'clo'
'caused_'
'cars_'
'cap'
'bou'
'bor'
'booking_'
'biggest_'
'bel'
'band_'
'avoid_'
'attractions_'
'ative_'
'at'
'as'
'ann'
'ancient_'
'ances_'
'ama'
'ale'
'actually_'
'Zi'
'Z'
'Wo'
'Welcome_'
'We'
'Wal'
'VE'
'Tri'
'Today_'
'Thus_'
'TO'
'TI'
'TA'
'Ste'
'Standard_'
'Square_'
'Spain_'
'Sim'
'Sel'
'Security_'
'San'
'Republic_'
'RO'
'RA'
'Pac'
'PR'
'PM_'
'PC_'
'Only_'
'Once_'
'Nor'
'Ni'
'Munich_'
'Ma'
'King_'
'Israel_'
'Iraq_'
'Ins'
'IM'
'Har'
'H_'
'Great_'
'Fre'
'Fore'
'February_'
'Facilities_'
'Des'
'De'
'DO'
'DE'
'Costa_'
'Club_'
'Church_'
'Cas'
'Card_'
'Bi'
'Best_'
'Are_'
'Ann'
'Ala'
'Airport_'
'AN'
'35_'
'300_'
'23'
'00'
'....'
'., _'
', “_'
' ... _'
' -_'
' ) _'
'–_'
'н'
'ys'
'yn'
'wonderful_'
'wish_'
'wind_'
'whe'
'wh'
'violence_'
'valid_'
'urg'
'unc'
'una_'
'tun'
'tory_'
'tern_'
'tch_'
'tan_'
'surroundings_'
'sur'
'suites_'
'suite_'
'students_'
'sso'
'spec'
'sion_'
'shopping_'
'she'
'sell_'
'rum'
'rock_'
'ries_'
'rie'
'ride_'
'renovated_'
'relaxation_'
'reception_'
'reasons_'
'reading_'
'quick_'
'pun'
'progress_'
'produce_'
'presents_'
'por_'
'pon'
'platform_'
'pha'
'personali'
'peri'
'passed_'
'pass_'
'of'
'nte'
'nin'
'ners_'
'nation_'
'month_'
'monitor_'
'minimum_'
'mini_'
'mini'
'method_'
'mentioned_'
'meng'
'medium_'
'marked_'
'mainly_'
'ly'
'logy_'
'linked_'
'lic'
'lia'
'len_'
'len'
'lake_'
'ky_'
'kill'
'ket'
'ker'
'ize_'
'iso'
'ir_'
'interface_'
'inside_'
'ins'
'influence_'
'indicate'
'income_'
'impact_'
'ill'
'hy'
'hip_'
'hing_'
'gg'
'gets_'
'gel'
'gave_'
'gan_'
'funds_'
'functions_'
'fra'
'forward_'
'fore'
'flow_'
'ffe'
'feeling_'
'fan'
'eyes_'
'experienced_'
'ex'
'este'
'ery_'
'erg_'
'enti'
'enjoyed_'
'ence_'
'employees_'
'emp'
'em_'
'ein_'
'education_'
'ect'
'east_'
'ease_'
'earth_'
'dy'
'dom'
'dist'
'disp'
'dining_'
'designer_'
'dedicated_'
'deco'
'decided_'
'decades_'
'das_'
'dar'
'cre'
'corner_'
'controlled_'
'contemporary_'
'concepts_'
'cli'
'citizens_'
'cil'
'child_'
'cel'
'cat'
'castle_'
'carried_'
'capt'
'cable_'
'bur'
'browser_'
'brand'
'bon'
'blog_'
'ben'
'bat'
'average_'
'attend'
'ator_'
'association_'
'assi'
'asse'
'art'
'appears_'
'answer_'
'ang'
'agreed_'
'adi'
'actual_'
']], _'
']]'
'WA'
'Tru'
'Trans'
'Tip_'
'TH'
'Stra'
'Sto'
'She_'
'She'
'Sat'
'Sar'
'Sal'
'SS_'
'Rome_'
'Qui'
'Que'
'Play'
'PO'
'Op'
'Office_'
'Nu'
'NC'
'Mont'
'Mi'
'Management_'
'Luggage_'
'Lea'
'Le_'
'Kar'
'Japanese_'
'January_'
'Indeed_'
'Imp'
'ID_'
'Hu'
'Hotels_'
'Heating_'
'Hal'
'GE'
'Furthermore_'
'Fu'
'Form'
'Express_'
'Ent'
'Desk_'
'Con'
'Christian_'
'CI'
'Bro'
'Bon'
'BO'
'BE'
'Association_'
'Ant'
'Ama'
'AT'
'AP'
'? _'
'>'
'://_'
'80_'
'27_'
'25'
'2004_'
'2002_'
', "_'
'', _'
'%._'
' !_'
'з'
'à_'
'zu_'
'zone_'
'yon'
'yb'
'xt'
'work'
'words_'
'wis'
'winter_'
'win_'
'went_'
'weather_'
'warm'
'vio'
'villa_'
'vely_'
'van_'
'useful_'
'us'
'upper_'
'updated_'
'unl'
'understanding_'
'turned_'
'turn'
'tte_'
'topics_'
'tle'
'tive_'
'title_'
'tit'
'tis'
'tica'
'telephone_'
'tal'
'swe'
'surprise'
'suggest_'
'subject'
'stu'
'strategy_'
'stars_'
'stable_'
'ssion_'
'ssing_'
'ss'
'spend_'
'spectacular_'
'spe'
'sor'
'smaller_'
'skill'
'significantly_'
'sharing_'
'severe_'
'serve_'
'serious_'
'sen_'
'seek'
'sec'
'science_'
'sche'
'scan'
'saying_'
'sat'
'safety_'
'sa_'
'rv'
'rti'
'route_'
'roll'
'rian_'
'ria'
'respect'
'res'
'rep'
'released_'
'release_'
'relations_'
'registration_'
'regional_'
'ref'
'reasonable_'
'ration_'
'railway_'
'race_'
'programme_'
'practical_'
'pot'
'por'
'points_'
'ple'
'played_'
'plant_'
'plan_'
'plan'
'picturesque_'
'ph'
'peaceful_'
'owners_'
'ow'
'outstanding_'
'outdoor_'
'ous'
'organization_'
'opportunities_'
'onto_'
'ons'
'oll'
'obligation_'
'object_'
'ns'
'nia_'
'new'
'net'
'nb'
'mys'
'modified_'
'ml'
'mix'
'mi_'
'medical_'
'med_'
'mean_'
'massage_'
'manufacturing_'
'mai'
'lus'
'looks_'
'local'
'load'
'lla'
'litera'
'license_'
'let'
'leader_'
'ized_'
'ito'
'ira'
'inv'
'interpret'
'intensi'
'intended_'
'impossible_'
'ila'
'igi'
'ig'
'identi'
'ib'
'http_'
'hs'
'hro'
'hit'
'hin'
'himself_'
'hear_'
'head'
'he'
'guide_'
'grat'
'govern'
'got_'
'goes_'
'generally_'
'gan'
'gam'
'gain_'
'frequently_'
'framework_'
'forces_'
'forced_'
'fol'
'flight_'
'fish_'
'fiscal_'
'fill_'
'fight_'
'fair'
'expect_'
'exp'
'esta'
'entirely_'
'ent'
'engineering_'
'end'
'emb'
'ein'
'efforts_'
'ef'
'edi'
'ear'
'dy_'
'du_'
'download'
'doors_'
'documentation_'
'div'
'discussion_'
'dinner_'
'died_'
'devices_'
'determin'
'der'
'del'
'dea'
'dd'
'dal'
'cti'
'creating_'
'court_'
'count'
'core_'
'copy_'
'context_'
'consumption_'
'conflict_'
'confirm'
'conditioning_'
'comprehensive_'
'comment'
'combined_'
'class'
'cks_'
'cing_'
'chosen_'
'check'
'char'
'channel_'
'centuries_'
'category_'
'carefully_'
'bug_'
'brought_'
'breath'
'bis'
'base_'
'balance_'
'bag'
'background_'
'ay_'
'awa'
'authorities_'
'author_'
'ard'
'app'
'anything_'
'ans'
'annual_'
'ani'
'anc'
'ame'
'am'
'although_'
'all'
'ality_'
'ain_'
'ag'
'advertising_'
'ado'
'aci'
'aba'
']]._'
'Yet_'
'War'
'Tur'
'Tra'
'Town_'
'Tan'
'Super'
'Sti'
'Spa_'
'Sp'
'Software_'
'Sha'
'SD'
'SA'
'Rh'
'Ref'
'Prague_'
'Old_'
'OS'
'NI'
'Make_'
'Lab'
'LO'
'Jewish_'
'Island_'
'Inc'
'IR'
'Ho'
'Hen'
'HI'
'Garden_'
'Fi_'
'Every_'
'ER'
'Die_'
'Development_'
'Data_'
'DS'
'Czech_'
'Communi'
'CD_'
'CD'
'Business_'
'Bru'
'Britain_'
'Box_'
'Bar'
'Ban'
'Austrian_'
'Asian_'
'Art_'
'According_'
'AC'
'800_'
'33_'
'21'
'192'
'09_'
'-'
'* _'
' /_'
'қ'
'у'
'к'
'д'
'б'
'š'
'ür'
'ñ'
'zo'
'zes_'
'zen_'
'yr'
'xed_'
'workers_'
'wishes_'
'wil'
'western_'
'welcome_'
'web'
'we'
'vill'
'ux_'
'ulat'
'uk'
'uit'
'tte'
'trust_'
'trading_'
'tourism_'
'tion'
'thro'
'thread'
'thought_'
'thermal_'
'taste_'
'targets_'
'stor'
'stone_'
'stein_'
'statistic'
'star'
'ssel'
'spo'
'spirit_'
'sou'
'sno'
'ski'
'sk'
'sive_'
'silver_'
'sex'
'serves_'
'sense_'
'sem'
'secure_'
'sb'
'rise_'
'rid'
'ric'
'resulting_'
'restor'
'respect_'
'resources_'
'rese'
'representation_'
'rent'
'renowned_'
'rely_'
'reliable_'
'regulations_'
'regime_'
'reform_'
'refer'
'reduce_'
'rede'
'recovery_'
'recognize_'
'rece'
'rec'
'reas'
'rd'
'rc'
'rat'
'rar'
'rail'
'quer'
'quarter_'
'pur'
'promote_'
'prom'
'produced_'
'previously_'
'previous_'
'prevent'
'prepar'
'prefer_'
'possibilities_'
'poet'
'pm_'
'pine'
'pher'
'pet'
'pers'
'ped_'
'pea'
'paths_'
'para_'
'paper_'
'ox'
'owned_'
'ove'
'ort'
'open'
'ona_'
'numbers_'
'now'
'nob'
'ngs_'
'nes_'
'nder_'
'nbsp_'
'multi'
'ms'
'morning_'
'mode_'
'milli'
'meta'
'mental_'
'mea'
'mber'
'mba'
'manufacture'
'lovely_'
'lots_'
'lives_'
'lis'
'line'
'lei'
'leads_'
'lb'
'lar_'
'lar'
'languages_'
'land'
'kt'
'kit'
'keeping_'
'j_'
'ists_'
'invest'
'instruments_'
'installed_'
'ini'
'increasing_'
'impose'
'impe'
'ility_'
'ici'
'host'
'hm'
'heavy_'
'harm'
'hands_'
'hand'
'han_'
'gri'
'goal_'
'gni'
'gn'
'gm'
'gie'
'gers_'
'gat'
'gal'
'ga_'
'fort'
'for'
'flu'
'ff_'
'faster_'
'fans_'
'fal'
'face'
'expand'
'exceptional_'
'exc'
'evo'
'etic_'
'esti'
'erg'
'epi'
'environmental_'
'enter'
'eno'
'enjoyable_'
'engines_'
'eng'
'ene'
'enables_'
'elect'
'ede'
'eb'
'eat_'
'easier_'
'dru'
'dow'
'director_'
'developments_'
'desk_'
'ders_'
'depart'
'delivered_'
'def'
'cro'
'creative_'
'covered_'
'cover_'
'correct_'
'corr'
'consumer_'
'connected_'
'comparison_'
'col'
'clearly_'
'clean'
'cio'
'changing_'
'certainly_'
'but'
'buffet_'
'bru'
'bro'
'boot'
'bonus_'
'blue_'
'blood_'
'blocks_'
'bet_'
'benefits_'
'begin_'
'az'
'awarded_'
'automatic_'
'audio_'
'attract'
'atte'
'ast'
'assume_'
'associated_'
'artist_'
'article_'
'ard_'
'arch'
'ara_'
'analysis_'
'alternative_'
'alt'
'alle'
'alist'
'aka'
'ak_'
'ak'
'ages_'
'af'
'advance_'
'added_'
'ad_'
'act'
'ace'
'accept_'
'Z_'
'Ye'
'Wor'
'Wi_'
'Venice_'
'Ve'
'USB_'
'Two_'
'Turkey_'
'Tre'
'The'
'Tar'
'Sur'
'Suite_'
'Such_'
'Studio_'
'Stu'
'Sol'
'Second_'
'Sea_'
'Salzburg_'
'Safety_'
'ST_'
'SO'
'Product'
'Pres'
'Pla'
'Pic'
'People_'
'Pat'
'Pass'
'Page_'
'Or_'
'Ol'
'OR_'
'Note_'
'Not'
'NS'
'My_'
'Mor'
'Mit'
'March_'
'MO'
'MI'
'Ltd_'
'Lau'
'Image_'
'Hor'
'Gro'
'Gran'
'Get_'
'General_'
'GI'
'Front_'
'Friday_'
'Free'
'Frankfurt_'
'Fil'
'Fer'
'Fe'
'Ex'
'Even_'
'England_'
'Emp'
'Elevator_'
'EM'
'EE'
'EA'
'Design'
'Deposit_'
'Dea'
'Cra'
'Comp'
'Cli'
'Can_'
'Cam'
'Brazil_'
'Bol'
'Board_'
'Ber'
'Based_'
'Bal'
'Bad'
'Also_'
'Ali'
'Adv'
'Add'
'AI'
'A3'
'99_'
'53'
'40'
'30'
'29_'
'28_'
'28'
'19th_'
'/'
'.”_'
',” _'
'*'
' €_'
' € _'
' ; _'
' " _'
'€'
'… _'
'“ _'
'– _'
'ж'
'°'
'za'
'yl'
'yi'
'yard_'
'xe'
'wide'
'wee'
'wealth_'
'water'
'ward_'
'ward'
'vot'
'voi'
'visited_'
'visi'
'vis_'
'vid'
'vers'
'vera'
'vent'
'val_'
'val'
'uss'
'ury_'
'urs'
'ura'
'unto_'
'unit_'
'unforgettable_'
'uli'
'ui'
'uch'
'twi'
'tried_'
'tric'
'travellers_'
'trail'
'tracking_'
'tou'
'toma'
'tom'
'told_'
'tle_'
'till_'
'tics_'
'thy_'
'there'
'ther'
'text'
'tests_'
'tennis_'
'tely_'
'television_'
'tele'
'tel'
'tea'
'talk_'
'talent'
'sus'
'subs'
'stunning_'
'sts_'
'strength_'
'stre'
'strategies_'
'strategic_'
'stee'
'stations_'
'stal'
'spring_'
'species_'
'specialist_'
'sort'
'solve'
'sit'
'sion'
'shape'
'seven_'
'sets_'
'sensor'
'seem_'
'see'
'scr'
'scen'
'saving_'
'sation_'
'sad'
'run'
'rse'
'rough'
'rock'
'rob'
'rma'
'rising_'
'ris'
'rin'
'rge'
'revolution'
'returned_'
'ret'
'resistance_'
'requests_'
'reports_'
'remove_'
'reme'
'rein'
'register_'
'refer_'
'recon'
'rds_'
'rch'
'raw_'
'ran_'
'quantity_'
'q_'
'protect_'
'primarily_'
'pretty_'
'premi'
'practice_'
'pra'
'powers_'
'pol'
'plac'
'pick'
'phase_'
'perform'
'perce'
'pend'
'part'
'panoramic_'
'pal'
'owner_'
'overs'
'overl'
'output_'
'ound_'
'ort_'
'orn'
'org_'
'one'
'noti'
'normal_'
'nom'
'nk'
'nit'
'ner'
'nc'
'nal_'
'mp_'
'movie_'
'move_'
'mot'
'mostly_'
'mos'
'mor'
'ming_'
'miles_'
'mere'
'mer_'
'membership_'
'meaning_'
'math'
'mat'
'mass_'
'map'
'manage'
'magnificent_'
'mac'
'lou'
'lock'
'limit_'
'lift_'
'laws_'
'launched_'
'lation_'
'landscape_'
'lad'
'ks'
'kno'
'km'
'kilometres_'
'kes_'
'jun'
'iva'
'items_'
'ior_'
'invent'
'interior_'
'intention'
'inform_'
'inco'
'ina_'
'improved_'
'im'
'ik'
'ign'
'identity_'
'ida_'
'id'
'ict'
'ich'
'ible_'
'host_'
'hn'
'hle'
'hills_'
'hiking_'
'hid'
'here'
'height_'
'heating_'
'hau'
'hall_'
'gui'
'guaranteed_'
'grow_'
'grid_'
'gran'
'get'
'gent'
'generated_'
'für_'
'fus'
'furniture_'
'fte'
'fro'
'fre'
'foot_'
'firm_'
'finance_'
'finally_'
'figures_'
'figure_'
'fighting_'
'festival_'
'fen'
'favor'
'farm'
'fare_'
'far'
'fac'
'extensive_'
'express_'
'experts_'
'exit_'
'exist_'
'exactly_'
'ex_'
'eventually_'
'eva'
'eth'
'eta'
'estimate'
'erin'
'equi'
'ents_'
'entry_'
'enabled_'
'employment_'
'emerging_'
'else_'
'election_'
'efficiency_'
'ees_'
'ee_'
'edition_'
'duc'
'drinks_'
'draw'
'doing_'
'document'
'displayed_'
'dic'
'dial'
'destroy'
'designs_'
'description_'
'described_'
'democratic_'
'demo'
'decline'
'decisions_'
'debt_'
'deal'
'database_'
'cut'
'ction'
'crit'
'cri'
'crat'
'crac'
'covers_'
'courses_'
'copyright_'
'cop'
'cons'
'confirmation_'
'conce'
'conc'
'compress'
'communi'
'commitment_'
'combines_'
'com'
'code'
'clu'
'clicking_'
'cis'
'cial'
'cheap_'
'charming_'
'challenges_'
'cent_'
'calm'
'bun'
'books_'
'bee'
'bedroom_'
'bare'
'au_'
'attempt_'
'ating_'
'ath'
'ate'
'assets_'
'arti'
'approximately_'
'appreciate_'
'appl'
'ants_'
'ante'
'ant'
'anniversary_'
'and'
'ale_'
'album_'
'ala'
'aga'
'adult'
'adjust'
'achieved_'
'ably_'
'Why_'
'Wh'
'West_'
'Wed'
'WI'
'Vis'
'Vin'
'UK_'
'Turkish_'
'Time_'
'Then_'
'Their_'
'Thanks_'
'Ten'
'Tele'
'Tea'
'THE_'
'Star'
'Staff_'
'Spe'
'Spa'
'Sou'
'Shi'
'Shar'
'Sep'
'Scr'
'Sale'
'SL'
'SE'
'SA_'
'Royal_'
'Rou'
'Ren'
'Rem'
'Real_'
'RM'
'Q_'
'Pur'
'Pra'
'Post'
'Portugal_'
'Paul_'
'Party_'
'Part'
'Palace_'
'PT'
'PE'
'PC'
'PA'
'OS_'
'ON_'
'OF_'
'Net'
'NG_'
'Moreover_'
'Microsoft_'
'Mer'
'Men'
'Mas'
'Map'
'Mai'
'Luc'
'Lou'
'Lit'
'Law_'
'Kl'
'Kit'
'Kh'
'Inv'
'Instead_'
'Inn'
'Information_'
'IP_'
'IP'
'Hun'
'Hour_'
'Hamburg_'
'HO'
'Guests_'
'Gua'
'Gr'
'Got'
'Gal'
'Friendly_'
'Fr'
'Following_'
'Fla'
'Fire'
'Europeans_'
'Et'
'Ec'
'Dre'
'Dia'
'Description_'
'Den'
'December_'
'Cur'
'Cup_'
'Conference_'
'Cho'
'Center_'
'Car_'
'Breakfast_'
'Bor'
'Boo'
'Black_'
'At'
'Arab_'
'Any_'
'Anti'
'Another_'
'Ana'
'Alp'
'All'
'91'
'400_'
'35'
'32_'
'24'
'22'
'201'
'1999_'
'190'
'13'
'01_'
', (_'
'('
'", "_'
'" '
'�_'
'…'
'”)'
'—_'
'ы_'
'ück'
'ão_'
'á_'
'» '
' '
'yo_'
'yc'
'xp'
'wrote_'
'write_'
'wr'
'wit'
'willing_'
'wheel'
'well'
'wea'
'wall_'
'wait_'
'voice_'
'vit'
'visiting_'
'virtual'
'vin'
'vie'
'veni'
'ven_'
'valley_'
'usly_'
'usi'
'use'
'updates_'
'uno'
'units_'
'uncon'
'uct'
'uc'
'ually_'
'tter'
'tradition_'
'trade'
'tracks_'
'towe'
'toward_'
'tor_'
'tli'
'tim'
'threaten'
'tha'
'text_'
'terra'
'techniques_'
'tast'
'tasks_'
'target_'
'surrounding_'
'supply_'
'suppliers_'
'supermarket'
'sun'
'sug'
'successfully_'
'success'
'streets_'
'stay'
'statement_'
'starts_'
'speak_'
'southern_'
'songs_'
'sold_'
'sme'
'sma'
'sli'
'skin_'
'ske'
'sing'
'sim'
'sil'
'signs_'
'sg'
'sf'
'seve'
'seller_'
'seat_'
'sea'
'sca'
'save'
'sandy_'
'salt'
'rule_'
'rov'
'rot'
'ros'
'ror'
'rm'
'rif'
'review_'
'revi'
'reu'
'restrict'
'resorts_'
'reputation_'
'reproduc'
'representative_'
'repair'
'remov'
'remaining_'
'religious_'
'relie'
'relating_'
'rel'
'regions_'
'reduction_'
'redi'
'reci'
'read'
'rd_'
'rb'
'ral'
'rac'
'quis'
'quir'
'quest'
'purchas'
'pul'
'pu'
'promotion'
'productivity_'
'prize_'
'printing_'
'primary_'
'presence_'
'precisely_'
'precise_'
'pou'
'possess'
'playing_'
'play'
'pic'
'phrase_'
'photography_'
'photograph'
'phi'
'perspective_'
'path'
'past'
'pad'
'ov_'
'ov'
'outs'
'origin'
'ore'
'orat'
'optimis'
'operate'
'opening_'
'ony'
'ology_'
'ological_'
'olo'
'older_'
'oe'
'oa'
'nut'
'notice_'
'nos'
'nn_'
'nl'
'nine_'
'neo'
'neither_'
'neighbor'
'ndi'
'nda_'
'nch_'
'nati'
'nar'
'nan'
'moti'
'mother_'
'moni'
'moment'
'mm'
'missi'
'mine_'
'mil'
'metal_'
'met'
'messages_'
'message_'
'mes_'
'merc'
'menta'
'medieval_'
'mediat'
'medi'
'meal_'
'match_'
'master_'
'master'
'manufacturers_'
'mani'
'maker'
'majority_'
'maintain_'
'magn'
'lud'
'los'
'loo'
'logo'
'log_'
'lity_'
'lists_'
'ling'
'lies_'
'lie'
'liberal'
'liability_'
'ley_'
'lets_'
'ler'
'lav'
'lat'
'label'
'knows_'
'kk'
'ked_'
'jobs_'
'jack'
'iz'
'ition_'
'ited_'
'ist'
'issue'
'ise_'
'irre'
'io'
'involve'
'investors_'
'internationally_'
'interests_'
'interacti'
'instru'
'instance_'
'inspir'
'insi'
'infrastructure_'
'infl'
'index_'
'implementation_'
'ime_'
'ime'
'ily_'
'ille'
'ify_'
'ier_'
'ich_'
'ians_'
'hydro'
'hospitality_'
'horse'
'hope_'
'hoo'
'hono'
'holidays_'
'holds_'
'hit_'
'hi_'
'het_'
'hen'
'hearing_'
'heal'
'hea'
'hat_'
'has'
'happen_'
'hab'
'gy'
'gue_'
'grounds_'
'greatest_'
'graph'
'got'
'girl_'
'geo'
'gener'
'ged_'
'gained_'
'fur'
'functional_'
'fu'
'foundation_'
'forma'
'forest_'
'ford_'
'football_'
'focused_'
'fli'
'flexibility_'
'fit'
'fire'
'file'
'ffi'
'father_'
'fascinating_'
'factor_'
'facing_'
'ez'
'ey_'
'extent_'
'exte'
'experiences_'
'expensive_'
'existence_'
'everyday_'
'every'
'even'
'ete'
'ering_'
'erat'
'era'
'entertainment_'
'entertain'
'ens'
'enjoy'
'enhance'
'endo'
'ences_'
'employe'
'elli'
'educat'
'eco'
'dynamic_'
'dut'
'dura'
'dun'
'dry_'
'drop_'
'drives_'
'driver_'
'dre'
'draw_'
'dot'
'dor_'
'doo'
'document_'
'disposal_'
'directory_'
'dio'
'dh'
'dge_'
'developing_'
'depending_'
'dep'
'demonstrate'
'defe'
'declare'
'deal_'
'dates_'
'cycl'
'cross'
'creation_'
'counter'
'cost'
'convert_'
'contr'
'constant_'
'consequences_'
'config'
'concluded_'
'completed_'
'compact_'
'closed_'
'clinic'
'classic_'
'claims_'
'claim_'
'civil'
'cher_'
'chance_'
'cen'
'cav'
'causes_'
'cancelled_'
'cancel'
'calls_'
'cad'
'boast'
'boa'
'blu'
'block'
'bit'
'berg_'
'belong'
'bell'
'behavior_'
'beg'
'ax'
'ave'
'authori'
'attribute'
'ator'
'ater'
'assembl'
'asked_'
'arrange_'
'aren'
'applied_'
'applicable_'
'ano'
'animal_'
'analog'
'ana_'
'amenities_'
'ambi'
'allowing_'
'aims_'
'agree_'
'agency_'
'after'
'advi'
'advertise'
'adds_'
'accompanied_'
'acco'
'access'
'accepted_'
'\\'
'XI'
'Work'
'Will'
'Where_'
'West'
'Visit_'
'Via_'
'Va'
'Unt'
'Unl'
'Under'
'USS_'
'Thu'
'Three_'
'Tha'
'Team_'
'TO_'
'Sun'
'Sub'
'Stan'
'Soviet_'
'So'
'Server_'
'Sau'
'SM'
'Road_'
'Rev'
'Reco'
'Rea'
'Ram'
'RS'
'Prin'
'Poli'
'Pan'
'PHP_'
'Out'
'Ot'
'Opera_'
'Online_'
'Off'
'Notes_'
'NA'
'Mic'
'Mari'
'Manager_'
'Main_'
'Mad'
'Lord_'
'London_'
'Live'
'Lin'
'Lie'
'Leo'
'Latin_'
'Late'
'Lake_'
'John_'
'Jes'
'Is_'
'IT'
'IN_'
'ICE'
'IC'
'Home_'
'Hel'
'HE'
'Government_'
'Gar'
'For'
'Fin'
'Family_'
'FOR'
'FA'
'Euro'
'Eu'
'Es'
'Enjoy_'
'Em'
'Eli'
'Earth_'
'ES'
'EL'
'Dol'
'Dani'
'DVD'
'DE_'
'Coo'
'Conte'
'Cont'
'Congress_'
'Col'
'Champ'
'CC'
'Book_'
'Bla'
'Bet'
'Bern'
'Bas'
'BP'
'Audi'
'Asia_'
'Air_'
'Agreement_'
'ANY_'
'AD_'
'?'
'7th_'
'64_'
'42_'
'39_'
'194'
'04_'
'03_'
'.._'
')'
'" (_'
' {{_'
'”, _'
'” (_'
'”'
'ын'
'а_'
'ön'
'ça'
'zza_'
'zz_'
'zer'
'xis'
'worst_'
'works'
'wn'
'wireless_'
'windows_'
'wind'
'wellness_'
'wash'
'was'
'virus_'
'vine'
'villages_'
'vil'
'via'
'vert'
'versions_'
'verb'
'vehicles_'
'vati'
'validity_'
'utiliz'
'urb'
'update_'
'unp'
'univers'
'unit'
'undi'
'understand_'
'under'
'ultimate'
'ula_'
'ugh'
'typically_'
'tut'
'tsch'
'trying_'
'trouble_'
'tria'
'trends_'
'transfer'
'tram'
'traine'
'trai'
'traditions_'
'trademarks_'
'trace'
'towns_'
'tours_'
'touri'
'top'
'too'
'tone'
'tol'
'toilet'
'tk'
'tip'
'til'
'tig'
'tho'
'thi'
'theme_'
'temp'
'tell_'
'tell'
'technological_'
'technic'
'talks_'
'symbol_'
'sy_'
'switch'
'surviv'
'sunny_'
'sum'
'substan'
'subsidi'
'sua'
'stru'
'strengthen'
'stored_'
'stic_'
'ster_'
'sten'
'statu'
'standing_'
'stake'
'sponsor'
'spoke'
'spel'
'spectr'
'specialists_'
'special'
'speak'
'son'
'solid'
'solar_'
'soft_'
'sleep_'
'sle'
'sky_'
'ships_'
'shin'
'share'
'settle'
'set'
'serv'
'ser_'
'sequence_'
'sei'
'secur'
'scheduled_'
'sailing_'
'sab'
'runs_'
'rr'
'routing_'
'routes_'
'rol'
'roa'
'rne'
'rn'
'rium_'
'risks_'
'rica'
'ria_'
'ri_'
'rf'
'reward'
'revers'
'reti'
'response_'
'reported_'
'rental_'
'rem'
'religion_'
'reliability_'
'rela'
'reject'
'regard'
'reference_'
'redu'
'recorded_'
'recip'
'receiving_'
'rapidly_'
'raised_'
'raise_'
'qual'
'put'
'pure_'
'publish_'
'pto'
'provisions_'
'provision_'
'province_'
'propo'
'properties_'
'programmes_'
'professionals_'
'produce'
'processed_'
'procedure_'
'principle_'
'princ'
'prevent_'
'practices_'
'pr'
'poor_'
'poly'
'politics_'
'poli'
'plenty_'
'ple_'
'plat'
'plastic'
'plants_'
'planning_'
'planned_'
'planet_'
'pit'
'pid'
'phe'
'pet_'
'pes'
'perf'
'pem'
'patr'
'pas'
'partnership'
'parks_'
'parameter'
'parallel_'
'paradise_'
'par_'
'panel'
'oy_'
'overt'
'overall_'
'oti'
'ot'
'orr'
'origin_'
'oria'
'organis'
'orchestra'
'oral_'
'optical_'
'oppo'
'opinion_'
'oldest_'
'ola'
'oin'
'ode'
'obs'
'objects_'
'nz'
'nya_'
'noon_'
'noi'
'nights_'
'neuro'
'nes'
'nel'
'negotiations_'
'negara_'
'necess'
'nearly_'
'ndo'
'nder'
'nano'
'nal'
'my'
'musical_'
'mort'
'module_'
'modes'
'mod'
'mme'
'mm_'
'mit_'
'mission_'
'mir'
'minati'
'mina'
'min_'
'memb'
'mechanism_'
'matic_'
'marks_'
'marin'
'manual'
'mailing_'
'lying_'
'lv'
'lu_'
'lowe'
'lor'
'login_'
'loaded_'
'ln'
'lle_'
'liti'
'listen'
'liked_'
'light'
'lica'
'lf'
'lens'
'legend'
'leg'
'leaving_'
'leaves_'
'ld_'
'ld'
'launch_'
'lands_'
'lai'
'kr'
'kom'
'ko_'
'kni'
'kin'
'kh'
'kel'
'keeps_'
'kat'
'kar'
'kam'
'journey_'
'join_'
'ium_'
'itu'
'iti'
'ished_'
'ise'
'ione'
'inu'
'institution'
'insert'
'ino_'
'init'
'ining_'
'ini_'
'influence'
'ined_'
'indoor_'
'inat'
'implement'
'imm'
'imi'
'im_'
'ieve'
'ient'
'icon'
'ico'
'icia'
'ice'
'ica_'
'ica'
'hundred_'
'hub'
'ht_'
'hotel'
'hope'
'hood_'
'hole'
'hill_'
'hike'
'het'
'hem'
'helps_'
'helping_'
'hed_'
'heart'
'hd'
'hard'
'hap'
'hang'
'handle_'
'hair_'
'hac'
'habit'
'gul'
'gues'
'gre'
'gold_'
'gne'
'glob'
'glass_'
'ghter'
'gar_'
'fun'
'fulfil'
'fruit_'
'found'
'forum_'
'forget_'
'fon'
'flower'
'floors_'
'fle'
'fire_'
'filled_'
'feas'
'fe_'
'fat'
'fabric'
'extreme_'
'expression_'
'expert_'
'exper'
'expected_'
'evolution_'
'eth_'
'establish'
'esp'
'errors_'
'env'
'entr'
'entitled_'
'enthusias'
'enterprises_'
'ense'
'ende'
'empt'
'emotion'
'ella'
'eliminate'
'effectively_'
'ef_'
'een_'
'eau'
'dt'
'drug_'
'dream_'
'dream'
'dog'
'dly_'
'division_'
'dive_'
'distri'
'distinct'
'diss'
'disk_'
'diseases_'
'discre'
'disc_'
'disa'
'diploma'
'dil'
'differ'
'didn_'
'dge'
'dete'
'design'
'dering_'
'deploy'
'demand'
'delicious_'
'deci'
'debi'
'debate_'
'deals_'
'dde'
'dance'
'damages_'
'cz'
'custom_'
'cus'
'ctor_'
'ctor'
'ctive_'
'credi'
'creates_'
'craft'
'court'
'cooperat'
'converte'
'convention'
'convenien'
'contribution_'
'contracts_'
'contra'
'contents_'
'containing_'
'contained_'
'contain'
'consult'
'constructed_'
'constitute'
'consists_'
'consider'
'connections_'
'configure_'
'confidence_'
'conducted_'
'composed_'
'compl'
'communications_'
'committed_'
'comm'
'comfort'
'combine_'
'comb'
'colonial_'
'colo'
'collaborati'
'cold_'
'coin'
'clubs_'
'closer_'
'closely_'
'clos'
'cies_'
'cie'
'chest'
'chee'
'characterized_'
'centr'
'cce'
'cate'
'cata'
'cast_'
'casino_'
'casi'
'carrying_'
'carry_'
'career_'
'carbon_'
'camp'
'cafe'
'buyer'
'buses_'
'burn'
'bs_'
'brow'
'brings_'
'bridge_'
'brea'
'bottom_'
'bottle'
'borders_'
'book'
'bol'
'boats_'
'blo'
'biological_'
'binding_'
'bili'
'bia'
'begins_'
'bed'
'beat'
'bear'
'bay_'
'bathrooms_'
'bab'
'axi'
'aw'
'avoid'
'attitude'
'attach'
'ato'
'assume'
'assist'
'aspects_'
'artists_'
'aries_'
'argued_'
'are'
'architect'
'arb'
'arat'
'appeal_'
'apo'
'any'
'ange'
'amo'
'amazing_'
'alone_'
'alleg'
'alis'
'alia'
'aj'
'aine'
'affected_'
'adopt'
'adjustment_'
'addi'
'ada_'
'acti'
'ache'
'accordance_'
'accommodat'
'accessible_'
'accept'
'acc'
'absolute'
'abroad_'
'abi'
'aXXo_'
']] [[_'
'['
'Whether_'
'Wall_'
'WAR'
'Vit'
'Villa'
'Very_'
'Var'
'Using_'
'Un'
'Ukraine_'
'USD_'
'UN'
'Tyrol_'
'Tw'
'Travel_'
'Torre'
'Tom'
'Tie'
'Therefore_'
'Th'
'TS_'
'Sunday'
'Stud'
'Situated_'
'Sing'
'Sie'
'Shop_'
'Sec'
'Scott'
'Saturday_'
'Sant'
'Sam'
'Roman'
'Reserv'
'Reg'
'Real'
'Pro_'
'Player_'
'Place_'
'Ph'
'Peter'
'Personal_'
'Palm'
'Pale'
'Pakistan_'
'PRO'
'Open_'
'On'
'Oc'
'Obama_'
'Ob'
'OP'
'OM'
'Num'
'Newspapers_'
'My'
'Mus'
'Mur'
'Mr_'
'Mos'
'Moor'
'Mis'
'Met'
'Media_'
'Mat'
'Master'
'Martin_'
'Main'
'Madrid_'
'Lei'
'LA'
'Kra'
'Korea_'
'Kan'
'Jun'
'Ira'
'Inf'
'Indi'
'Ind'
'Im'
'IF'
'ID'
'IA'
'Hostel'
'Green'
'Good_'
'Global_'
'Gla'
'Gentoo_'
'Gay_'
'Gard'
'Game'
'GT'
'GB_'
'Fran'
'Fol'
'Fle'
'Finnish_'
'Film'
'Fac'
'FT'
'FR'
'FI'
'Exp'
'Every'
'Euro_'
'Esp'
'Ele'
'Easy_'
'EN'
'EADS_'
'Drive'
'Despite_'
'Department_'
'Demo'
'Def'
'Dee'
'Dec'
'De_'
'David_'
'Dan'
'DP'
'Cy'
'Cu'
'Cri'
'Court_'
'Const'
'Cond'
'Conc'
'Community_'
'Commission_'
'Colo'
'Clo'
'Cel'
'Catal'
'Castle_'
'Cast'
'Carl'
'Camp'
'CON'
'Bush_'
'Bur'
'Bul'
'Buc'
'Br'
'Bos'
'Blo'
'Big_'
'Beach_'
'Bay'
'Att'
'Arm'
'Andr'
'Americans_'
'Alt'
'Alm'
'='
': "_'
':'
'92'
'79'
'72_'
'70'
'62_'
'600_'
'55_'
'49_'
'41'
'26'
'150_'
', '_'
'): _'
'$_'
' ?_'
' = _'
' )._'
'ы'
'п'
'н_'
'й'
'ń'
'č'
'ün'
'ös'
'és_'
'ér'
'är'
'®'
'zon'
'zh'
'zan'
'ysi'
'yo'
'yan'
'yal'
'xim'
'xic'
'wound'
'worr'
'worlds_'
'withdraw'
'wise_'
'winner_'
'wild_'
'wife_'
'wer_'
'weight_'
'weekly_'
'wb'
'warranty_'
'warn'
'votes_'
'vote_'
'vor'
'volume'
'vol'
'visible_'
'vig'
'viewe'
'vi_'
'vest'
'versa'
'vat'
'vast_'
'valuable_'
'vag'
'vac'
'uzzi_'
'uve'
'usa'
'uro'
'ured_'
'urban_'
'upt'
'upgrade_'
'unre'
'university_'
'universe_'
'ung'
'unfortunate'
'undertak'
'understand'
'underg'
'ume_'
'ulation'
'ular_'
'ul_'
'uf'
'udi'
'ual'
'tua'
'tted_'
'truly_'
'trips_'
'tree_'
'travelling_'
'transmitted_'
'transmit'
'tower_'
'tori'
'topi'
'tod'
'tob'
'tm'
'tional_'
'tile_'
'tier'
'tid'
'tial_'
'tia'
'thri'
'thousands_'
'thou'
'thir'
'theory_'
'themes_'
'thea'
'the'
'tet'
'test'
'terri'
'tende'
'template_'
'temperatures_'
'tee'
'teams_'
'teaching'
'teach'
'tea_'
'talking_'
'tag_'
'tab'
'syn'
'symp'
'sy'
'sweet'
'survey_'
'suppress'
'supports_'
'supported_'
'supervis'
'superior_'
'superb_'
'super'
'sup'
'succeed'
'su_'
'stylish_'
'sty'
'struggle'
'structures_'
'structural_'
'stimulate'
'steri'
'stat'
'stand'
'stai'
'stack'
'sq'
'spra'
'spen'
'specialized_'
'speaking_'
'spam_'
'sounds_'
'someone_'
'soa'
'snow_'
'sna'
'slow_'
'slee'
'size'
'silen'
'signed_'
'sight'
'sic'
'shel'
'serving_'
'servers_'
'sep'
'sentence'
'sens'
'sending_'
'semi'
'seh'
'seg'
'sed'
'sectors_'
'sections_'
'second'
'seb'
'sculpt'
'scri'
'screens'
'sci'
'schools_'
'scho'
'schedule'
'sch_'
'scene_'
'sba'
'says_'
'satisfaction_'
'satellite_'
'ry'
'rural_'
'ruc'
'row_'
'rout'
'rop'
'riot'
'ring'
'rh'
'retr'
'restrictions_'
'resp'
'resolution_'
'resist'
'residential_'
'reserves_'
'researche'
'requested_'
'represents_'
'report'
'renc'
'remember_'
'rele'
'relatively_'
'relative'
'rei'
'refus'
'refurbish'
'reforms_'
'reflect'
'reco'
'realis'
'rant'
'rang'
'rain_'
'quest_'
'quenc'
'qualif'
'publish'
'public'
'pub'
'pse'
'provi'
'prot'
'prospect'
'proposed_'
'proposal'
'prophe'
'pronoun'
'promise_'
'prof'
'privacy_'
'prison'
'priorit'
'print_'
'pres'
'precision_'
'pray'
'pping_'
'pp_'
'ports_'
'porta'
'pop'
'poo'
'politicians_'
'po_'
'pment_'
'pleas'
'pipe'
'physi'
'philosophy_'
'pert'
'personnel_'
'permitted_'
'performed_'
'pension'
'pel_'
'payments_'
'patient_'
'passe'
'partition_'
'participa'
'parti'
'pare'
'pale'
'pain'
'ovi'
'oun'
'ott'
'ots_'
'orm'
'orie'
'ori'
'organized_'
'organize'
'organisation'
'ord'
'optimize'
'optim'
'opposition_'
'operators_'
'operator_'
'ondi'
'onally_'
'omin'
'ome_'
'officer'
'off'
'ody_'
'odd'
'obtain_'
'nth_'
'nowadays_'
'nove'
'notifi'
'notice'
'noise_'
'nni'
'nne'
'nig'
'nic_'
'newspaper_'
'neu'
'networks_'
'nerv'
'nent_'
'nen_'
'neighbour'
'nea'
'nda'
'ncy_'
'nch'
'nations_'
'nast'
'nas'
'nam'
'nad'
'movies_'
'move'
'mous'
'mounted_'
'mount'
'motor_'
'moon_'
'monument'
'modules_'
'mit'
'miss'
'minor'
'minister_'
'minim'
'migrat'
'mid_'
'mic_'
'metro_'
'meri'
'mention'
'mente'
'meetings_'
'measur'
'meant'
'match'
'massive_'
'manual_'
'manifest'
'mana'
'maintenance_'
'm2_'
'lt_'
'loy'
'los_'
'lon'
'logi'
'logg'
'log'
'locations_'
'lne'
'ller_'
'lk'
'liz'
'live'
'lin_'
'lik'
'life'
'liable_'
'li_'
'lf_'
'lev'
'letter_'
'lest'
'lend'
'leather_'
'lc'
'law'
'latter_'
'landscape'
'lab'
'kra'
'kov'
'kne'
'judge'
'journalist'
'joint'
'jan'
'jam'
'ivi'
'ived_'
'itan'
'ital_'
'ish'
'ipa'
'ious_'
'invoic'
'introduced_'
'introduc'
'interview'
'interna'
'intellectual_'
'insur'
'instructions_'
'ins_'
'ino'
'innovation_'
'inn'
'inhabit'
'infe'
'ines'
'independent_'
'incredible_'
'increases_'
'improve'
'impression'
'implemented_'
'impl'
'immigra'
'imagin'
'ima'
'illu'
'ifie'
'ific'
'ics_'
'ibility_'
'iati'
'iag'
'human'
'hum'
'hre'
'hr_'
'housing_'
'house'
'hosts_'
'hos'
'holders_'
'holder_'
'hl'
'hire_'
'highlights_'
'help'
'hei'
'hav'
'harmony_'
'harbour_'
'handling_'
'ham_'
'ham'
'gym'
'gun'
'guide'
'guard'
'gt'
'gs'
'gree'
'graphy_'
'granted_'
'gradually_'
'gr'
'gos'
'gorge'
'goa'
'gly'
'glor'
'glad'
'gla'
'gl'
'girls_'
'gh'
'gger'
'gastronom'
'garia'
'garage_'
'gallery_'
'fy_'
'fut'
'funding_'
'fund'
'fts_'
'freedom_'
'fourth_'
'form'
'forgot'
'folk'
'flexible_'
'flat_'
'fitness_'
'firm'
'finds_'
'finding'
'filter_'
'fication_'
'fica'
'ff'
'fem'
'fell_'
'fec'
'featuring_'
'favour'
'fast'
'fashion_'
'falling_'
'failure_'
'failing_'
'fail_'
'facts_'
'factory_'
'factors_'
'extended_'
'exposure_'
'export_'
'explore'
'explo'
'expla'
'execution_'
'excursion'
'exclud'
'exciting_'
'excess'
'exception'
'examples_'
'examine'
'ew'
'euro_'
'ett'
'eter'
'ess'
'eso'
'esca'
'ers'
'err'
'eria_'
'ered_'
'ere_'
'eran'
'equal_'
'equal'
'episode_'
'entrance_'
'ento'
'entities_'
'enth'
'enrich'
'ening_'
'enda'
'enco'
'els_'
'elope'
'elevat'
'eld_'
'ek_'
'ek'
'eine'
'eh'
'ege'
'edge_'
'ection'
'earlier_'
'ean_'
'dwi'
'dur'
'dua'
'driven_'
'downt'
'doubt'
'domina'
'dne'
'diving_'
'divided_'
'distributed_'
'distan'
'dispos'
'disease_'
'discussions_'
'discusse'
'directed_'
'develop'
'detail_'
'dest'
'describ'
'depo'
'depends_'
'depend_'
'department_'
'deliver'
'delete'
'dei_'
'definition'
'defin'
'db'
'data'
'dans_'
'dangerous_'
'damp'
'damaged_'
'dalam_'
'cycle_'
'cutting_'
'cure'
'cul'
'ctu'
'cted_'
'cry'
'cru'
'crew_'
'cr'
'cover'
'couple_'
'countryside_'
'cou'
'corresponding_'
'correspond'
'correct'
'cool'
'cook'
'convi'
'conversation'
'conver'
'contract'
'contest_'
'consumers_'
'consume'
'consiste'
'consider_'
'coni'
'cong'
'confor'
'confi'
'concrete_'
'concern'
'comprise'
'comple'
'competiti'
'competen'
'compar'
'comme'
'column_'
'coe'
'cm_'
'climbing_'
'cles'
'cleaning_'
'ckl'
'cke'
'cit'
'circulat'
'cipa'
'chu'
'chte'
'cht_'
'chs'
'choi'
'chip_'
'chief_'
'chen_'
'characteristics_'
'chair_'
'cer'
'celebration'
'celebrate'
'cau'
'cast'
'cash'
'cas'
'capitalis'
'campaign_'
'cam'
'calendar_'
'cache'
'cac'
'buy_'
'burg'
'buildings_'
'budget_'
'bt'
'broad'
'bot'
'border_'
'booked_'
'bond'
'blin'
'bles_'
'ble'
'bl'
'bia_'
'bert'
'belief_'
'becoming_'
'bby_'
'bble'
'bb'
'battle_'
'basically_'
'bases_'
'bands_'
'balanced_'
'bad_'
'bad'
'avi'
'authentic_'
'aut'
'auf_'
'attack'
'ath_'
'assure'
'assistance_'
'assign'
'aso'
'ase_'
'ase'
'arrive_'
'arrange'
'arit'
'aris'
'architectural_'
'arc'
'approved_'
'appreciat'
'appr'
'appoint'
'applies_'
'appeal'
'anyone_'
'antly_'
'anon'
'announce'
'ania_'
'analyz'
'ana'
'amp'
'amounts_'
'ament'
'allo'
'alb'
'alarm'
'ala_'
'ake'
'aircraft_'
'aim_'
'ago'
'agg'
'agen'
'advise'
'advent'
'address'
'additi'
'adapt'
'acts_'
'activated_'
'acquire'
'ack_'
'accurate_'
'accu'
'accessed_'
'accelerat'
'`_'
']._'
'] '
'[[_'
'Zu'
'Zo'
'Yout'
'Xi'
'Word'
'Without_'
'Wiki'
'Wan'
'Voyager_'
'Us'
'Update'
'USA_'
'UN_'
'Tun'
'Trad'
'Tr'
'Tool'
'Thailand_'
'Technology_'
'Technologi'
'Tec'
'TR'
'TE_'
'Systems_'
'Syria'
'Sym'
'Swedish_'
'Sweden_'
'Summer_'
'Start'
'Spi'
'Space_'
'Som'
'Sof'
'Society_'
'Sma'
'Slo'
'Sky'
'Ski'
'Site_'
'Sit'
'Silv'
'Seve'
'Sem'
'Select_'
'See_'
'Santa_'
'SU'
'SS'
'Rose'
'Robert_'
'Riviera_'
'Ret'
'Research_'
'Rela'
'Red_'
'Recent'
'Ran'
'RT'
'Quar'
'Prov'
'Propert'
'Prof_'
'Pot'
'Pes'
'Palestinian_'
'Pala'
'Over'
'Open'
'Olymp'
'OU'
'OC'
'Not_'
'Neu'
'Nation'
'Name_'
'NT'
'ND'
'NATO_'
'Mot'
'Moro'
'Monte'
'Monday_'
'Michael_'
'Messenger_'
'Member_'
'Mel'
'Medi'
'McC'
'Marco'
'Marc'
'Mann'
'Mallorca_'
'Made'
'Mach'
'Location_'
'Lisbon_'
'Lis'
'License_'
'Liber'
'Les'
'Land'
'Lag'
'LT'
'LS'
'Kö'
'Kor'
'Ken'
'Kas'
'KO'
'KE'
'Jor'
'Jac'
'J_'
'Ist'
'Iran_'
'Invest'
'Institut'
'Inst'
'Id'
'IV'
'ISO'
'IE'
'Holl'
'Hav'
'Hau'
'HTML_'
'Greek_'
'Greece_'
'Golf_'
'Gl'
'Genera'
'Gene'
'GR'
'GO'
'GM'
'GDP_'
'Four_'
'Florence_'
'Flash_'
'Fal'
'Exe'
'Esta'
'Est'
'Enterprise_'
'Energ'
'Egypt_'
'EX'
'ER_'
'Dra'
'Disabled_'
'Direct'
'Deutsche_'
'Dar'
'Dal'
'Cultur'
'Cr'
'Council_'
'Cou'
'Cos'
'Compa'
'Commerc'
'Coll'
'Classic'
'Chamber'
'Card'
'Canad'
'CT'
'CM'
'CH_'
'Bus_'
'Books_'
'Blue'
'Bir'
'Bio'
'Berg'
'Be_'
'Bavaria'
'Barr'
'BU'
'BR'
'BL'
'Aven'
'Ass'
'Anton'
'And'
'Among_'
'Along_'
'Alle'
'Alfa_'
'Ag'
'Acce'
'AND_'
'AM_'
'94'
'71'
'68'
'61'
'51_'
'4th_'
'48'
'47'
'46'
'45_'
'250_'
'237'
'1st_'
'1990'
'193'
'1000_'
'0s_'
'07_'
'02'
'...'
'--'
','
') - _'
''' _'
''''
'' '
'''
'#'
'!'
' „_'
' — _'
' > _'
'” '
'’'
'ң_'
'ыл'
'ты'
'те'
'ны'
'лы'
'г'
'ł'
'üh'
'ú'
'ø'
'ó_'
'ê'
'én'
'ég'
'ál'
'«'
'§ _'
'} '
'| _'
'{{_'
'{ '
'zy'
'zones_'
'zn'
'zion'
'zi_'
'zero'
'zer_'
'zard'
'zar'
'zab'
'ywo'
'you'
'yll'
'ych'
'yar'
'xin'
'xes_'
'writ'
'wouldn_'
'worse_'
'wood'
'wonder'
'wire'
'winning_'
'wic'
'whilst_'
'wherever_'
'whereas_'
'wet'
'welcoming_'
'weight'
'wei'
'weak'
'wave_'
'waters_'
'wants_'
'walk'
'waiting_'
'wage'
'vr'
'vous_'
'voo'
'vocat'
'visual'
'visitor_'
'visa_'
'violat'
'view'
'videos_'
'victim'
'vic'
'vi'
'verifi'
'vere'
'venti'
'veil'
'ved_'
'vary_'
'varia'
'vall'
'ute'
'uta'
'usion'
'usage_'
'uris'
'uring_'
'ura_'
'ups'
'unusual_'
'unse'
'unpr'
'unlike'
'unless_'
'unk'
'union_'
'unemployment_'
'unco'
'uncertaint'
'unable_'
'ums_'
'umb'
'ulate_'
'ula'
'uk_'
'ues_'
'ud'
'uca'
'ube_'
'uat'
'twent'
'tures_'
'tu_'
'tto'
'tter_'
'tta'
'truth_'
'tries_'
'trees_'
'treatments_'
'treati'
'treat'
'trea'
'transportation_'
'transport'
'transp'
'translated_'
'translat'
'transferred_'
'tranquil'
'trails_'
'trac'
'tr'
'tournament'
'tourists_'
'touch'
'totally_'
'tos'
'ton'
'tne'
'tis_'
'tips_'
'tino'
'timel'
'tile'
'tical_'
'ti_'
'thumbnail_'
'throw'
'threat'
'threads_'
'thinking_'
'thin'
'thes'
'therm'
'theless_'
'theatres_'
'testing_'
'terrorism_'
'termin'
'tenth_'
'tens'
'temporar'
'temple'
'tem'
'telephon'
'tei'
'teen'
'tech'
'teachers_'
'tche'
'taxes_'
'tate_'
'tas_'
'tarian'
'targ'
'tand'
'tam'
'tain'
'tailor'
'tage'
'tad'
'synt'
'swa'
'sustainable_'
'surr'
'surger'
'surf_'
'surely_'
'sur_'
'supporting_'
'supplied_'
'supplement'
'super_'
'suns'
'summari'
'summ'
'sul'
'suck'
'studio_'
'stud'
'strong'
'stroll'
'stro'
'string_'
'strike_'
'straight'
'stopp'
'stone'
'stom'
'stimulati'
'steel_'
'steam_'
'stead'
'static_'
'statements_'
'stan'
'ssin'
'ssa'
'spread_'
'sport'
'splend'
'spiritual_'
'spent_'
'specifically_'
'sov'
'southw'
'source'
'sophisticated_'
'somewh'
'som'
'sole_'
'solarium_'
'slide'
'skiing_'
'sit_'
'signi'
'signal'
'sightseeing_'
'sia'
'shuttle_'
'shut'
'shock'
'shift_'
'shed_'
'sharp'
'sham'
'shade'
'session'
'separate'
'senti'
'seminar'
'seed'
'secret_'
'secre'
'seat'
'season'
'scope_'
'scientist'
'scholars'
'scheme'
'savings_'
'sau'
'satisfy_'
'sand_'
'sam'
'sail'
'sag'
'sacr'
'rush'
'rui'
'ructi'
'rto'
'rra'
'rp'
'round'
'roof'
'rna'
'rmo'
'rival'
'ritual'
'rit_'
'rior'
'rio_'
'riding_'
'rich'
'rib'
'revealed_'
'rev'
'retail_'
'retai'
'resulted_'
'ress_'
'respond_'
'respond'
'resource_'
'reso'
'residence'
'reserve_'
'requir'
'repu'
'representing_'
'represent_'
'replaced_'
'replace'
'repeat'
'remote_'
'remi'
'remained_'
'relationships_'
'regulator'
'regularly_'
'refuge'
'refresh'
'reflects_'
'refin'
'ree'
'reducing_'
'record'
'recom'
'recognized_'
'rech'
'receiver'
'reality_'
'react'
'rci'
'rato'
'rare_'
'rank'
'random'
'radio_'
'raci'
'rab'
'quently_'
'quarter'
'quantit'
'qualified_'
'pussy_'
'push'
'pursu'
'publicly_'
'publication_'
'ption_'
'pt_'
'psycho'
'ps'
'provider_'
'properly_'
'proof_'
'promi'
'prohibit'
'profit_'
'professional'
'profession'
'process'
'proceed'
'procedures_'
'principal'
'prime_'
'pride'
'presidential_'
'presentations_'
'prese'
'pred'
'precious_'
'pow'
'portra'
'portfolio_'
'portal_'
'popularity_'
'politically_'
'pod'
'pocket'
'pled'
'pleasure_'
'plate'
'phones_'
'pharma'
'pf'
'personally_'
'person'
'permit'
'permanent_'
'perhaps_'
'perfectly_'
'perception_'
'pene'
'pena'
'pel'
'ped'
'paying_'
'patients_'
'pati'
'participation_'
'participati'
'participate_'
'parliament'
'painting_'
'painte'
'packaging_'
'owi'
'overview_'
'ova'
'outl'
'outcome'
'ourc'
'oth'
'ost_'
'osa'
'oro'
'ori_'
'organiza'
'orde'
'ora'
'opti'
'opt'
'oor'
'ook_'
'ono'
'onne'
'onis'
'onia'
'ones'
'onary_'
'ome'
'ois_'
'oh'
'ogen'
'offs'
'offices_'
'ods_'
'odi'
'ock'
'occur'
'occasion_'
'obtaining_'
'observa'
'objective_'
'obe'
'oba'
'oard'
'nve'
'nuclear_'
'ntl'
'nte_'
'normal'
'none'
'non'
'noc'
'nn'
'nking_'
'nity_'
'nia'
'nho'
'nger_'
'ney'
'newly_'
'nel_'
'naturally_'
'natur'
'narrow_'
'nai'
'nac'
'má'
'mysteri'
'mutual'
'mur'
'muni'
'mula'
'mul'
'mt'
'mping_'
'mpe'
'moving_'
'moved_'
'mount_'
'motivat'
'moral_'
'mont'
'monitoring_'
'mona'
'modification'
'moderni'
'model'
'mmi'
'mixing_'
'mixed_'
'mitte'
'mited_'
'missions_'
'mili'
'mile'
'mig'
'mica'
'mend'
'meaningfully_'
'mble'
'mbi'
'may'
'maxim'
'mattress'
'matr'
'massa'
'mas_'
'mann_'
'manager_'
'maintained_'
'maintain'
'mail'
'mag'
'machinery_'
'machin'
'lys'
'lve'
'luat'
'lti'
'lovers_'
'lounge_'
'losses_'
'long'
'lome'
'logist'
'load_'
'llow_'
'llen'
'listings_'
'liness_'
'linear_'
'lights_'
'licens'
'lib'
'letters_'
'lessons_'
'les'
'length_'
'lemen'
'lem'
'legislati'
'legend_'
'lega'
'learn'
'lean'
'layout_'
'layer_'
'lay_'
'laser_'
'largely_'
'lang'
'lamp'
'lam'
'laim'
'lace'
'kt_'
'king'
'kids_'
'jur'
'judic'
'joy'
'journ'
'jes'
'jer'
'ject'
'jar'
'ize'
'ix_'
'ivit'
'ives_'
'ivate'
'iv'
'itte'
'itl'
'ite'
'isa'
'irr'
'iron_'
'ire'
'ipt_'
'iou'
'involving_'
'invit'
'investigation'
'invalid'
'invad'
'intim'
'interven'
'interi'
'intent_'
'inten'
'inte'
'insul'
'inst'
'inspection'
'innovat'
'inj'
'initiative_'
'initial_'
'inher'
'inflation'
'indu'
'indicati'
'increasingly_'
'incident'
'inch'
'ince'
'improving_'
'impr'
'import'
'implied_'
'immediate_'
'imme'
'illegal'
'ili'
'ika'
'ij'
'ih'
'ight'
'igen'
'iga'
'ifica'
'ific_'
'ien'
'ido'
'identify_'
'identifie'
'identification_'
'idenc'
'icult'
'icit'
'ication_'
'ican'
'iate'
'hybrid'
'hunt'
'hun'
'hosting_'
'hospital_'
'hop'
'hone'
'hn_'
'hm_'
'hly_'
'hic_'
'hesi'
'heritage_'
'herein'
'hen_'
'hele'
'hee'
'heads_'
'haus_'
'handi'
'han'
'gua'
'gross_'
'graphics_'
'grant'
'grand_'
'grammatically_'
'gradua'
'goo'
'gol'
'gn_'
'gin_'
'gi_'
'ghte'
'gged_'
'getting_'
'genuine'
'genre'
'gend'
'genc'
'geb'
'gear'
'gathering_'
'gate'
'gap'
'gani'
'gall'
'fundamental_'
'fru'
'friend'
'fres'
'franc'
'fr_'
'fr'
'forme'
'formats_'
'formation_'
'forg'
'forc'
'foot'
'font'
'folder_'
'flows_'
'flights_'
'fleet_'
'fix'
'fishing_'
'finished_'
'financi'
'fies'
'fie'
'fic'
'ffer'
'felt_'
'fel'
'fees_'
'federal_'
'fear_'
'fax_'
'fault'
'fascinat'
'faith_'
'fair_'
'fact'
'facilitat'
'extra'
'extend'
'expressi'
'explains_'
'experiment'
'expectation'
'exists_'
'exi'
'exhibiti'
'exercise_'
'execute'
'exclusively_'
'excellen'
'examin'
'exac'
'eviden'
'ev'
'eur'
'ette_'
'eto_'
'eted_'
'este_'
'establishment'
'ese_'
'escape_'
'erse'
'erial'
'eration_'
'equity_'
'equat'
'entries_'
'entic'
'entered_'
'ente'
'ensu'
'enforce'
'ended_'
'ency'
'encourage_'
'emphas'
'emission'
'eme'
'embrac'
'embe'
'eller'
'elf_'
'electrical_'
'elections_'
'eland_'
'eight_'
'eight'
'eho'
'ego_'
'editing_'
'edited_'
'econ'
'eati'
'eat'
'eas_'
'earn'
'eal'
'eag'
'duplicat'
'drive'
'drink_'
'dramatic'
'draft'
'downloaded_'
'dos'
'doll'
'doct'
'dli'
'divers'
'ditional'
'dispute'
'dishes_'
'discuss_'
'discu'
'discount_'
'disclos'
'disciplin'
'disas'
'disappear'
'disable'
'digit'
'dig'
'difficulties_'
'differences_'
'devo'
'devi'
'deva'
'determine_'
'desired_'
'desire_'
'describe_'
'ders'
'derivative'
'deri'
'dere'
'depth_'
'deo_'
'dem_'
'deliveri'
'degr'
'deficits_'
'defens'
'deeper_'
'decide'
'debut_'
'deba'
'deb'
'dead_'
'dding'
'dau'
'dating_'
'dat'
'dan'
'curi'
'cultures_'
'cult'
'culi'
'culat'
'cular_'
'cts_'
'cruise'
'cription_'
'creativity_'
'counter_'
'count_'
'cos'
'cooling_'
'controls_'
'controller'
'contributi'
'contractual'
'continuing_'
'continent'
'contextually_'
'contacts_'
'conta'
'consultation_'
'constructi'
'conservati'
'consensu'
'conse'
'connect_'
'congre'
'confer'
'conclusion_'
'concerned_'
'compr'
'composition'
'compo'
'compli'
'compile'
'competitive_'
'communities_'
'communicate_'
'committ'
'commission'
'colours_'
'collective'
'colleagues_'
'coll'
'cock'
'coalition_'
'clear'
'cker'
'citi'
'circu'
'cine'
'cian'
'cia_'
'choosing_'
'chil'
'cher'
'chemical_'
'checked_'
'characters_'
'chaos_'
'chamber'
'cham'
'challenge_'
'chal'
'certificate_'
'certificat'
'cere'
'centres_'
'center'
'cells_'
'cei'
'causing_'
'catch'
'catalog'
'carte'
'carrier'
'care'
'card'
'capability_'
'capabilities_'
'cant'
'camp_'
'calculati'
'cabin'
'busy_'
'businesses_'
'buff'
'broke'
'broadcast'
'bright_'
'brain_'
'boundaries_'
'bound_'
'boun'
'borrow'
'boom'
'blow'
'blend'
'blas'
'bill'
'bie'
'bic'
'beside'
'benefi'
'beh'
'bbe'
'barr'
'ball_'
'bahn'
'bag_'
'bac'
'azine_'
'ays_'
'aya'
'aware_'
'award'
'avo'
'aver'
'ava'
'automat'
'auto'
'authority_'
'aus'
'audience'
'atur'
'atic_'
'assu'
'assignment'
'assert'
'asp'
'arts_'
'artistic_'
'articles_'
'ars'
'arrived_'
'arrangements_'
'arra'
'arl'
'argument'
'argu'
'archive_'
'archive'
'arbitrary_'
'appeared_'
'appearance_'
'appear'
'antic'
'animat'
'ani_'
'ample'
'altitude_'
'alternati'
'alli'
'alc'
'aki'
'aid_'
'ai_'
'ahead_'
'aha'
'agr'
'aging_'
'age'
'affect'
'adventure_'
'advan'
'adopted_'
'admire'
'administrat'
'ada'
'actor'
'activi'
'actively_'
'acr'
'achiev'
'accomplish'
'accom'
'accessor'
'academic'
'abs'
'aboard_'
'aa'
'] ._'
'Yu'
'X1'
'Which_'
'Well'
'Wel'
'Wei'
'Web'
'WO'
'WE'
'View_'
'Vie'
'Vice'
'Valley_'
'Val_'
'VAT'
'VA'
'User_'
'Ult'
'UNE'
'UM'
'UE'
'Typ'
'Tus'
'Ts'
'Trek_'
'Transl'
'Track'
'Tower_'
'Top_'
'Time'
'Thir'
'Ther'
'Theatre'
'Terrace_'
'Terms_'
'Term'
'Temp'
'Tech_'
'Tai'
'Tab'
'TRA'
'TP'
'Syn'
'Sy'
'Suppo'
'Summ'
'Street_'
'Stor'
'Solo'
'Soci'
'Sn'
'Sli'
'Sign'
'Siemens_'
'Should_'
'Sho'
'Setting'
'Set_'
'Seri'
'Sen'
'Section_'
'Search_'
'School_'
'Saf'
'SQL_'
'SH'
'SCO_'
'Rom'
'Rol'
'Rob'
'River_'
'Rio'
'Rig'
'Rich'
'Rental_'
'Renaissance_'
'Rei'
'Read_'
'RL'
'Queen_'
'Qua'
'Putin_'
'Ps'
'Prote'
'Proce'
'Prim'
'Pr'
'Porta'
'Pon'
'Polic'
'Poker'
'Poi'
'Plu'
'Pia'
'Petr'
'Pers'
'Perform'
'Peace_'
'Pas'
'Palma_'
'PS'
'PG'
'PD'
'Out_'
'Om'
'OR'
'ON'
'Next_'
'Never'
'Netherlands_'
'Near'
'Nap'
'Mü'
'MySQL_'
'Muslim_'
'Mountain'
'Mount_'
'Mone'
'Mobil'
'Mill'
'Mexico_'
'Meta'
'Max'
'Mau'
'Mart'
'Market_'
'Maria_'
'Major'
'Mac_'
'Mac'
'MU'
'MS_'
'MB_'
'MA_'
'Logi'
'Loca'
'Lite_'
'Like_'
'Light'
'Leon'
'Len'
'League_'
'LC'
'LAN'
'Kru'
'Kri'
'Kong_'
'Kn'
'Kli'
'Kirk_'
'Keep'
'Jos'
'Ji'
'JavaScript_'
'Jane'
'Jam'
'Jack'
'Install'
'Industry_'
'Industri'
'Indian_'
'Inc_'
'Ideal'
'Ic'
'ION'
'IMF_'
'Hyde'
'House'
'Hot'
'Hostelsclub_'
'Hos'
'Histori'
'Help'
'Heli'
'Health_'
'Head'
'Hai'
'HD_'
'Guide_'
'Govern'
'Gold'
'Give'
'Gir'
'Gh'
'Get'
'Germa'
'Georg'
'Garden'
'Galle'
'GP'
'GNU_'
'GEN'
'Fund_'
'Fun'
'Full'
'Fried'
'Fri'
'Frank'
'Francis'
'Forum_'
'Force'
'Fon'
'Flor'
'Five_'
'Fis'
'Final'
'Fig'
'Festival_'
'Fee'
'Fed_'
'Fed'
'Fas'
'Far'
'Facebook_'
'Extr'
'Exchange_'
'Es_'
'Eng'
'Emi'
'Ein'
'Edition_'
'Economic_'
'Econom'
'Eastern_'
'EU'
'DvDrip_'
'Dr'
'Dor'
'Don_'
'Don'
'Domin'
'Denmark_'
'Dat'
'Dai'
'DT'
'DM'
'DJ'
'DI_'
'Customer'
'Currently_'
'Cross'
'Coun'
'Corporat'
'Copy'
'Convent'
'Consi'
'Conse'
'Connect'
'Conce'
'Company_'
'Cologne_'
'Collecti'
'Coast_'
'Coa'
'Clin'
'Clean'
'Cla'
'Circ'
'Children_'
'Chang'
'Championship_'
'Ch'
'Cathedral_'
'Cath'
'Casino_'
'Caribbean_'
'Care'
'Captain_'
'Canada_'
'Cana'
'Caf'
'CP_'
'CL'
'CH'
'CE_'
'CB'
'Börse_'
'Burg'
'BugTraq_'
'Buda'
'Bou'
'Both_'
'Bli'
'Ble'
'Belgi'
'Beaut'
'Bau'
'Band'
'BM'
'BC'
'BB'
'Ava'
'Automati'
'Australia'
'Asse'
'Art'
'Ari'
'Arg'
'Apartment_'
'Apartment'
'Alli'
'Alexander_'
'Ai'
'Ages_'
'Aga'
'Aff'
'Advanced_'
'Additional'
'Act_'
'Act'
'Account_'
'Accom'
'Abu'
'Aa'
'AU'
'AD'
';_'
';&_'
'95'
'93'
'85'
'82'
'80'
'74_'
'69'
'66_'
'65'
'60'
'54'
'43'
'3D_'
'37_'
'37'
'30am_'
'1998_'
'1995_'
'1987_'
'180'
'130'
'110'
'/ '
'. ) _'
'," _'
'''_'
'%'
'!!'
' «_'
' ..'
' -- _'
' -'
' +_'
' (“_'
' ''
'• _'
'’._'
'ә'
'қа'
'ш'
'ре'
'п_'
'и_'
'де'
'бо'
'ż'
'ś'
'ć'
'ý'
'öl'
'és'
'ée_'
'éd'
'ç'
'äs'
'â'
'án'
'ße_'
'²_'
'zoom'
'zip'
'zin'
'zens'
'zel'
'zei'
'ywa'
'yu'
'youth_'
'young'
'ymakers_'
'yed_'
'ycle_'
'xy_'
'xon'
'wrong'
'writer_'
'worthy_'
'worry_'
'workshops_'
'worker_'
'woode'
'wines_'
'wid'
'wholes'
'whatever_'
'weig'
'weekend_'
'wear_'
'weapons_'
'weak_'
'wave'
'watche'
'waste_'
'warrant'
'wall'
'wak'
'wai'
'vu'
'vre'
'volu'
'voltage_'
'volle'
'vital'
'vita'
'victor'
'vicinity_'
'vice_'
'vib'
'vessels_'
'versi'
'venues_'
'venu'
'ventur'
'veness_'
'vegetarian_'
'vegetable_'
'varie'
'variat'
'variable_'
'valu'
'vals_'
'vali'
'vacation'
'uu'
'uting_'
'utilit'
'uth'
'utenant_'
'ute_'
'usual_'
'urgen'
'ure'
'urd'
'upt_'
'upload_'
'upgrade'
'unw'
'untuk_'
'unti'
'unst'
'unne'
'unli'
'uniform_'
'unfo'
'unf'
'understood_'
'underl'
'unbe'
'umi'
'ume'
'uma'
'ulg'
'ule'
'uil'
'ught_'
'uer'
'ude'
'twice_'
'twelve_'
'tv'
'tubes_'
'tube_'
'tting'
'tti'
'très_'
'trucks_'
'trop'
'troops'
'tribu'
'trendy_'
'treated_'
'treat_'
'travele'
'travel'
'trat'
'transmission_'
'translator'
'transit'
'transaction_'
'tort'
'torial'
'tops_'
'tons_'
'toc'
'tissue_'
'tir'
'tique_'
'tional'
'ting'
'time'
'ticke'
'thu'
'thre'
'thousand_'
'thick'
'thesis'
'therapy_'
'theo'
'theater'
'terraces_'
'terminal'
'terl'
'teria'
'teri'
'tere'
'terb'
'tend'
'temperature_'
'teenage'
'techni'
'tch'
'taxi'
'tasteful'
'tant_'
'tak'
'tail'
'tahun_'
'table'
'sözler'
'system'
'sync'
'symb'
'swo'
'switche'
'sustain'
'suspen'
'surp'
'surf'
'suppo'
'supplies_'
'summit'
'suited_'
'suit_'
'sui'
'suggestion'
'sufficient'
'sudden'
'subt'
'subsequent_'
'subscribe'
'submit'
'stuff_'
'studies_'
'structur'
'strict_'
'stress'
'stream_'
'strang'
'strai'
'stores_'
'stops_'
'stock'
'sth'
'stem_'
'stel'
'ste_'
'stated_'
'stamp'
'stages_'
'stability_'
'stabili'
'sser'
'squa'
'sprin'
'spreads'
'spots_'
'splash'
'speech_'
'specified_'
'specifications_'
'specification_'
'specially_'
'specializ'
'specialised_'
'spare_'
'sound'
'soul_'
'sons_'
'sono'
'sometimes_'
'solo_'
'soil_'
'sofa_'
'socio'
'societ'
'socialis'
'smooth'
'smoke_'
'smell'
'smal'
'slowly_'
'slow'
'slope'
'slo'
'sky'
'skie'
'situations_'
'siste'
'singer_'
'simultaneous'
'simulat'
'simpli'
'simil'
'signal_'
'sie'
'sides_'
'side'
'sich_'
'showing_'
'showed_'
'showcase'
'show'
'should'
'shortly_'
'shorte'
'short'
'shore_'
'shold_'
'shoe'
'shir'
'shipp'
'shared_'
'shape_'
'sh'
'sge'
'sew'
'settlement_'
'sers_'
'sensi'
'selecting_'
'select'
'segment_'
'seemed_'
'secu'
'seas'
'searching_'
'seal_'
'sde'
'sda'
'script_'
'scre'
'score'
'scooter'
'sche_'
'scent'
'scenes_'
'scar'
'sburg_'
'sancti'
'sample'
'safe'
'rypt'
'rust'
'rus_'
'rupti'
'ruler'
'rul'
'rubb'
'rta'
'rre'
'rose'
'ros_'
'ror_'
'root'
'romantic_'
'roma'
'roc'
'rise'
'riptions_'
'rip'
'rim'
'ric_'
'revenues_'
'reven'
'reveal'
'returning_'
'restore_'
'resso'
'ressi'
'ress'
'respective_'
'reside'
'resi'
'reserved_'
'reserv'
'rer_'
'requ'
'represented_'
'representati'
'repl'
'reo'
'rentals_'
'rene'
'removed_'
'rema'
'relat'
'rehabilitat'
'regulati'
'regist'
'regarded_'
'regard_'
'refund'
'refra'
'reflecti'
'refined'
'referred_'
'reference'
'red'
'rect'
'recreat'
'recover'
'recording'
'recognition_'
'receives_'
'recall'
'realm'
'realize'
'realise'
'real'
'reaction'
'reaching_'
'reach'
'rdinat'
'ray_'
'rational'
'rash'
'ras_'
'ras'
'rapid'
'rap'
'rank_'
'ramp'
'radical'
'radiation_'
'racti'
'rack'
'rable'
'quote'
'quo'
'ques_'
'quas'
'quar'
'ql'
'qi'
'py'
'pursue_'
'purchased_'
'pump'
'pull'
'pue'
'ptu'
'providers_'
'proud'
'protocols_'
'proto'
'protest_'
'protecting_'
'protect'
'prosper'
'propriet'
'prope'
'prop'
'proofed_'
'promise'
'prol'
'project'
'programm'
'profit'
'profile_'
'profil'
'producing_'
'produ'
'processor_'
'proc'
'problema'
'privilege'
'printe'
'prete'
'prest'
'pressi'
'preserve'
'present'
'pren'
'premium_'
'prem'
'preferred_'
'preferences_'
'pref'
'predict'
'practi'
'pot_'
'posting'
'posted_'
'poss'
'positions_'
'position'
'posi'
'pose'
'porti'
'populis'
'populat'
'poor'
'pollutant'
'polic'
'polar'
'point'
'plug_'
'plug'
'plays_'
'plans_'
'placem'
'pita'
'pirat'
'piece'
'pie'
'pian'
'pi_'
'php_'
'photos'
'photographers_'
'phis'
'philosoph'
'pes_'
'perpetrat'
'permission'
'perm'
'periodic'
'percent_'
'pedest'
'pect'
'peak_'
'pay'
'patterns_'
'patents_'
'patent_'
'passion_'
'passing_'
'passi'
'partial'
'parents_'
'parad'
'papers_'
'panoram'
'pada_'
'packed_'
'packe'
'pack_'
'pack'
'own'
'overlooking_'
'ova_'
'outd'
'ourselves_'
'ose_'
'orta'
'orphan'
'orma'
'originate'
'oriented_'
'orienta'
'organizations_'
'organised_'
'organi'
'ordering_'
'oran'
'oque'
'optimum_'
'opposite_'
'opol'
'ople'
'opin'
'operational'
'oper'
'op_'
'oon'
'onw'
'omb'
'olv'
'ologi'
'olin'
'oid'
'ograph'
'oge'
'officials_'
'offe'
'odie'
'oci'
'occurred_'
'occupied_'
'occupa'
'occup'
'obvious_'
'obtained_'
'observed_'
'observe_'
'observ'
'obligations_'
'oblig'
'objectiv'
'oas'
'nze_'
'nw'
'nutrition'
'nur'
'nue'
'ntial_'
'ntes'
'nsta'
'nou'
'noted_'
'note'
'notabl'
'not'
'northern_'
'north'
'nomin'
'nish'
'nim'
'night'
'nich'
'nica'
'nha'
'ngs'
'ngi'
'nga'
'newsletter'
'nev'
'neutr'
'ness'
'nent'
'negotiate'
'negligence_'
'negl'
'negative_'
'nect'
'nding_'
'nces_'
'nca'
'navigat'
'nativ'
'nationalit'
'nationalis'
'nag'
'm²_'
'mut'
'musician'
'multipl'
'mption'
'mpt'
'mpl'
'mouth'
'mouse_'
'motives_'
'motion_'
'mosaic'
'monuments_'
'monte'
'monetary_'
'mole'
'mol'
'modify_'
'moder'
'moda'
'mobility_'
'mo_'
'mn'
'mmen'
'ml_'
'mistake'
'minor_'
'ministr'
'ming'
'mill'
'mier'
'metric'
'meter'
'metals_'
'merchant'
'menu'
'mena'
'memora'
'mem'
'melt'
'meg'
'medal'
'mechani'
'meat_'
'measurement'
'measure_'
'meals_'
'matters_'
'mati'
'mate_'
'mask'
'mart'
'marri'
'marke'
'mari'
'marc'
'mar_'
'manufactured_'
'mans'
'mane'
'mandat'
'male'
'magic'
'magazines_'
'lux'
'lunch_'
'lum'
'luggage_'
'lpi'
'lows_'
'lov'
'lose_'
'logistic'
'logic_'
'lodg'
'loco'
'loc'
'lm'
'llion'
'lling_'
'lived_'
'listi'
'liquid'
'lingu'
'limits_'
'limit'
'limina'
'lig'
'lift'
'lie_'
'liber'
'lian_'
'lh'
'lg'
'less'
'legitima'
'ledge_'
'lecture'
'lect'
'lease'
'lear'
'lde'
'laye'
'laun'
'laugh'
'lati'
'last'
'las'
'laptop_'
'lance'
'laid_'
'lage'
'lac'
'laboratory_'
'labor'
'kto'
'kri'
'kinds_'
'kindly_'
'kick_'
'ki_'
'kg_'
'keyboard_'
'kem'
'justi'
'jurisdiction_'
'junct'
'juic'
'joined_'
'jn'
'jet'
'ject_'
'jad'
'jac'
'iza'
'iver'
'iveness_'
'ius_'
'itz_'
'ituti'
'itud'
'itions_'
'itio'
'ites_'
'itar'
'istic_'
'istan'
'islands_'
'iser'
'iro'
'iqu'
'iples_'
'ios_'
'invited_'
'invite_'
'investments_'
'investigat'
'intr'
'intervention_'
'intern'
'interc'
'intelligent_'
'intell'
'integrate'
'integra'
'int_'
'insulat'
'instantly_'
'insta'
'insc'
'input'
'inner'
'injecti'
'initiate'
'initially_'
'infringe'
'informed_'
'informati'
'iner_'
'inen'
'industries_'
'individuals_'
'individually_'
'independence_'
'incorporate'
'incoming_'
'inclusi'
'inb'
'inar'
'inal'
'improvements_'
'importe'
'impa'
'imp'
'illustr'
'ilit'
'ilin'
'iliate'
'ilia'
'ike'
'igu'
'ignor'
'ight_'
'ige'
'iful'
'ifa'
'ies'
'ienc'
'ideally_'
'idat'
'icon_'
'ications_'
'ically_'
'ibu'
'ibl'
'iba'
'iat'
'iam'
'hypo'
'hw'
'hte'
'horizon'
'hom'
'holding'
'hof_'
'hob'
'hni'
'hma'
'histori'
'his'
'highway_'
'highlight'
'hib'
'hes'
'hero'
'hens'
'hell_'
'heim_'
'hectare'
'heavi'
'heat'
'heade'
'happens_'
'happen'
'hant'
'handle'
'hamma'
'halls_'
'hairy_'
'hair'
'gus'
'guideline'
'guid'
'guarantees_'
'grows_'
'grim'
'gres'
'great'
'grav'
'graphic_'
'graduate_'
'grading'
'grad'
'gle'
'glass'
'gift_'
'gh_'
'gest'
'geograph'
'generati'
'generate_'
'gate_'
'gas'
'galleri'
'gains_'
'gage'
'fé'
'fy'
'fund_'
'functionalit'
'fulfill_'
'fuck'
'fting_'
'fth'
'ften'
'friend_'
'frequent'
'frame_'
'frag'
'foster'
'forums_'
'fortabl'
'fort_'
'forests_'
'focus'
'flying_'
'floating_'
'flash_'
'fl'
'fitt'
'finish_'
'find'
'film'
'filling_'
'fil'
'ffs'
'fficient'
'fet'
'fertili'
'feet_'
'feel'
'feedback_'
'feed'
'featured_'
'fea'
'favourite_'
'fatigue_'
'fashionable_'
'fas'
'farm_'
'familiar_'
'famili'
'falls_'
'faithful'
'fail'
'facto'
'facility_'
'ez_'
'eys_'
'extraordinary_'
'extract_'
'extr'
'extend_'
'expressly_'
'express'
'exposed_'
'export'
'exploring_'
'exploit'
'explic'
'explained_'
'expire'
'expense'
'expect'
'expe'
'expansi'
'expand_'
'exo'
'exhaust'
'exer'
'exec'
'exe'
'exchange'
'exception_'
'exceed'
'exca'
'ewe'
'evidence_'
'eve'
'evaluati'
'euros_'
'euro'
'eums'
'ete_'
'estim'
'essi'
'essen'
'esse'
'esh'
'esa'
'eru'
'erta'
'ership'
'error_'
'erri'
'erl'
'eric'
'erence'
'erati'
'eral'
'epidem'
'eo_'
'environment'
'entre'
'entl'
'entit'
'ential'
'enterprise_'
'ensure'
'ensi'
'enni'
'enit'
'eni'
'engineers_'
'engineer_'
'ener'
'enemy_'
'enemies_'
'endless_'
'encourage'
'encounter'
'emphasis'
'ements_'
'embr'
'elle'
'ell'
'elegan'
'electro'
'electric_'
'electr'
'eit'
'effi'
'effect'
'eer'
'eds_'
'edly_'
'ected'
'economist'
'economic'
'ecommerce_'
'eck'
'ecia'
'ece'
'ebra'
'earne'
'eTwinning_'
'dé'
'dynami'
'dul'
'ds'
'dry'
'dropp'
'driving_'
'dred'
'drawing_'
'dos_'
'dollars_'
'dle_'
'dle'
'divis'
'divid'
'diversity_'
'diverse_'
'distributor'
'distinguish'
'display'
'discover'
'discou'
'disclosed_'
'directi'
'dire'
'dini'
'dine_'
'dimi'
'dimension'
'different'
'diff'
'diese'
'dictat'
'dialog_'
'deu'
'detecti'
'deta'
'destruction_'
'destinations_'
'desk'
'deserve'
'deser'
'desc'
'deposit_'
'deposit'
'dependen'
'denti'
'dente'
'dens'
'demonstra'
'dem'
'della_'
'dell'
'delay_'
'degree_'
'definite'
'defici'
'defect'
'deeply_'
'dee'
'decorati'
'declaration_'
'deck_'
'decade_'
'deactivat'
'dated_'
'dark'
'dare_'
'dang'
'dam'
'cylind'
'cutive_'
'customs_'
'customi'
'cured_'
'cup'
'cum'
'crucial'
'crowd'
'critics_'
'criticiz'
'cris'
'crime'
'creature'
'cream'
'crash'
'cow'
'coupl'
'cosm'
'corrupti'
'corrosion_'
'correctly_'
'corpora'
'copying_'
'copied_'
'copie'
'cookies_'
'coo'
'convers'
'contribute_'
'contradict'
'continuously_'
'continuous_'
'continues_'
'contin'
'contextual_'
'conte'
'contacted_'
'consulting_'
'constituti'
'consistently_'
'consist'
'considerat'
'consent'
'conscious'
'connecting_'
'confus'
'confront'
'confidential_'
'conduct_'
'concert_'
'concert'
'concentrati'
'concentrated_'
'concentrate_'
'computers_'
'comput'
'compromise'
'compose'
'complimentary_'
'complicate'
'compliance_'
'completeness_'
'complement'
'complaint'
'competi'
'compete'
'compensation_'
'compat'
'commonly_'
'commo'
'commit_'
'comment_'
'command'
'combining_'
'combat'
'coloured_'
'colors_'
'collaps'
'colla'
'col_'
'cohe'
'coating'
'coastal_'
'cloud'
'clothing_'
'clip'
'climb'
'cleaner_'
'clau'
'classif'
'cket'
'cked_'
'ción_'
'circumstance'
'cip'
'cient'
'cide'
'ci_'
'chure'
'chur'
'cht'
'chroni'
'chro'
'ching_'
'chen'
'ched_'
'chat_'
'chas'
'chart_'
'chart'
'charm_'
'charge'
'characteristic_'
'chances_'
'chan'
'chairs_'
'chai'
'cessary_'
'certified_'
'ceremony_'
'ceramic'
'cer_'
'cents_'
'centrally_'
'cement'
'cem'
'cellar'
'celebrit'
'cation'
'cati'
'cathed'
'catering_'
'cated_'
'catalogue_'
'caste'
'carv'
'carries_'
'carr'
'cara'
'capa'
'candidate'
'cand'
'camping_'
'camera'
'calling_'
'butt'
'bust'
'bus'
'bundl'
'bud'
'bs'
'brother_'
'broad_'
'brid'
'bree'
'boy_'
'boutique'
'borate'
'boost'
'bomb'
'bodie'
'blog'
'bling_'
'blic'
'bless'
'birth'
'bird_'
'bird'
'bind'
'bikin'
'bike_'
'bidd'
'bi_'
'bera'
'behav'
'begu'
'bedrooms_'
'bec'
'beaut'
'bear_'
'beac'
'bea'
'battery_'
'bathing_'
'bath'
'barriers_'
'bank'
'ballo'
'balcony_'
'baby_'
'ba_'
'aye'
'awareness_'
'aux_'
'autumn_'
'automobile_'
'autom'
'auto_'
'authoriz'
'authentic'
'aus_'
'audi'
'auc'
'attended_'
'attack_'
'atta'
'ats'
'atr'
'ato_'
'ates_'
'atch'
'atan_'
'asy'
'asu'
'aster'
'associate'
'associa'
'assessment_'
'asc'
'aru'
'aroma'
'arms_'
'arily_'
'ards_'
'ardi'
'aqua'
'approv'
'approach'
'appro'
'appliance'
'apparent'
'appa'
'aper'
'apar'
'apa'
'antique_'
'anno'
'animal'
'angl'
'ando_'
'ander'
'anchor'
'ance'
'analys'
'anal'
'ams_'
'amid'
'ambien'
'amb'
'alte'
'alpi'
'alo'
'alie'
'algo'
'ais_'
'airs'
'airl'
'ail_'
'agricultural_'
'agreements_'
'agre'
'aggressive'
'agent'
'agenda'
'afraid_'
'afford'
'adver'
'advantages_'
'ads_'
'adj'
'adhe'
'adequate_'
'ademy_'
'addresses_'
'adapte'
'acu'
'activate_'
'acteri'
'acquisition_'
'acqu'
'ack'
'acid'
'achi'
'ach_'
'acen'
'accuracy_'
'accounts_'
'accomodation_'
'accident'
'accession_'
'acceptable_'
'abuse_'
'abuse'
'absorb'
'abso'
'absence_'
'abl'
']_'
'Zur'
'ZE'
'Young_'
'You'
'YO'
'XML_'
'XA'
'Would_'
'Women'
'Within_'
'Wir'
'Williams_'
'Wilhelm'
'Whit'
'Wellness_'
'Website'
'Water'
'Washing'
'Want'
'Wales'
'Wald'
'WTO'
'WC'
'Vu'
'Vla'
'Vita_'
'Virtu'
'Vietnam'
'Victoria'
'Version_'
'Vel'
'Valencia'
'Vac'
'VM'
'VI_'
'Ut'
'Unfortunately_'
'UT'
'US'
'UP'
'UL'
'Twin'
'Tren'
'Treat'
'Travel'
'Transport'
'Train'
'Trade_'
'Touri'
'Tour_'
'Tor'
'Tok'
'Together_'
'Ticke'
'Through_'
'Those_'
'Thomas_'
'Tho'
'Thi'
'Thal'
'Tex'
'Ter'
'Tas'
'Tal'
'TION_'
'System_'
'Swi'
'Surv'
'Subs'
'Students'
'Step'
'Stea'
'St'
'Sprin'
'Sport'
'Special_'
'Speci'
'Sor'
'Solution'
'Sol_'
'Sla'
'Sl'
'Skype_'
'Sk'
'Ship'
'Sevill'
'Scot'
'Science_'
'Schw'
'Schle'
'Sche'
'Scandinavia'
'Save'
'Sav'
'Sams'
'Sac'
'SR'
'SIT'
'SE_'
'SERV'
'Rota'
'Ros'
'Roman_'
'Roma_'
'Roma'
'Rock'
'Richard_'
'Ric'
'Rhine'
'Revolution_'
'Resort'
'Residence_'
'Release_'
'Relat'
'Regula'
'Regist'
'Rat'
'Rai'
'Radi'
'Rad'
'Rac'
'RP'
'RO_'
'RN_'
'RK'
'REA'
'RC'
'Quarter'
'Quality_'
'Pue'
'Publi'
'Program'
'Prof'
'Prod'
'Prize_'
'Prince'
'Prev'
'Press_'
'Premium_'
'Power'
'Port_'
'Port'
'Por'
'Plan_'
'Plan'
'Pho'
'Philip'
'Phil'
'Parti'
'Park'
'Parad'
'Pant'
'Pad'
'PL'
'PI'
'PDF_'
'Organization_'
'Order'
'Opti'
'Obj'
'OL_'
'OK_'
'OB'
'Nova'
'Northe'
'Norma'
'Nig'
'Nice_'
'Nic'
'News'
'Nep'
'Nav'
'Natural_'
'Natur'
'Nar'
'Nam'
'NOT_'
'NI_'
'NEW'
'Music_'
'Multi'
'Movi'
'Modern_'
'Moder'
'Model'
'Mira'
'Ministry_'
'Minist'
'Mind'
'Metro_'
'Merc'
'Memor'
'Meeting_'
'Medical_'
'Matt'
'Massa'
'Martin'
'Marketing_'
'Marina_'
'Marin'
'Marbella_'
'Manu'
'Mand'
'Mana'
'Malaysia'
'Mak'
'Mail'
'Mah'
'MSN_'
'Luxembourg_'
'Line_'
'Lig'
'Life_'
'Library_'
'Lib'
'Leb'
'Last_'
'Las_'
'LES'
'LD_'
'LA_'
'Ky'
'Kul'
'Kre'
'Kingdom'
'Kin'
'Ker'
'Kenya'
'Kenn'
'Karl_'
'Jen'
'Jan'
'Itali'
'Islamic_'
'Islam_'
'Interna'
'Integrat'
'Inte'
'Innovati'
'Inn_'
'Infineon_'
'Independe'
'Ill'
'Il'
'Ib'
'INT'
'II'
'IC_'
'Hz_'
'Hungary_'
'Hub'
'Hosp'
'Hong_'
'Honda_'
'Hon'
'Home'
'History_'
'Hil'
'High'
'Hall_'
'HT'
'HS'
'HP_'
'HOT'
'HA'
'Gui'
'Gre'
'Granada_'
'Golden_'
'Gol'
'George_'
'Gat'
'Gas'
'Games_'
'GL'
'GA'
'Fuji'
'Fuerte'
'Fra'
'Foundation_'
'Fort'
'Foc'
'Flu'
'Fl'
'Fine'
'Fel'
'Fea'
'Fai'
'FI_'
'FF'
'FC_'
'Eye'
'Explor'
'Experi'
'Excellent_'
'Exc'
'Even'
'Eve'
'Ev'
'Equi'
'Engine'
'Emb'
'Elect'
'El_'
'Edit_'
'Edit'
'Eco'
'Ear'
'ES_'
'EP'
'ED_'
'Dutch_'
'Dub'
'Dri'
'Draw'
'Down'
'Double_'
'Dom'
'Disp'
'Disco'
'Din'
'Dev'
'Det'
'Der'
'Depending_'
'Day_'
'Das_'
'DR'
'DN'
'DA_'
'Cub'
'Cru'
'Croatia_'
'Cro'
'Credit_'
'Create'
'Court'
'Course_'
'Countr'
'Cooper'
'Convert'
'Control_'
'Contact'
'Consul'
'Conf'
'Compute'
'Compo'
'Columb'
'Color'
'Colonia'
'Code_'
'Co_'
'Clu'
'Class'
'Civi'
'Citi'
'Chur'
'Chil'
'Chai'
'Cert'
'Cente'
'Cent'
'Cat'
'Cann'
'COM'
'CLEVE'
'CHF_'
'Bür'
'Bulgarian_'
'Buil'
'Budd'
'Brow'
'Brand'
'Brad'
'Blu_'
'Blog'
'Bil'
'Beside'
'Bell'
'Bef'
'Bed_'
'Bec'
'Bea'
'Bat'
'Basi'
'Base'
'Bart'
'Baro'
'Barb'
'Baltic'
'Bag'
'Back'
'Award'
'Auth'
'Aug'
'Atlant'
'Ast'
'Assa'
'Arti'
'Archi'
'Arc'
'Arab'
'Aqua'
'Apple_'
'Apart_'
'Ange'
'Ang'
'Andalusia'
'Amsterdam_'
'Alps_'
'Alex'
'Albe'
'Alb'
'Airco'
'Agri'
'Agen'
'Age_'
'Afr'
'Afghan'
'Adriatic_'
'Activ'
'AR_'
'ARC'
'=='
'::'
'98'
'900'
'88'
'87'
'83'
'78'
'75_'
'75'
'73'
'67'
'65_'
'58'
'50'
'45'
'38_'
'36_'
'34_'
'34'
'32'
'31_'
'2nd_'
'21st_'
'205'
'2011_'
'1993_'
'1980_'
'1970'
'183'
'178'
'120_'
'0m'
'06_'
'05'
'.” '
'.)'
'. ('
', [_'
'+ _'
'***'
'); '
'):'
'), '
'() '
''._'
''', _'
'") _'
' »'
' £_'
' )'
' # _'
' "._'
' "'
'�'
'ұ'
'ң'
'я'
'в'
'ę'
'å'
'ß'
'·'
'©'
'|'
'み'
'‘'
'ө'
'ғ'
'ě'
'ô'
'É'
'~'
'^'
']'
'$'
'“'
'—'
'ю'
'х'
'Р'
'˚'
'Ž'
'ı'
'Č'
'ą'
'î'
'Ø'
'º'
'´'
''
'q'
'\'
';'
'+'
'駅'
'ら'
'な'
'と'
'い'
'™'
'„'
'ү'
'ј'
'э'
'ц'
'Б'
'ž'
'ř'
'Đ'
'ù'
'ò'
'ë'
'Ü'
'Ö'
'»'
'±'
'­'
'ª'
''
''
'@'
'２'
'１'
'ﬂ'
'ﬁ'
'년'
'頂'
'町'
'桜'
'本'
'木'
'揃'
'年'
'州'
'不'
'『'
'◎'
'→'
'•'
'–'
'ศ'
'พ'
'һ'
'є'
'ч'
'ф'
'С'
'О'
'И'
'В'
'Ђ'
'Ω'
'˙'
'ź'
'ű'
'ū'
'Š'
'Ś'
'Ř'
'ő'
'ň'
'Ł'
'ğ'
'đ'
'þ'
'õ'
'ð'
'æ'
'ã'
'Ú'
'Õ'
'Î'
'Í'
'È'
'Å'
'Ä'
'Á'
'¿'
'½'
'¼'
'¸'
'§'
'¥'
''
''
''
''
'}'
'{'
'`'
'à'
'²'
'£'
'<'
'&'
