'<pad>'
'<EOS>'
', _'
'de_'
'_'
'a_'
'._'
'în_'
'e_'
'-_'
'şi_'
'la_'
'cu_'
'i_'
'pentru_'
'ă_'
'o_'
'care_'
'pe_'
'și_'
'este_'
'să_'
'. _'
'un_'
'din_'
'mai_'
'ul_'
'si_'
'le_'
'se_'
'nu_'
't_'
'in_'
'au_'
'lor_'
'ca_'
'l_'
'ce_'
'lui_'
'sau_'
're_'
' (_'
'că_'
'te_'
'va_'
'fi_'
's_'
': _'
'sunt_'
' - _'
'rea_'
'sa_'
'al_'
'ului_'
'ei_'
'ţi_'
'fost_'
'jocuri_'
'are_'
'ele_'
'1_'
'ea_'
'În_'
'vă_'
') _'
'ale_'
'm_'
'ii_'
'ar_'
'u_'
'or_'
'ri_'
'ți_'
':_'
'prin_'
' , _'
'at_'
'2_'
'n_'
'toate_'
'ta_'
'ile_'
'poate_'
'am_'
'ne_'
'3_'
'multe_'
'ui_'
'tă_'
'r_'
'zonă_'
'pot_'
'interesante_'
'despre_'
'acest_'
'5_'
'dintre_'
'4_'
'uri_'
'Obiective_'
'joc_'
'; _'
'Wien_'
'1010_'
'cele_'
'cum_'
'după_'
'mult_'
'ilor_'
'd_'
'dar_'
'asemenea_'
'el_'
',_'
'mare_'
'ate_'
'ia_'
'dvs_'
'vor_'
'timp_'
'cel_'
'unui_'
'noi_'
'?_'
' "_'
'foarte_'
'y_'
'fie_'
'ai_'
'face_'
'c_'
'elor_'
'doar_'
'ã_'
'când_'
'/_'
'7_'
'într_'
'6_'
'trebuie_'
'8_'
'zi_'
'astfel_'
'ie_'
'on_'
'De_'
' – _'
'!_'
'privind_'
'area_'
')._'
'ti_'
'acum_'
'rii_'
'ani_'
'fiecare_'
'dacă_'
'lucru_'
'10_'
'ând_'
'online_'
'atunci_'
'A_'
'), _'
'ează_'
'Dumnezeu_'
'Ä_'
'alte_'
' _'
'Cazare_'
';_'
'hoteluri_'
'iar_'
'mod_'
'Nu_'
' / _'
'Şi_'
'vile_'
'pensiuni_'
'voi_'
'an_'
'tot_'
'cazul_'
'g_'
'site_'
'er_'
'Pentru_'
'locuri_'
' „_'
'putea_'
'nici_'
'cei_'
'rile_'
'peste_'
'orice_'
' . _'
'ori_'
'na_'
'către_'
'ceea_'
'cea_'
'Dacă_'
'aici_'
'ţii_'
'precum_'
'fel_'
'O_'
'această_'
'aceasta_'
'ării_'
'parte_'
'” _'
'trebui_'
'it_'
'9_'
'unei_'
'aceste_'
'Acest_'
'? _'
'(_'
'oferte_'
'avea_'
'2017_'
'0_'
'ţie_'
'ază_'
'era_'
'bine_'
'ci_'
'chiar_'
'cadrul_'
'S_'
' “_'
'Este_'
'ție_'
'ºi_'
'sortate_'
'până_'
'ții_'
'loc_'
'da_'
'2016_'
'- _'
'unul_'
'unde_'
'L_'
')_'
'aţi_'
'bun_'
'fără_'
'El_'
'Case_'
'..._'
' '
'ţia_'
'v_'
'I'
'A'
'"_'
'îl_'
'nou_'
'h_'
'ția_'
'urile_'
'nd_'
'15_'
'jos_'
'20_'
'numai_'
'calitate_'
'acestea_'
'tuturor_'
'permite_'
'fişier_'
'eze_'
'decât_'
'S'
'nostru_'
'Domnul_'
'una_'
'C_'
'La_'
'D'
'sale_'
'Cu_'
'12_'
'% _'
'tul_'
'timpul_'
'O'
'E'
' ._'
'condiții_'
'ze_'
'gratuit_'
'! _'
'vei_'
'tor_'
'program_'
'nevoie_'
'k_'
'ere_'
'itate_'
'extensia_'
'M_'
'" _'
'sub_'
'spre_'
'p_'
'deschide_'
'U'
'Moldova_'
'Iulie_'
'tip_'
'noastre_'
'noapte_'
'mă_'
'Dar_'
'Å_'
'oare_'
'mi_'
'ări_'
'Ã_'
'tu_'
'sc_'
'partea_'
'dă_'
'două_'
'Vreme_'
'METEO_'
'30_'
'x_'
'trei_'
'fiind_'
'Phen375_'
'Jocuri_'
'16_'
'vacanță_'
'ut_'
'produse_'
'oferă_'
'nt_'
'm'
'ată_'
'apoi_'
'Mai_'
'G'
'È_'
'rilor_'
'dat_'
'd'
'baza_'
'atât_'
'G_'
'13_'
'11_'
'ţă_'
'şte_'
'între_'
'zis_'
'z_'
'unor_'
'persoane_'
'numărul_'
'diferite_'
'Există_'
'există_'
'ajuta_'
'Un_'
'In_'
'C'
'primul_'
'ma_'
'cât_'
'spus_'
'rezervare_'
'f_'
'erea_'
'cauza_'
'T'
'B'
'Am_'
'privire_'
'asupra_'
'H'
'D_'
'său_'
'servicii_'
'na'
'dumneavoastră_'
'celor_'
'ați_'
'Israel_'
'Cum_'
'18_'
'za_'
'pre'
'meu_'
'me_'
'Lei_'
'I_'
'ăm_'
'sistem_'
'singură_'
'rapid_'
'fișierul_'
'N'
'Ce_'
'încă_'
'zile_'
'n'
'exact_'
'bune_'
'b_'
'ască_'
'acesta_'
'Hotel_'
'Domnului_'
'14_'
'ză_'
'oameni_'
'nivel_'
'ng_'
'mari_'
'le'
'ic_'
'eu_'
'M'
'Aceasta_'
'wi_'
'ro'
'camera_'
'000_'
'spune_'
'special_'
'mea_'
'lume_'
'ice_'
'copiilor_'
'anul_'
'P_'
'K'
'F'
'17_'
' -_'
'încât_'
'rul_'
'lu'
'greutate_'
'avut_'
'Se_'
'Isus_'
'E_'
'De'
'ști_'
'urilor_'
'tate_'
'r'
'mici_'
'line_'
'iei_'
'es_'
'câteva_'
'bună_'
'Pe_'
'‚_'
'ța_'
'vecinătatea_'
'une_'
't'
'sa'
'lă_'
'făcut_'
'aproape_'
'alt_'
'România_'
'Prin_'
'P'
'50_'
'z'
'tri'
'sã_'
'simplu_'
's'
'ra_'
'puteți_'
'evenimente_'
'esc_'
'e'
'data_'
'100_'
'zona_'
'us_'
'ura_'
'tii_'
'oamenii_'
'nă_'
'minute_'
'ing_'
'inclusiv_'
'fişiere_'
'deoarece_'
'car'
'aveţi_'
'apă_'
'X'
'V_'
'T_'
'După_'
'ță_'
'ș_'
'vedere_'
'se'
'os_'
'nte_'
'fac_'
'date_'
'Cele_'
'”, _'
'ţa_'
'zi'
'tu'
'tia_'
'produs_'
'probleme_'
'plus_'
'ge_'
'etc_'
'complet_'
'chi'
'cat_'
'aza_'
'al'
'R_'
'R'
'Pre'
'Ma'
'ște_'
'îi_'
're'
'pa'
'p'
'om_'
'oferit_'
'ni'
'faptul_'
'drept_'
'categoria_'
'acolo_'
'Solicitați_'
'L'
'F_'
'Cel_'
'sus_'
'ră_'
'ob'
'dublă_'
'copii_'
'aceea_'
'Z'
'Romania_'
' | _'
'înainte_'
'vom_'
'unele_'
'ultimul_'
'toare_'
'ste_'
'si'
'prima_'
'ite_'
'il_'
'g'
'download_'
'bo'
'Windows_'
'Vezi_'
'Ne'
'La'
'Fi'
'25_'
'ț_'
'şti_'
'ziua_'
'y'
'to'
'similare_'
'puteţi_'
'po'
'ni_'
'necesar_'
'ne'
'gratis_'
'da'
'Sa'
'Li'
'Joaca_'
'Din_'
'Când_'
'Apropiere_'
'22_'
' »»_'
'împotriva_'
've_'
'ri'
'pro'
'posibil_'
'luat_'
'live_'
'la'
'ine'
'fiul_'
'ea'
'ati_'
'aer_'
'Do'
'Ba'
'8'
'2015_'
'19_'
'., _'
'în'
'®_'
'vedea_'
'stat_'
'software_'
'ră'
'orii_'
'numele_'
'l'
'domeniul_'
'dia'
'cre'
'co'
'aveți_'
'So'
'Mar'
'Lui_'
'3'
'21_'
'2009_'
''_'
'ute_'
'tele_'
'tatea_'
'speciale_'
'sigur_'
'q_'
'perioada_'
'nti'
'mo'
'ment_'
'locul_'
'itatea_'
'is'
'i'
'ho'
'h'
'faci_'
'eaza_'
'doua_'
'cur'
'c'
'ar'
'W'
'V'
'UE_'
'Ra'
'Po'
'Per'
'Na'
'N_'
'Mi'
'Martie_'
'Alte_'
'7'
'6'
' : _'
'ător_'
'început_'
'web_'
'venit_'
'te'
'tale_'
'programe_'
'mic_'
'k'
'iti_'
'intr_'
'informaţii_'
'important_'
'fişierul_'
'et_'
'direct_'
'ce'
'ales_'
'X_'
'Decembrie_'
'Citeste_'
'24_'
'wi'
'urmare_'
'tău_'
'sunteţi_'
'sul_'
'sal'
'pe'
'noastră_'
'mine_'
'ine_'
'in'
'gre'
'doi_'
'cazare_'
'be'
'bani_'
'asta_'
'ag'
'To'
'Ta'
'Ro'
'Ci'
'Bi'
' & _'
'ţi'
'ările_'
'înc'
'w'
'turi_'
'stra'
'rugăm_'
'ot'
'ha'
'gi'
'flash_'
'faţă_'
'fapt_'
'ească_'
'cu'
'con'
'coa'
'click_'
'casa_'
'Re'
'Atunci_'
'Ar'
'Acesta_'
': „_'
'începe_'
'£_'
'zare_'
'utilizarea_'
'toată_'
'tine_'
'ra'
'o'
'nta_'
'necesare_'
'mar'
'lo'
'ire_'
'internet_'
'inter'
'importante_'
'eli'
'dezvoltarea_'
'cã_'
'cunoscut_'
'creat_'
'bil_'
'ber'
'b'
'află_'
'Se'
'Pi'
'Le'
'Bo'
'2'
'.”_'
've'
'va'
'utilizează_'
'um_'
'u'
'tie_'
'spa'
'sec'
'scopul_'
'putem_'
'pus_'
'juca_'
'j_'
'iul_'
'ina_'
'hotel_'
'hi'
'eşte_'
'en_'
'deja_'
'bile_'
'aşa_'
'auto'
'anului_'
'alt'
'U_'
'Me'
'Europa_'
'Con'
'Ce'
'2010_'
'ţe_'
'ă'
'îşi_'
'însă_'
'văzut_'
'valoare_'
'ură_'
'ul'
'tur'
'transport_'
'sub'
'rău_'
'reprezintă_'
'mp'
'luni_'
'inima_'
'informații_'
'ina'
'găsit_'
'fromat_'
'forma_'
'exemplu_'
'et'
'dezvoltare_'
'ci'
'bra'
'ase_'
'as'
'and_'
'afaceri_'
'acestui_'
'ace'
'Ri'
'Poker_'
'Ho'
'Google_'
'Fa'
'Ei_'
'Da'
'Cu'
'Casa_'
'Car'
'Aceste_'
'4'
'27_'
'2014_'
'2012_'
'00_'
'țe_'
'ţilor_'
'înseamnă_'
'urma_'
'totul_'
'torii_'
'sta'
'st_'
'pune_'
'printre_'
'patru_'
'oferi_'
'oc'
'noroc_'
'nivelul_'
'ma'
'lucrurile_'
'li'
'ju'
'facă_'
'ero'
'dupa_'
'dintr_'
'dată_'
'camere_'
'at'
'ari'
'a'
'Interpretarea_'
'Instantaneu_'
'Crăciun_'
'60_'
'ã'
'ze'
'van'
'ut'
'so'
'rs'
'putere_'
'puncte_'
'programul_'
'probabil_'
'principal_'
'por'
'poker_'
'personaj_'
'os'
'orul_'
'or'
'one'
'nea'
'mediu_'
'lumea_'
'iunie_'
'her'
'gar'
'fotografii_'
'fi'
'eni'
'copiii_'
'cine_'
'cinci_'
'ceva_'
'caz_'
'catre_'
'cal'
'ata_'
'asociate_'
'ară_'
'aplicaţia_'
'alb_'
'adăugate_'
'adevărat_'
'acestora_'
'Al'
'199'
'. '
'.'
'ției_'
'ţiei_'
'împreună_'
'vin'
'v'
'utiliza_'
'unii_'
'toţi_'
'tea_'
'starea_'
'punct_'
'pri'
'prezent_'
'para'
'ore_'
'ora_'
'oase_'
'non_'
'măr'
'merge_'
'lin'
'lea_'
'kn_'
'ir'
'fu'
'format_'
'fe'
'fara_'
'fa'
'eni_'
'duce_'
'destul_'
'cer'
'centrul_'
'cea'
'calculatorul_'
'ba_'
'atea_'
'astăzi_'
'afara_'
'Vi'
'Va'
'Toate_'
'Fo'
'B_'
'9'
'* _'
'• _'
'ști'
'şe'
'întreaga_'
'x'
'we'
'vin_'
'ușor_'
'trecut_'
'ter'
'ste'
'rt'
'pu'
'nes'
'lul_'
'lucruri_'
'limba_'
'liber_'
'iv_'
'itu'
'ică_'
'ga_'
'energie_'
'dreptul_'
'disponibile_'
'di'
'degetele_'
'daţi_'
'componente_'
'ciu'
'bi'
'acestei_'
'Mic'
'Masturbare_'
'Ka'
'Fii_'
'Cor'
'23_'
'18'
'"._'
'", _'
'”._'
'între'
'ându_'
'zarea_'
'utilizare_'
'us'
'sânge_'
'suficient_'
'stă_'
'reg'
'puternic_'
'orilor_'
'om'
'oli'
'obicei_'
'muncă_'
'moment_'
'mer'
'mani'
'legate_'
'kn'
'jo'
'iu_'
'irea_'
'ins'
'go'
'fișier_'
'edi'
'du'
'diverse_'
'detalii_'
'corpul_'
'conform_'
'adevăr_'
'Q'
'Pro'
'Orgasm_'
'No'
'Iar_'
'Che'
'Centrul_'
'Ca_'
'29_'
'2011_'
'şti'
'þi_'
'Ón_'
'za'
'wa'
'vorbi'
'ur'
'ui'
'tro'
'trimis_'
'trece_'
'ta'
'succes_'
'st'
'singur_'
'q'
'proiecte_'
'persoană_'
'ori'
'oamenilor_'
'nimic_'
'neg'
'modul_'
'milioane_'
'mele_'
'li_'
'las'
'ki'
'is_'
'inde'
'incat_'
'ier'
'ia'
'general_'
'gal'
'ep'
'en'
'deschise_'
'căci_'
'col'
'aur_'
'ari_'
'adaugă_'
'Trebuie_'
'Striptease_'
'Restaurant_'
'Op'
'Ni'
'K_'
'Ju'
'Joc_'
'Hristos_'
'Ha'
'Go'
'Du'
'David_'
'Co'
'28_'
' ,_'
'„_'
'vo'
'video_'
'veţi_'
'urmează_'
'toa'
'termen_'
'sti'
'ster'
'sk'
'pun'
'pare_'
'par'
'ou'
'oni'
'ofera_'
'obține_'
'număr_'
'ntă_'
'nt'
'nr_'
'no'
'ng'
'mil'
'lângă_'
'lea'
'km_'
'je'
'iu'
'ip'
'ini'
'impresii_'
'iile_'
'for'
'fizic_'
'femei_'
'eşti_'
'eri'
'erau_'
'căr'
'câ'
'cineva_'
'cap_'
'bază_'
'auto_'
'ati'
'asa_'
'aprilie_'
'ali'
'ala_'
'Sp'
'Revelion_'
'Player_'
'Pa'
'Miercuri_'
'Italia_'
'Fu'
'Exp'
'Eu_'
'Ban'
'Apoi_'
': '
'2008_'
'10'
'0'
'ţiile_'
'ăţii_'
'ători_'
'înt'
'viață_'
'veți_'
'ver'
'vechi_'
'urmă_'
'tra'
'ter_'
'tat_'
'stră'
'ru'
'ria_'
'res'
'pur_'
'proiectului_'
'proiect_'
'produc'
'primi_'
'posibilitatea_'
'per'
'parti'
'nu'
'momentul_'
'mm_'
'min'
'media_'
'me'
'mas'
'lit'
'intre_'
'ind_'
'ile'
'ig'
'ic'
'he'
'greu_'
'folosi'
'flori_'
'f'
'exista_'
'er'
'eo'
'eficient_'
'ec'
'du_'
'domeniu_'
'dis'
'dep'
'contact_'
'cin'
'che'
'cale_'
'calculator_'
'bu'
'așa_'
'ate'
'anti'
'ade'
'Să_'
'Stil_'
'Spa'
'Sin'
'Republicii_'
'Mari'
'J'
'Flash_'
'Bucuraţi_'
'Bal'
'Au_'
'Astfel_'
': "_'
'70_'
'26_'
'2006_'
'12'
'”_'
'șa'
'Și_'
'întotdeauna_'
'înaintea_'
'îmb'
'âr'
'zo'
'xi'
'w_'
'vizibile_'
'viaţa_'
'vederea_'
'valoarea_'
'un'
'uc'
'tau_'
'suplimentare_'
'su'
'referă_'
'ras'
'păr'
'pul'
'persoanele_'
'peri'
'pa_'
'ov'
'ona'
'numit_'
'naturale_'
'mulți_'
'mii_'
'mică_'
'mi'
'lini'
'lic'
'ka'
'jurul_'
'jocurile_'
'ie'
'găsi_'
'folosit_'
'extrem_'
'economi'
'dro'
'dispune_'
'deo'
'de'
'daca_'
'că'
'corpului_'
'cor'
'cand_'
'auzit_'
'ata'
'analiza_'
'aduce_'
'acestor_'
'acele_'
'ab'
'Vă_'
'Vechi_'
'Te'
'Su'
'Sch'
'Pe'
'Mon'
'Ku'
'Is'
'II_'
'Hi'
'He'
'Com'
'At'
'Ad'
'Ac'
'AC'
'40_'
'31_'
'"'
'“_'
'șe'
'vizită_'
'uni'
'tare_'
'tal'
'să'
'sînt_'
'stic'
'stan'
'sta_'
'social_'
'siguranță_'
'scă_'
'scurt_'
'ric'
'publice_'
'prezintă_'
'prea_'
'poporul_'
'pia'
'persoana_'
'op'
'onală_'
'onale_'
'oa'
'nă'
'multi'
'mon'
'mb'
'masini_'
'locale_'
'lim'
'licență_'
'lei_'
'lan'
'ja'
'j'
'interiorul_'
'indi'
'ici'
'ianuarie_'
'gan'
'free_'
'fra'
'formate_'
'fo'
'faptului_'
'europene_'
'ers'
'ent_'
'ele'
'el'
'ede'
'dă'
'duc'
'do'
'cînd_'
'cri'
'ck_'
'can'
'beneficia_'
'bal'
'avem_'
'as_'
'arată_'
'ara_'
'apa_'
'ap'
'anumite_'
'and'
'altă_'
'aj_'
'aibă_'
'actual'
'aci'
'acces'
'Y'
'Ultima_'
'Ulei_'
'Raportul_'
'Pu'
'Mu'
'Lo'
'Hotelul_'
'European_'
'Daca_'
'CE'
'Bucuresti_'
'2013_'
'06_'
'”'
'“ _'
'știți_'
'ş'
'ăţi_'
'ăr'
'înd_'
'vostru_'
'up_'
'tă'
'tit'
'tim'
'sur'
'suma_'
'str'
'stele_'
'sor'
'sol'
'sistemul_'
'sine_'
'sin'
'simpl'
'sea'
'răspuns_'
'rin'
'rie_'
'repede_'
'rea'
'pînă_'
'puţin_'
'public_'
'pres'
'poze_'
'poli'
'ple'
'on'
'ol'
'nouă_'
'noiembrie_'
'mesaj_'
'mel'
'lemn_'
'ke'
'izat'
'izare_'
'im'
'gu'
'gasse_'
'eri_'
'drumul_'
'dr'
'din'
'descărca_'
'des'
'departe_'
'dem'
'datelor_'
'clic_'
'bat'
'atul_'
'ato'
'atii_'
'ara'
'apasă_'
'anii_'
'ală_'
'ajuns_'
'afară_'
'administra'
'acu'
'acces_'
'Zoom_'
'Vo'
'SA'
'Pă'
'Poate_'
'Oc'
'Muzeul_'
'Marea_'
'Man'
'HIV_'
'Gra'
'For'
'Dor'
' — _'
' »_'
' [_'
'ş_'
'ătoare_'
'împăr'
'Î'
'viz'
'vi'
'urm'
'uni_'
'uit_'
'ug'
'tori_'
'tin'
'telefon_'
'tarife_'
'suport_'
'sunteți_'
'stre'
'sti_'
'stare_'
'spun_'
'situat_'
'serviciilor_'
'septembrie_'
'seama_'
'scris_'
'roa'
'produsele_'
'prec'
'pra'
'poți_'
'potrivit_'
'plac'
'pi'
'perioadă_'
'pagina_'
'onal_'
'omului_'
'oi'
'now_'
'nit'
'niciodată_'
'nep'
'nci'
'mit'
'metri_'
'mana'
'luna_'
'lt'
'ls'
'ita_'
'it'
'intre'
'into'
'han'
'gă_'
'fișierului_'
'fapte_'
'fac'
'ești_'
'exp'
'erii_'
'era'
'dus_'
'dese'
'dere_'
'deci_'
'dea_'
'cuv'
'control_'
'cont_'
'conformitate_'
'comentarii_'
'com'
'citi'
'cio'
'ca'
'bri'
'bine'
'ben'
'bar'
'ba'
'apro'
'ane'
'am'
'adus_'
'active_'
'ac'
'Ve'
'Va_'
'Unite_'
'Str'
'Similar_'
'Si'
'Republica_'
'Pla'
'Or'
'Nord_'
'Mo'
'Labii_'
'Im'
'Iisus_'
'Ierusalim_'
'Hoteluri_'
'Ga'
'Fe'
'Cont'
'Ca'
'CA'
'Bl'
'An'
'Am'
'?'
'80_'
'ţ_'
'ăre'
'împ'
'ân'
'zat_'
'vir'
'vine_'
'vers'
'varietate_'
'utilizatorilor_'
'ust'
'următoarele_'
'urg'
'up'
'turn'
'tului_'
'tratament_'
'torul_'
'suntem_'
'sp'
'sociale_'
'scri'
'scop_'
'san'
'rol'
'risc_'
'respectiv_'
'rem'
'rai'
'populare_'
'pierderea_'
'ol_'
'octombrie_'
'nor'
'nde'
'mâinile_'
'mul_'
'mini'
'mijlocul_'
'meteo_'
'martie_'
'lo_'
'jucători_'
'ită_'
'intermediul_'
'include_'
'imediat_'
'imagini_'
'im_'
'ificat'
'ica_'
'gă'
'go_'
'ghi'
'ger_'
'fă'
'ft'
'folosind_'
'felul_'
'fata_'
'extern'
'ex'
'electro'
'electric'
'ei'
'egi'
'economice_'
'dieta_'
'dic'
'devine_'
'dec'
'datorită_'
'datele_'
'cul_'
'critic'
'crea'
'contra'
'colo'
'ck'
'cas'
'bol'
'ban'
'az'
'au'
'asi'
'aproximativ_'
'ans'
'alu'
'alege_'
'ajunge_'
'Ze'
'Za'
'We'
'Wa'
'Tu_'
'TA'
'Să'
'Sunt_'
'San'
'Român'
'Pl'
'Noi_'
'Iată_'
'Ia'
'H_'
'Europene_'
'Di'
'Comisia_'
'Această_'
'AR'
': ,,_'
'500_'
' , . _'
'ţile_'
'şa'
'þie_'
'îng'
'înapoi_'
'â'
'zut_'
'vr'
'voastre_'
'vita'
'ven'
'uz'
'ura'
'une'
'umi'
'ume'
'ult'
'ub'
'tt'
'tre'
'ti'
'tei_'
'tan'
'supra'
'străin'
'sto'
'sistemului_'
'sisteme_'
'sar'
'rti'
'române'
'rit'
'reducerea_'
'rb'
'rac'
'pământ_'
'pân'
'puțin_'
'puteti_'
'publicitate_'
'procesului_'
'proces_'
'potrivită_'
'politice_'
'pace_'
'ost'
'ore'
'og'
'ns'
'nici'
'nic_'
'nec'
'mes'
'legat_'
'ke_'
'ize'
'iune_'
'io'
'invita'
'intra'
'inte_'
'informati'
'ien'
'ide_'
'gră'
'glo'
'gin'
'gat'
'ga'
'făc'
'flu'
'flo'
'finan'
'esti_'
'emi'
'em_'
'economică_'
'dublu_'
'disc'
'devenit_'
'den'
'decît_'
'căutarea_'
'cra'
'corespunzător_'
'compa'
'cm_'
'centru_'
'case'
'calea_'
'buna_'
'bor'
'ator_'
'ana_'
'amestec'
'aflat'
'adresa_'
'Ur'
'Ti'
'Th'
'ST'
'Res'
'Rec'
'Pen'
'Ori'
'Nor'
'Mă'
'Lu'
'Ko'
'Imp'
'Ge'
'Elveţia_'
'Br'
'Be'
'As'
'Apartament_'
'5'
'200_'
'2005_'
'198'
'11'
'.... _'
'!'
' ... _'
' ( _'
'țin'
'țiile_'
'ți'
'ţin'
'Ţ'
'şi'
'În'
'zeci_'
'ware_'
'vit'
'uşor_'
'ur_'
'und'
'trăi'
'trata'
'th'
'temperatura_'
'tea'
'tari_'
'sute_'
'sten'
'statele_'
'sq_'
'sn'
'serie_'
'semn'
'secunde_'
'rului_'
'ris'
'ridicat_'
'rezultate_'
'regula'
'ref'
'reduce_'
'rat_'
'rare_'
'raport_'
'ran'
'pă'
'puterea_'
'post_'
'platz_'
'pin'
'oz'
'ot_'
'oric'
'ole'
'oane_'
'nță_'
'nţa_'
'numeroase_'
'nişte_'
'nimeni_'
'net'
'ner'
'nen'
'ned'
'ndu_'
'nda_'
'nal'
'mă'
'mîn'
'mp_'
'mol'
'mn'
'minim'
'micro'
'mers_'
'membru_'
'membre_'
'mei_'
'material_'
'masă_'
'mari'
'mal'
'll'
'je_'
'ive_'
'iuni_'
'ist_'
'ion'
'ino'
'informaţiile_'
'informa'
'inca'
'ima'
'il'
'grup_'
'get'
'ge'
'funda'
'formă_'
'folosite_'
'ff'
'fec'
'ezi_'
'es'
'ern'
'ed_'
'dumneavoastra_'
'cți'
'culoare_'
'ct_'
'companii_'
'clas'
'cit'
'cercetare_'
'capital'
'băt'
'browser_'
'bet'
'bas'
'aş'
'azi_'
'avantaj'
'asigura_'
'asculta'
'articol_'
'arii_'
'angaja'
'an'
'`_'
'Unele_'
'Un'
'Tu'
'Tra'
'Sti'
'Star'
'Sl'
'SUA_'
'Ru'
'Paște_'
'ON'
'Numele_'
'Mod'
'MA'
'Ir'
'Io'
'In'
'Her'
'Des'
'Dans_'
'DO'
'DI'
'Că'
'Col'
'Cit'
'Chi'
'Cas'
'Bra'
'Bel'
'Bar'
'Ave'
'Apartamente_'
'Aici_'
'Acum_'
'AD'
'45_'
'38_'
'2007_'
'17'
'13'
'07_'
', '
') '
'…_'
'– _'
'șo'
'ţial'
'ţara_'
'ăs'
'þã_'
'înlocui'
'înf'
'încep'
'Înainte_'
'º'
'yo'
'vorbe'
'vis'
'via'
'vi_'
'veni'
'vale'
'uș'
'utilizate_'
'utilizat_'
'utile_'
'uri'
'ua_'
'târziu_'
'tura_'
'tr'
'total_'
'to_'
'tipuri_'
'tipul_'
'tice_'
'tehnologi'
'tab'
'supliment_'
'standard_'
'stabili'
'specifice_'
'serviciile_'
'seri'
'sel'
'sca'
'rv'
'rg'
'rezultatele_'
'reu'
'recomanda'
'reci'
'rca'
'rc'
'rata_'
'ram'
'ral'
'profesor'
'procesul_'
'primit_'
'plă'
'place_'
'pla'
'pil'
'pierde_'
'pasi'
'ote'
'onat'
'onare_'
'oma'
'olu'
'odată_'
'ochii_'
'obţine_'
'noi'
'nii_'
'ner_'
'nem'
'nef'
'mână_'
'mâni'
'mul'
'mis'
'man'
'lumina_'
'lua'
'locui'
'loc'
'lista_'
'lia_'
'lep'
'len'
'legi'
'lam'
'jul_'
'jucător_'
'jocul_'
'joacă_'
'iz'
'iunea_'
'ite'
'ional'
'ing'
'ian_'
'hart'
'hal'
'gon'
'ghid'
'ghe'
'ger'
'frumos_'
'financiare_'
'final_'
'fin'
'ev'
'euro_'
'eti_'
'ers_'
'efect_'
'edit'
'echipament'
'eb'
'dreapta_'
'dori'
'don'
'dolari_'
'direct'
'descoperi_'
'câştig'
'curse_'
'curs_'
'culori_'
'cti'
'crearea_'
'contra_'
'cont'
'completa'
'compania_'
'comp'
'com_'
'cheie_'
'cer_'
'celui_'
'carte_'
'cari_'
'caracteristici_'
'bur'
'bul'
'bilitatea_'
'august_'
'aua_'
'atic'
'asociat_'
'are'
'altor_'
'alta_'
'alimentare_'
'ajutorul_'
'ajung'
'ai'
'acord'
'același_'
'aba'
'Uniunea_'
'Tur'
'Trans'
'Sud_'
'Solomon_'
'Prognoza_'
'Par'
'Moise_'
'LI'
'Iuda_'
'Internet_'
'Fin'
'Fiecare_'
'Dorotheergasse_'
'Căci_'
'Cei_'
'Cal'
'Av'
'Ap'
'Ace'
'2004_'
'19'
'...'
'. (_'
')'
' » _'
' :'
' + _'
'țe'
'Ş'
'ări'
'ăn'
'ăi'
'þe'
'închi'
'é'
'ză'
'zii_'
'zia_'
'vân'
'vreme_'
'vorba_'
'viitor_'
'vieţii_'
'vesti'
'ulei_'
'uit'
'turistice_'
'trec'
'trebui'
'tor'
'top'
'tive_'
'tir'
'teri'
'ten'
'teme'
'tele'
'tax'
'sută_'
'stin'
'scu'
'sc'
'rus'
'rula'
'ros'
'rgi'
'restaurante_'
'responsabil'
'religi'
'regiuni'
'rece_'
'real_'
'rd_'
'que'
'părți_'
'proteja'
'produce_'
'problema_'
'privi'
'primi'
'primele_'
'prime'
'premiu'
'port'
'plată_'
'pat_'
'parteneri'
'pal'
'ord'
'onul_'
'ofi'
'of_'
'oca'
'obo'
'obligat'
'nta'
'nele_'
'nas'
'mode'
'mea'
'masa_'
'majoritatea_'
'lă'
'lua_'
'lar'
'ko'
'iului_'
'iti'
'investi'
'interes_'
'industria_'
'indep'
'incep'
'inar'
'ij'
'iesi'
'ies'
'identi'
'ideea_'
'ide'
'iată_'
'hl'
'gratuite_'
'gra'
'fon'
'foc_'
'foa'
'fic'
'februarie_'
'faceţi_'
'ezi'
'ex_'
'eu'
'ete_'
'este'
'end'
'ela'
'efecte_'
'ed'
'ect'
'durata_'
'dul_'
'der_'
'declarat_'
'dea'
'cut'
'curent'
'crea_'
'copil_'
'conţin'
'continuă_'
'consulta'
'confortabil'
'complex'
'circula'
'ch_'
'cel'
'capul_'
'banc'
'autori'
'audio_'
'atori'
'articole_'
'art_'
'arm'
'arc'
'apare_'
'apar_'
'ant'
'ano'
'ani'
'ana'
'alo'
'afla_'
'adi'
'adaugat_'
'ad'
'activitate_'
'achizi'
'] _'
'Y_'
'Win'
'Voi_'
'VI'
'Statele_'
'Sfânt'
'Sf'
'SP'
'Rusia_'
'Ref'
'Online_'
'Ne_'
'Mun'
'Je'
'Iu'
'Intr'
'Han'
'Gu'
'Gi'
'Free_'
'Fran'
'Dumnezeul_'
'Duminică_'
'Desc'
'Cur'
'Cluj_'
'China_'
'CS'
'Bucureşti_'
'BE'
'Auto'
'Americii_'
'Amb'
'AS'
': ,_'
'23'
'15'
'14'
'08_'
'01_'
' $_'
'și'
'ţiilor_'
'ţară_'
'şo'
'şc'
'ăţile_'
'ătur'
'ătorii_'
'ători'
'ăd'
'înve'
'întâmplă_'
'înregistra'
'îndr'
'încredere_'
'încet'
'îmbunătăţi'
'zant'
'ye'
'ya'
'xa'
'vârsta_'
'vorbit_'
'vol'
'vizualiza_'
'vizita'
'viaţă_'
'veri'
'verde_'
'vat'
'valori_'
'vacanţă_'
'vac'
'urme'
'urmat_'
'unic_'
'unghi'
'unea_'
'umane_'
'uli'
'ua'
'trai'
'toc'
'tip'
'tic_'
'tec'
'tat'
'săi_'
'super'
'stru'
'statului_'
'sfârșit_'
'set_'
'service_'
'securitate_'
'răm'
'ry_'
'roş'
'ron'
'ro_'
'rm'
'rete'
'reducere_'
'red'
'realizat_'
'rd'
'punctele_'
'psi'
'proceduri'
'privat'
'printr_'
'prin'
'prim'
'prezentate_'
'prezentare_'
'pret'
'pregatit_'
'poti_'
'pot'
'poporului_'
'platform'
'plas'
'pix'
'pit'
'pierdere_'
'pier'
'pic'
'piață_'
'personale_'
'permis_'
'pad'
'orit'
'oraș'
'oraşului_'
'ora'
'olo'
'oferite_'
'od'
'oci'
'nz'
'nutri'
'ntele_'
'nte'
'normal_'
'noile_'
'nic'
'nia_'
'ndi'
'mulţi_'
'mu'
'mondial_'
'mobili'
'mie'
'men'
'mediul_'
'medicale_'
'maşin'
'maxim_'
'material'
'mat'
'lunii_'
'lp'
'locuitori'
'lider'
'lele_'
'legisla'
'ld'
'lat_'
'lat'
'jucat_'
'ja_'
'iţi_'
'itati'
'intele'
'inte'
'indiferent_'
'inchi'
'impu'
'imi'
'imb'
'iar'
'ial_'
'hin'
'hea'
'har'
'gratuită_'
'grafic'
'gl'
'gen'
'gaz'
'furniza'
'fotbal_'
'forme'
'folosi_'
'foloseşte_'
'fis'
'final'
'faţa_'
'eţi_'
'etap'
'esc'
'enţi'
'emo'
'echi'
'ds_'
'drum_'
'dreptu'
'dra'
'doresc_'
'domina'
'dom'
'dob'
'disponibil_'
'design_'
'decembrie_'
'deal'
'cţi'
'căuta'
'cuvintele_'
'cuvinte_'
'cuno'
'cula'
'cov'
'corectă_'
'cop'
'conțin'
'contactaţi_'
'conduce_'
'companiei_'
'clă'
'clasa_'
'cita'
'cil'
'chimi'
'chest'
'ch'
'celul'
'cauta'
'cap'
'bot'
'boli_'
'ați'
'avo'
'autoturism'
'asse_'
'asigură_'
'asigur'
'ase'
'apropiere_'
'ante_'
'amb'
'altele_'
'alegerile_'
'alegeri_'
'ala'
'ajut'
'afișat_'
'adăuga'
'ado'
'actualiza_'
'acoperi'
'acelaşi_'
'aca'
'World_'
'Wi_'
'W_'
'UN'
'Tri'
'Titan_'
'Tipuri_'
'TV_'
'Spi'
'Sol'
'Ser'
'Sco'
'Presiunea_'
'Pensiunea_'
'PO'
'PC'
'Ora'
'Noua_'
'New_'
'Moldovei_'
'Meu_'
'Mag'
'Lun'
'Loc'
'IN'
'Gar'
'File_'
'Fil'
'Ev'
'Ed'
'Ec'
'Deoarece_'
'Dafa_'
'Clas'
'Cl'
'Care_'
'Cap'
'Biserica_'
'Apr'
'Ape'
'Af'
'Acestea_'
'90_'
'2000_'
'20'
' ::: _'
'™ _'
'țiilor_'
'ței_'
'țară_'
'șu'
'ţit'
'ţ'
'ştiinţ'
'ăți_'
'ăş'
'începutul_'
'împr'
'î_'
'î'
'ãr'
'Ñ'
'Împăr'
'°_'
'zit'
'zat'
'yi'
'vul'
'voin'
'vid_'
'viata_'
'vent'
'vea'
'utiliz'
'util'
'uta'
'urmări'
'urc'
'universitar'
'uneori_'
'ultimii_'
'tăţii_'
'trup'
'treci_'
'tre_'
'toți_'
'total'
'tom'
'tiv_'
'titlu'
'tia'
'th_'
'tel'
'tara_'
'tar'
'taj'
'tai'
'săr'
'săptămână_'
'sup'
'subiect'
'studia'
'stati'
'spi'
'speciali'
'speci'
'simt'
'simptome_'
'sim'
'siguranței_'
'siguranta_'
'serv'
'sens_'
'sen'
'sem'
'secret'
'scăzut_'
'schimba_'
'schimb_'
'schimb'
'răs'
'rând_'
'rom'
'rog'
'rni'
'ridica'
'ria'
'reţea_'
'rezerva'
'rele_'
'regiune_'
'registr'
'reco'
'rda'
'raz'
'qr'
'purt'
'pte'
'produselor_'
'prietenii_'
'premi'
'practică_'
'port_'
'politică_'
'plin_'
'pli'
'plastic_'
'pie'
'piaţa_'
'perspectiv'
'personal_'
'persoanelor_'
'permit'
'performant'
'pen'
'patr'
'pati'
'pariuri_'
'parcare_'
'pana_'
'pacient'
'pac'
'ova'
'original'
'opini'
'operare_'
'op_'
'onează_'
'ocazi'
'oasă_'
'nţă_'
'numi'
'nul_'
'noastra_'
'nere'
'negru_'
'necesară_'
'nd'
'nc'
'naviga'
'nat_'
'munci'
'munca_'
'mor'
'minte_'
'militar'
'mentele_'
'medical_'
'management_'
'lăsa'
'lunar'
'lun'
'lucrează_'
'liber'
'kt'
'kr'
'ker'
'jur'
'jumătate_'
'joci_'
'izarea_'
'istorice_'
'isti'
'isi_'
'ion_'
'ină_'
'inva'
'intr'
'interesa'
'integra'
'indic'
'impotriva_'
'ign'
'ico'
'hran'
'het'
'grăsime_'
'german'
'gare'
'garant'
'gam'
'funcție_'
'frecvente_'
'flexibil'
'fizice_'
'fixa'
'firme'
'fereastră_'
'feli'
'familie_'
'extra'
'exerci'
'eveniment_'
'eva'
'ert'
'em'
'elemente_'
'eg'
'eficient'
'ee'
'edita_'
'dre'
'dragoste_'
'doz'
'dov'
'dore'
'dor'
'dit'
'dica'
'dezvolt'
'deza'
'dev'
'deschis_'
'der'
'definit'
'def'
'decidă_'
'dat'
'dai_'
'cî'
'cunoştinţă_'
'cunoscute_'
'culturale_'
'ctiv'
'credinţ'
'cr'
'contract'
'considerare_'
'conse'
'configura'
'condi'
'conc'
'comportament'
'completă_'
'compara'
'companie_'
'comerciale_'
'coloan'
'cke'
'civil'
'cerea'
'centre_'
'central'
'celei_'
'caut'
'capac'
'campani'
'cad'
'bro'
'bla'
'bio'
'bilă_'
'bil'
'baie_'
'avi'
'atracţii_'
'atmosferică_'
'atelier'
'asca_'
'aplicat'
'apartament_'
'ană_'
'ante'
'ambi'
'alb'
'afi'
'afect'
'admi'
'adecvat'
'ada'
'ad_'
'activități'
'activit'
'acord_'
'acesteia_'
'acel_'
'acel'
'abs'
'Wi'
'Vremea_'
'Vie'
'Ver'
'Tim'
'The_'
'Ter'
'Sâmbătă_'
'Sk'
'Sc'
'Saul_'
'Sam'
'Rom'
'Rezultatele_'
'RO'
'RE'
'Qu'
'Puteți_'
'Promo'
'Proiect'
'Pra'
'Power'
'Partidul_'
'PS'
'PI'
'Nou'
'Nat'
'Mini'
'Mil'
'Lin'
'Legea_'
'Ke'
'Joi_'
'Ja'
'Ier'
'HPa_'
'Gol'
'Freeware_'
'Europeană_'
'Electro'
'Dim'
'Da_'
'Cri'
'Cred'
'Cre'
'Coo'
'Consiliul_'
'Cons'
'Chişinău_'
'Cha'
'Can'
'CO'
'Bun'
'Britanie_'
'Ale'
'Alb'
'99'
'37_'
'32_'
'101'
'+_'
') - _'
'%'
' ..._'
'† _'
'“'
'ților_'
'șit'
'ţul_'
'ţele_'
'şapte_'
'şans'
'ăţi'
'þi'
'ü'
'întreb'
'ãri'
'ât_'
'ând'
'Într_'
'Îna'
'»'
'zute_'
'zilele_'
'zic'
'ya_'
'voi'
'vizual'
'vil'
'vic'
'veti_'
'versiunea_'
'veni_'
'vel'
'vede'
'valabil'
'uţ'
'utiliza'
'uti'
'ure'
'urat'
'ună_'
'unt'
'uman_'
'ultima_'
'ulterior_'
'ula'
'tății_'
'tã_'
'trăie'
'trimite_'
'transmis'
'trans'
'tradus'
'totuşi_'
'top_'
'tiv'
'term'
'sun'
'sul'
'sufl'
'sud_'
'ster_'
'spin'
'spațiu_'
'son'
'solu'
'societatea_'
'sm_'
'sl'
'simbol'
'sic'
'sh'
'sche'
'râ'
'rp'
'rot'
'roman'
'rma'
'rim'
'rie'
'rezultat_'
'rezistent'
'repara'
'ren'
'rar'
'rand'
'puzzle_'
'putut_'
'putin_'
'pta'
'pt_'
'provoc'
'proprii_'
'procent'
'prezen'
'practica_'
'plu'
'plant'
'pir'
'pierdut_'
'personal'
'percep'
'particular'
'partener'
'pan'
'optim'
'operatori'
'operati'
'oper'
'onului_'
'ologic'
'ola'
'oficial_'
'oficial'
'oferim_'
'obiecte_'
'obiect'
'obi'
'nți'
'noro'
'nord_'
'no_'
'nge_'
'neuro'
'net_'
'neco'
'necesită_'
'naţionale_'
'natural_'
'măsură_'
'mâna_'
'muta'
'mur'
'multipl'
'motiv_'
'momente_'
'modul'
'modern'
'model_'
'moarte_'
'ml_'
'mint'
'miliarde_'
'mente_'
'mbi'
'masura'
'marea_'
'marca'
'managementul_'
'lupt'
'lungă_'
'lungul_'
'lucrarea_'
'lucr'
'localit'
'ln'
'liter'
'limb'
'lie'
'ler'
'largă_'
'jur_'
'iste'
'iri'
'inț'
'intu'
'inteligenţei_'
'inteligent'
'instrument_'
'instalată_'
'instala'
'inge'
'industriale_'
'individual'
'indicator'
'ind'
'inca_'
'imun'
'implica'
'imp'
'ili'
'if'
'iel'
'idee_'
'ideal'
'iat'
'hr'
'hotăr'
'hormon'
'ham'
'găt'
'gun'
'gro'
'greutatea_'
'gr'
'gol'
'geri'
'gener'
'gamă_'
'gama_'
'funcți'
'funcţie_'
'ful'
'frumoase_'
'fructe_'
'fişeirul_'
'film_'
'fică_'
'ește_'
'eţ'
'experienţă_'
'exper'
'existent'
'erp'
'enul_'
'ente_'
'ene_'
'elegant_'
'electrice_'
'electoral_'
'efectuat'
'educaţi'
'economic_'
'echipe'
'echipamente_'
'dui'
'duh'
'dorit_'
'domenii_'
'doilea_'
'diri'
'dina'
'diferen'
'dez'
'desp'
'deri'
'deli'
'decu'
'declara'
'călători'
'câini_'
'cunoaşte'
'cunoa'
'cultural_'
'creștere_'
'crește_'
'crezut_'
'credit'
'cred_'
'corpora'
'conta'
'consti'
'const'
'conect'
'comunicare_'
'comun_'
'competen'
'comer'
'coli'
'colecti'
'clip'
'cina'
'cheltui'
'cha'
'ceri'
'cen'
'cantitatea_'
'canal'
'cam'
'cald'
'but'
'buni_'
'bog'
'bloc'
'bli'
'bit'
'biseric'
'bel'
'baze'
'ave'
'aspecte_'
'arunca'
'arti'
'armat'
'aria_'
'arele_'
'arat'
'apt'
'aplicati'
'anun'
'antic'
'ant_'
'animale_'
'aminti'
'aminte_'
'alc'
'albe_'
'afl'
'af'
'adauga'
'acr'
'acestuia_'
'aceia_'
'accepta'
'abil_'
'Vol'
'Vibrator_'
'Tău_'
'Trimite_'
'Sup'
'Suntem_'
'Sub'
'Son'
'Sig'
'Sh'
'SIDA_'
'SI'
'Pute'
'Prima_'
'Pri'
'Petru_'
'Pan'
'Pac'
'PRO'
'PA'
'Medic'
'Mac_'
'Liv'
'Jo'
'Istori'
'Ioan_'
'Inte'
'Har'
'Hal'
'HA'
'Guvern'
'Gr'
'Germania_'
'Folosind_'
'Fl'
'FD'
'Dun'
'Doamne_'
'Disc'
'Dan'
'DOMNUL_'
'DA'
'Curs'
'Cro'
'Comm'
'Chiar_'
'Cea_'
'Casino_'
'CC'
'Budapesta_'
'Banca_'
'Art'
'Ang'
'Ana'
'Afla'
'AT'
'AI'
'35_'
'2001_'
'102'
'09_'
'00'
' ”_'
'”. _'
'țări'
'țiuni_'
'țiu'
'țile_'
'ț'
'știe_'
'ţional'
'ăți'
'ătă'
'ătu'
'ăt'
'ărilor_'
'își_'
'îr'
'înţelep'
'învăţa'
'întâ'
'întru'
'întoarce_'
'îns'
'îndeplini'
'îndep'
'înde'
'încerca'
'înca'
'împăratul_'
'ãþi'
'á'
'Înv'
'zilnic'
'zice_'
'zece_'
'zate_'
'yl'
'xic'
'văd'
'vă'
'vrem'
'viteza_'
'vindeca'
'vezi_'
'vară_'
'vanzare_'
'val'
'use'
'urina'
'univers'
'unica'
'uma'
'uie'
'ue'
'uale_'
'tut'
'ts_'
'tratamente_'
'trage'
'trafic_'
'tract'
'ton_'
'timpului_'
'tibil'
'termina'
'teras'
'telefon'
'tată'
'săp'
'surprin'
'subtitra'
'stul_'
'stric'
'strain'
'stilul_'
'stil_'
'sticl'
'ss_'
'spună_'
'spiritual'
'spera'
'sper'
'specifica'
'specializat'
'specialitate_'
'spate_'
'soar'
'situați'
'situ'
'sit'
'sistem'
'sfâ'
'sf'
'sexual'
'ses'
'serviciu_'
'serio'
'separat'
'senzori'
'senza'
'semnal'
'semin'
'scă'
'scul'
'scop'
'sco'
'schimba'
'scen'
'scan'
'rã'
'râu'
'rund'
'rul'
'rugăciun'
'rtu'
'rt_'
'rol_'
'reta'
'reprezentan'
'rela'
'regi'
'redus_'
'recu'
'recen'
'realizate_'
'reale_'
'rarea_'
'rapidă_'
'păcatul'
'pus'
'punctul_'
'prost'
'proprie_'
'progres'
'producti'
'priveşte_'
'principală_'
'prieteni'
'prețu'
'preturi_'
'premii_'
'prelu'
'predi'
'preda'
'postu'
'posta'
'post'
'posibilit'
'porunci'
'popular'
'poart'
'plan_'
'piel'
'picioare_'
'piatră_'
'pers'
'perfect'
'pere'
'patru'
'participan'
'participa_'
'parteneriat_'
'pari'
'pand'
'ozi'
'ow'
'orului_'
'ort'
'organiza'
'organi'
'orașul_'
'oras'
'opțiuni_'
'oportunit'
'opi'
'omi'
'oi_'
'odi'
'obstacol_'
'obliga'
'oar'
'născut_'
'numit'
'numere_'
'nume_'
'not'
'nomi'
'nja_'
'nilor_'
'niciun_'
'nevoi'
'nera'
'nei_'
'nce_'
'nav'
'nare_'
'muscular'
'multă_'
'mpl'
'mos'
'modifica'
'mist'
'minunat'
'mijloc_'
'mie_'
'membrii_'
'membri_'
'medi'
'mec'
'materiale_'
'mass_'
'mart'
'mant'
'major'
'mail_'
'magazine_'
'mag'
'lux_'
'lung_'
'lumii_'
'loterie_'
'lor'
'logi'
'lit_'
'lipsa_'
'linia'
'licen'
'let'
'les'
'lege_'
'lb'
'langa_'
'landa_'
'ki_'
'iţi'
'ivul_'
'ivi'
'iube'
'ita'
'ise'
'ir_'
'ipo'
'invi'
'inut'
'interpreta'
'internațional'
'interf'
'insul'
'instruc'
'inova'
'inii_'
'infra'
'informatice_'
'inflama'
'inco'
'inainte_'
'imprima'
'importantă_'
'implic'
'implementarea_'
'imper'
'ilă_'
'igi'
'ificare'
'iere_'
'ier_'
'ieftine_'
'ideal_'
'ici_'
'ica'
'iarna_'
'ial'
'hon'
'hn'
'hidr'
'hei'
'gând_'
'grădin'
'grijă_'
'grij'
'gram'
'graf'
'gia_'
'gi_'
'gesti'
'gere'
'genera'
'fund'
'frig'
'frecvent_'
'francez'
'fit'
'fir'
'filme_'
'fiii_'
'fice_'
'fia'
'ferm'
'fenomen'
'fel'
'față_'
'fas'
'farm'
'facut_'
'facu'
'ez'
'extensii_'
'explo'
'exist'
'execut'
'excepţia_'
'eviden'
'eval'
'eti'
'esti'
'est_'
'esi'
'eru'
'erie_'
'erat'
'epoc'
'ene'
'eli_'
'echipa_'
'ean_'
'dura'
'dului_'
'diver'
'distin'
'dispozitiv_'
'disponibilitatea_'
'dint'
'dific'
'dezvoltat_'
'determina'
'desen'
'descărca'
'depinde_'
'deosebit_'
'dej'
'deg'
'deco'
'decizi'
'dați_'
'daru'
'cărţi_'
'căp'
'câștigă'
'cuvântul_'
'curte'
'cursuri_'
'curat_'
'cup'
'cunosc'
'cta'
'creşte'
'creează_'
'cot'
'corup'
'corp_'
'copil'
'control'
'contribu'
'considerat'
'consider'
'condiţi'
'computerul_'
'compus'
'compe'
'combinat'
'colectare_'
'coast'
'co_'
'cle'
'cite'
'cii_'
'cia'
'chimice_'
'cere_'
'cep'
'cauz'
'categorii_'
'categorie_'
'cat'
'caru'
'caracter'
'candida'
'butonul_'
'burg_'
'bugetul_'
'bug'
'brut'
'bron'
'binar_'
'bilitate_'
'beneficia'
'bea_'
'be_'
'baz'
'bar_'
'bancar'
'automat_'
'automat'
'aud'
'atri'
'aten'
'ast'
'asem'
'arta_'
'art'
'ard_'
'apărut_'
'apr'
'aplicați'
'aplicare_'
'aplica'
'ape'
'apar'
'anumit_'
'anterioar'
'anc'
'analizei_'
'amu'
'amplasa'
'ami'
'ame'
'ambele_'
'alegi_'
'alegerea_'
'agre'
'agent'
'afaceri'
'adică_'
'adevărat'
'ader'
'activ_'
'acea_'
'accident'
'acasă_'
'Zo'
'Ya'
'Vor'
'Vineri_'
'Vin'
'Via'
'Unul_'
'Universitatea_'
'Transilvania_'
'Tool_'
'Thailanda_'
'Tatăl_'
'Tag'
'TI'
'Sta'
'Sistemul_'
'Sim'
'Servicii_'
'Sec'
'Sat'
'SR'
'Rep'
'Ren'
'Regul'
'Regi'
'RS_'
'RM_'
'RA'
'Public'
'Pet'
'Pas'
'Parti'
'PE'
'Ofer'
'OT'
'Num'
'Nici'
'Naţionale_'
'Munte'
'Mult'
'Mul'
'Mine_'
'Metod'
'Met'
'Kohlmarkt_'
'Ki'
'J_'
'International_'
'Inf'
'Inc'
'Il'
'IT_'
'Hol'
'Gă'
'Fumat_'
'Fre'
'Franc'
'Flori_'
'Fiul_'
'EN'
'EM'
'Dre'
'Dra'
'Dist'
'Descriere_'
'Dec'
'DR'
'Câ'
'Consiliului_'
'Conf'
'Cine_'
'Cate'
'CT'
'Băncii_'
'București_'
'Buc'
'Brasov_'
'Bine'
'Biblia_'
'Ber'
'BA'
'Az'
'Australia_'
'Arhi'
'Ara'
'Apart'
'Anti'
'America_'
'Ali'
'Ai_'
'Agen'
'AL'
'3D_'
'33_'
'2003_'
'194'
'16'
'100'
'); _'
'&_'
' -'
' ('
'’'
'țiunile_'
'ționale_'
'ține'
'țar'
'șter'
'Ști'
'ţelor_'
'ţei_'
'şcol'
'Şti'
'ăv'
'ărt'
'ăci'
'þii_'
'þia_'
'învăţă'
'învi'
'îngr'
'înalt_'
'îmbunătăți'
'ãt'
'Încă'
'ºti'
'zăto'
'zări'
'ziv'
'zitate'
'zg'
'zbo'
'zari'
'vârstă_'
'vâr'
'vre'
'votu'
'voastră_'
'vineri_'
'vie'
'vibra'
'veterinar_'
'versiuni'
'verifica'
'vara_'
'var'
'valu'
'uz_'
'ută_'
'use_'
'uscat'
'uro'
'urmat'
'urma'
'urii_'
'unile_'
'unică_'
'ung'
'unc'
'ulo'
'ule'
'uia_'
'uda'
'tări'
'tăi_'
'tân'
'tum'
'tter_'
'tru'
'tren'
'trase'
'tranzacți'
'transp'
'transforma'
'transfer_'
'traditional'
'totală_'
'tivă_'
'tism'
'tineri_'
'tinere'
'tin_'
'til'
'tiei_'
'text_'
'testa'
'test_'
'test'
'tes'
'terțe_'
'templu'
'tema'
'tehnica_'
'tehnic'
'tatăl_'
'tarea_'
'suprafata_'
'sum'
'sug'
'suferi'
'sud'
'stânga_'
'structura'
'structur'
'stro'
'strategi'
'stoca'
'stent'
'stabilit_'
'spirituală_'
'spect'
'spe'
'spatele_'
'somn'
'soc'
'situata_'
'sion'
'sinte'
'simboluri_'
'sili'
'sil'
'siguranţă_'
'shi'
'sfa'
'server'
'selectați_'
'sei'
'securi'
'secol'
'scris'
'scrie_'
'schimbul_'
'schimbat_'
'sb'
'salvat'
'sac'
'război_'
'răspun'
'rămas_'
'rÄ_'
'rum'
'ruc'
'rq'
'rne'
'riza'
'rig'
'rețe'
'reîn'
'rezolva'
'rezo'
'restric'
'rest'
'respect'
'repu'
'rep'
'relati'
'regiunea_'
'regele_'
'rect'
'recent_'
'rau'
'rate_'
'rate'
'raspuns'
'pământul'
'păc'
'punerea_'
'punct'
'publica'
'pră'
'propus'
'promo'
'profit'
'profesionale_'
'profesional'
'profe'
'proces'
'problemă_'
'problemele_'
'priz'
'privește_'
'principal'
'prezenta'
'presu'
'prep'
'preferat'
'practice_'
'potriv'
'potenţial'
'pom'
'politic_'
'plătit'
'plecat_'
'plasat'
'planuri'
'planet'
'pictur'
'pet'
'perfect_'
'pede'
'pec'
'pasa'
'particip'
'paro'
'pariu'
'parcur'
'parca'
'parc'
'panou'
'oti'
'ota'
'orta'
'oriunde_'
'orită'
'organize'
'organizaţi'
'organizarea_'
'organism_'
'opera'
'ool_'
'ologi'
'off'
'odo'
'ocupa'
'obţine'
'obișnuit'
'oas'
'oară_'
'nzi'
'nsi'
'nsa'
'ns_'
'nostri_'
'norme'
'niveluri_'
'nivelu'
'nit_'
'nim'
'neri'
'nebun'
'nave'
'mã'
'muzică_'
'mult'
'monede'
'modele'
'mobile_'
'mobil_'
'mna'
'miz'
'mit_'
'misiune'
'ming'
'metal_'
'mente'
'ment'
'meni'
'medicamente_'
'mașin'
'maril'
'mad'
'luri_'
'luptă_'
'lumino'
'lte_'
'lovi_'
'lon'
'logice_'
'locuit'
'locaţi'
'll_'
'link_'
'liniilor_'
'limitat'
'limita_'
'limit'
'lig'
'lichid'
'lice'
'legume_'
'lega'
'lecți'
'lc'
'lansat_'
'juridic'
'joa'
'jertf'
'izi'
'iza'
'ix'
'iulie_'
'iubi'
'ităţi'
'istorie_'
'ista'
'ist'
'isaj'
'inul'
'intrare'
'inten'
'instrumente_'
'institu'
'init'
'inimii_'
'informatii_'
'infi'
'infec'
'incerca'
'ila'
'iden'
'id'
'icul'
'ich'
'ibil'
'iat_'
'iale_'
'hy'
'hotelului_'
'hiper'
'hip'
'hel'
'gur'
'gul_'
'grafi'
'grad_'
'gic'
'gen_'
'gaze_'
'gata_'
'gasi'
'garan'
'galben_'
'fusese'
'funcționează_'
'funcţionar'
'fum'
'frecven'
'fr'
'forme_'
'format'
'forma'
'fol'
'fixați_'
'financiar_'
'film'
'fil'
'fiin'
'fii_'
'ficat'
'fete_'
'fere'
'feminina_'
'faz'
'favo'
'familia'
'facilit'
'eți_'
'eş'
'ext'
'expus'
'exprim'
'exi'
'exempl'
'examina'
'examin'
'evaluare_'
'etă_'
'etice_'
'etic'
'erul_'
'ert_'
'eroare_'
'eren'
'ere'
'erb'
'enti'
'enta'
'ent'
'ell'
'elibera'
'electronic_'
'elaborat'
'educat'
'ecran_'
'echipat'
'eau_'
'durer'
'doriţi_'
'do_'
'dispu'
'dispo'
'discuta'
'dificil_'
'die'
'dezb'
'descoperit'
'deschideţi_'
'descarca'
'desc'
'depăş'
'defect'
'decorat'
'dece'
'deb'
'cărui_'
'câștiga_'
'câștig'
'cuvânt_'
'cuti'
'cursa_'
'curi'
'cuprinde_'
'cum'
'cultiva'
'cult'
'criz'
'cresc'
'credit_'
'coro'
'conver'
'contul_'
'continut'
'continua_'
'conte'
'construi'
'consecin'
'cons'
'conform'
'conectat'
'conduc'
'condiţii_'
'concert'
'concep'
'comuni'
'comanda_'
'cobo'
'clor'
'clinic'
'clientilor_'
'cerul'
'certificat'
'cercuri_'
'cercetat'
'cercet'
'central_'
'celebr'
'cazuri_'
'cauzat'
'cateva_'
'cardu'
'caracterul_'
'capitol'
'calorii_'
'cai_'
'bun'
'bucuri'
'bogat'
'blestem'
'birou_'
'bili'
'bijuterii_'
'bibli'
'benefic'
'bazat_'
'baru'
'bal_'
'aștepta'
'aţi'
'aveti_'
'atrage_'
'atractiv'
'astr'
'arom'
'argint_'
'arg'
'arca'
'arb'
'apu'
'aprobat'
'aplicaţii'
'aparţine_'
'anu'
'anta_'
'ampl'
'amen'
'altfel_'
'alitate'
'alimenta'
'alice_'
'alia'
'aler'
'alege'
'ajutor_'
'agen'
'afectează_'
'aduna'
'adesea_'
'acțiuni'
'activităţi_'
'activitatea_'
'acitate'
'acelea'
'ac_'
'abord'
'Ziua_'
'Vile_'
'Val'
'VA'
'Universit'
'Ungaria_'
'Travel_'
'Tin'
'Term'
'Tele'
'Te_'
'Stra'
'Sto'
'Ste'
'Statu'
'Stat'
'Site_'
'Si_'
'Sha'
'Selec'
'Read_'
'RC'
'Pune'
'Prote'
'Pho'
'Perso'
'Parc'
'PL'
'PD'
'Ol'
'Naţional_'
'NT'
'Microsoft_'
'Merc'
'Mate'
'Mana'
'MS'
'MP'
'Lim'
'LT'
'Insta'
'Home_'
'Gene'
'Ext'
'Euro'
'Eli'
'El'
'Ef'
'ED'
'Dum'
'Dom'
'Direct'
'Dia'
'Del'
'Deci_'
'DV'
'DE'
'Copii'
'Cli'
'Central'
'Cau'
'Castel'
'Capit'
'Cand'
'Bor'
'Bible_'
'Bar_'
'Avra'
'Arad_'
'Anu'
'Analysis_'
'Analiza'
'Alt'
'Aeroportul_'
'Ada'
'Aco'
'Acces'
'AN'
'AM'
'AB'
'60'
'52_'
'35'
'195'
'05_'
'.._'
',,_'
', "_'
'*'
' )'
' % _'
'€'
'’_'
'țul_'
'țu'
'țiune_'
'țit'
'țele_'
'Ș'
'ţările_'
'ţe'
'ştilor_'
'şte'
'şoar'
'şit'
'şin'
'ății_'
'ăz'
'ăni'
'ăm'
'þin'
'ö'
'înțeles_'
'înv'
'întârzi'
'întrebaţi_'
'întreba'
'îndu'
'îndem'
'înconjur'
'înco'
'începând_'
'înaltă_'
'împărat'
'împrejur'
'îmi_'
'Ón'
'Închi'
'Înc'
'Îm'
'zu'
'zori'
'zor'
'zone_'
'ziți'
'zid'
'zice'
'zel'
'zbu'
'yi_'
'wer'
'vărsat_'
'vã'
'vremea_'
'vrea_'
'viziune'
'vitez'
'vier'
'vest_'
'verse'
'vehicule'
'vecin'
'veci'
'vase'
'vascular'
'valut'
'valoril'
'valor'
'usor_'
'ure_'
'uns'
'umiditate_'
'umbl'
'umb'
'ulat'
'uita_'
'uci'
'uce'
'uca'
'tură_'
'turi'
'tulburări_'
'tulbur'
'treilea_'
'trea'
'trandafir'
'traducere_'
'tradi'
'tra_'
'tori'
'toare'
'tiona'
'ting_'
'tinerii_'
'tind'
'tiil'
'tic'
'the_'
'tez'
'teste_'
'teren_'
'tent'
'temperaturi'
'telor_'
'tehnologii_'
'tar_'
'tali'
'sărbători'
'săptămâni_'
'sân'
'susţin'
'superioară_'
'super_'
'suflete'
'suf'
'substan'
'studi'
'student'
'studen'
'străinătate_'
'strâns'
'strig'
'strada_'
'stii'
'stice_'
'stere'
'stea_'
'statistic'
'standard'
'stad'
'stabilit'
'sse'
'ss'
'sprijin_'
'spor'
'spo'
'soţ'
'solicita'
'social'
'smul_'
'sme'
'slav'
'slab'
'siune'
'situaţi'
'situat'
'singur'
'sinc'
'simp'
'sigur'
'sho'
'sfer'
'sez'
'semne'
'semna'
'selec'
'sele'
'sec_'
'seara_'
'scurt'
'scur'
'scriso'
'scadenta_'
'satisfac'
'sat_'
'sari'
'sarea_'
'rămân'
'rî'
'ruga'
'rou'
'romani'
'romane'
'rita'
'rior_'
'ridic'
'rge'
'rezult'
'rezid'
'rezi'
'rezerv'
'rez'
'reuș'
'reusi_'
'reusesti_'
'reuni'
'resurse_'
'restaurant_'
'resta'
'respectiv'
'resi'
'repr'
'repe'
'repa'
'rena'
'reme'
'rele'
'relaxare_'
'reglementa'
'regla'
'regim'
'reflect'
'reda'
'recunoscut_'
'recunosc'
'recep'
'rci'
'raporta'
'rapid'
'radio'
'qua'
'qu'
'păstr'
'păm'
'păcăt'
'pî'
'pã'
'puteri'
'pur'
'punctate_'
'pse'
'proprietăți_'
'proprietar'
'propo'
'prop'
'profil_'
'proced'
'problem'
'priorit'
'principalele_'
'prețurile_'
'preţ_'
'prez'
'pretul'
'prelucrare'
'prelua'
'pregătir'
'pregăt'
'prefer'
'precipita'
'practici'
'pp'
'pozitii'
'posibilă_'
'posibile'
'populaţiei_'
'popula'
'pop'
'pomp'
'politici'
'polit'
'pol'
'poa'
'plăţi'
'plăte'
'plăc'
'pleca'
'pieţe'
'piet'
'pic_'
'pesc'
'perf'
'pera'
'pent'
'pensi'
'past'
'participat_'
'parlamentare_'
'pare'
'par_'
'pagini_'
'orm'
'oriu_'
'organizați'
'organizat_'
'organismul'
'orato'
'orat'
'ono'
'onia_'
'onar'
'omul_'
'olit'
'ogl'
'ogi'
'og_'
'oferta_'
'of'
'oda'
'od_'
'obiectiv_'
'oara_'
'nţe'
'numerele_'
'numarul_'
'numar'
'nului_'
'nuc'
'ntul_'
'ntr'
'noștri_'
'noua_'
'normal'
'nori_'
'noa'
'nistr'
'nis'
'nimici'
'nicio_'
'nica_'
'ngi'
'nevoile_'
'negative_'
'nda'
'naţională_'
'natura_'
'national'
'nab'
'măsuri'
'mus'
'munte'
'mpa'
'mou'
'motive_'
'monta'
'mic'
'metru_'
'meta'
'merge'
'merg'
'menționat'
'memori'
'mediului_'
'medii_'
'medie_'
'medici'
'medical'
'mato'
'man_'
'mam'
'magne'
'ly_'
'lucrul_'
'lucrez'
'lucrat'
'lucra_'
'luate_'
'lm'
'list'
'legă'
'legea_'
'lectur'
'larg_'
'land_'
'lacu'
'lac'
'lab'
'ks'
'kg'
'jurnali'
'jucători'
'joace_'
'ji'
'jele_'
'jar'
'iți_'
'iubit'
'ităţii_'
'itul_'
'itor_'
'itoare_'
'istoria_'
'ism_'
'irii_'
'iona'
'intern_'
'interioar'
'interesat_'
'interesant_'
'intensi'
'intalni'
'inta'
'instant'
'instalezi_'
'instalaţi'
'instalat'
'inscri'
'iniți'
'iniţiat'
'iner'
'inea_'
'inci'
'ince'
'impre'
'implicat_'
'impact_'
'imobil'
'imaginea_'
'imagine_'
'ilit'
'iilor_'
'ih'
'ific'
'ieş'
'idi'
'identificare'
'identifica'
'id_'
'ib'
'ias'
'hotar'
'hos'
'hidrata'
'hia_'
'hi_'
'găse'
'gã'
'gândi'
'gânde'
'gura_'
'gul'
'gri'
'gres'
'grasimilor_'
'gran'
'grad'
'glisați_'
'gla'
'gent'
'genetic'
'gea'
'fura'
'funcţion'
'funcţi'
'fugi'
'frumuse'
'fru'
'formul'
'formare_'
'folosește_'
'foloses'
'fiu_'
'ficient'
'fici'
'ficare_'
'festivalu'
'fer'
'fan'
'familia_'
'expresi'
'expozi'
'explica'
'experimenta'
'experienț'
'expedi'
'excursi'
'examinare'
'exact'
'evrei'
'eventual'
'evaluarea_'
'erti'
'erg'
'ept'
'entul_'
'enden'
'elimina'
'element'
'ek_'
'egal_'
'efic'
'efectua_'
'efectiv'
'efectele_'
'ecţi'
'ecul'
'ecu'
'ec_'
'ean'
'dul'
'drepturilor_'
'dragoste'
'doraemon_'
'documente_'
'doa'
'diz'
'distrug'
'distru'
'dispozitivul'
'discur'
'dinamic'
'diminua'
'dimensiune'
'dim'
'difuz'
'diferit'
'diametru'
'dezvolta_'
'devină_'
'deveni_'
'determina_'
'desigur_'
'desfă'
'desfas'
'descrie'
'deschideți_'
'depr'
'departament'
'demonstra'
'ded'
'declan'
'dans'
'dam'
'căror'
'cărei'
'căi'
'cã'
'cus'
'cumpara'
'cului_'
'culturi'
'cui'
'ctu'
'ctii_'
'cruc'
'cristal'
'creştin'
'creştere'
'creveţi_'
'crescut_'
'crede_'
'creativ'
'cq'
'cost_'
'coordona'
'convin'
'controlul_'
'contribui'
'contracte'
'construcţi'
'constat'
'confrunt'
'confirma'
'condus_'
'condiți'
'concept_'
'comunicat'
'comune_'
'competitiv'
'comisi'
'combatere'
'cola'
'cof'
'cod'
'climat'
'clienţilor_'
'cla'
'civiliza'
'cilindr'
'chinez'
'chimic_'
'chemat_'
'chea'
'cerer'
'cercetări'
'celelalte_'
'categori'
'castel'
'carti'
'card_'
'capacitatea_'
'cancer'
'calită'
'cali'
'calcula'
'cai'
'cafe'
'cabine'
'cab'
'bărbaţi'
'băn'
'bă_'
'buri_'
'bună'
'bucur'
'bre'
'bord'
'blic'
'bl'
'biserici'
'bir'
'bi_'
'baza'
'band'
'bai'
'așteaptă_'
'aţie'
'aţ'
'aş_'
'azi'
'ax'
'aw'
'având_'
'auzi'
'atur'
'ating'
'atar'
'asă_'
'aspect_'
'asistent'
'asigure_'
'ascun'
'asa'
'artistic'
'artic'
'arte'
'ars'
'arhitect'
'arata_'
'apăra'
'aplică_'
'anț'
'anţa_'
'anumit'
'anume_'
'anula'
'antul'
'animat'
'angajat_'
'analizează_'
'anal_'
'ambala'
'ama'
'alături_'
'altul_'
'alin'
'ajută_'
'aju'
'ain'
'aia_'
'afla'
'afisa'
'afec'
'aerului_'
'adun'
'aduc'
'adrese'
'adolescen'
'adapta'
'acţi'
'actor'
'act_'
'act'
'acorda_'
'acoperit_'
'aco'
'abuz'
'abu'
'absolut'
']_'
']'
'\'
'[_'
'Zeelandă_'
'Villa'
'Vila_'
'Video_'
'Vic'
'Vest_'
'Vec'
'Vale'
'VC'
'Uniunii_'
'Uni'
'UI'
'Tru'
'Tre'
'Trata'
'Tot_'
'Tot'
'Timisoara_'
'Tech'
'Tai'
'TR'
'TE'
'Sy'
'Super_'
'Studi'
'Stu'
'Special'
'Sing'
'Sho'
'Sf_'
'Seri'
'Sea'
'Scr'
'Sca'
'Sara'
'Răsfoiește_'
'Ră'
'Rus'
'Rul'
'Royal'
'Roman'
'Rob'
'Rega'
'Reg'
'RP'
'Punct'
'Ps'
'Pretul_'
'Pres'
'Premi'
'Poz'
'Post'
'Pop'
'Pol'
'Pictur'
'Pia'
'Park_'
'Paris_'
'Ortodox'
'Organiza'
'Oradea_'
'Omul'
'Ob'
'National_'
'NO'
'Mur'
'Mor'
'Mode'
'Ministerul'
'Mill'
'Mi_'
'Mel'
'Maria_'
'Mare_'
'Marc'
'Mala'
'MN'
'MI'
'Lot'
'Lea'
'Le_'
'Judenplatz_'
'Inter'
'Institutul_'
'Ins'
'Ie'
'Ide'
'IS'
'IP_'
'Hel'
'Glo'
'Gl'
'Gam'
'Gala'
'GP'
'Fili'
'Fi_'
'Fer'
'Far'
'Face'
'Fac'
'Evangheli'
'Et'
'En'
'Emi'
'Em'
'EUR_'
'ET'
'Dupa_'
'Dumnezeului_'
'Doriți_'
'Dispo'
'Dildo_'
'Descarcă_'
'Defense_'
'Danemarca_'
'DU'
'Cursu'
'Crist'
'Creat'
'Cos'
'Corp'
'Char'
'Ch'
'Cer'
'Catal'
'Cat'
'Cara'
'Capitolul_'
'Cana'
'Cali'
'Bu'
'Bri'
'Bran'
'Bol'
'Bet'
'Ben'
'Bat'
'Bac'
'BN'
'BM'
'Aşa_'
'Audi'
'Au'
'Asigura'
'Asi'
'And'
'Alian'
'Ag'
'Adobe_'
'Activitat'
'94'
'41'
'21'
'1990_'
'150_'
'1000_'
'04_'
'03_'
'02'
', „_'
');_'
'" (_'
' +_'
' ) _'
' $ _'
' ! _'
'… _'
'” (_'
'ționar'
'ția'
'țelor_'
'știi'
'ște'
'ţim'
'ţat'
'Ţi'
'şu'
'ştii_'
'ătorul'
'ărui'
'ământ'
'ăl'
'ădi'
'þa_'
'ür'
'întâmplat_'
'întâlnit'
'întregul'
'întrebare'
'înse'
'înregistrate_'
'îngro'
'înge'
'îndepărtat'
'încerca_'
'încerc'
'îmbră'
'ä'
'ãto'
'ână_'
'ânta'
'âna'
'â_'
'¢_'
'zân'
'zz'
'ziti'
'zilei_'
'zie_'
'ziar'
'zero_'
'zar'
'zah'
'yt'
'yst'
'yp'
'yd'
'xu'
'words_'
'vârf'
'vs'
'vreodată_'
'vreo_'
'volum'
'vo_'
'viţ'
'vizitat_'
'viu_'
'vis_'
'vină_'
'vinde'
'viito'
'vieți'
'vieti'
'vie_'
'veş'
'vey'
'vet'
'vest'
'versar'
'vechi'
'variat'
'varia'
'vari'
'vadă_'
'vacanta_'
'uşi'
'uzi'
'uv'
'utul_'
'utilizatori'
'utilizat'
'utat'
'uta_'
'urs'
'următoare_'
'urin'
'urban'
'ural'
'unitat'
'unic'
'una'
'umu'
'umesc_'
'uman'
'uin'
'ude'
'ud'
'uali'
'tăţi_'
'tã'
'turneu'
'turism_'
'turis'
'turilor_'
'turar'
'tur_'
'trimes'
'tribu'
'trei'
'trebuia_'
'trat'
'totdeauna_'
'torului_'
'topi'
'toni'
'ton'
'tis'
'tipurile_'
'tion'
'tinut'
'tie'
'tică_'
'termeni'
'teritoriul_'
'teritori'
'teres'
'tere_'
'terap'
'tept'
'teor'
'tenis_'
'tem'
'tehnic_'
'talanţi_'
'tag'
'săptămân'
'sustin'
'suspe'
'sus'
'supraveghe'
'suprafaţ'
'suport'
'suger'
'sufletul_'
'suficient'
'stări'
'stân'
'studiu_'
'studii_'
'studie'
'stres'
'stoc_'
'stimule'
'stimula'
'statut'
'statu'
'statistice_'
'state_'
'stal'
'sprijin'
'sportive_'
'sport_'
'spori'
'spiritul'
'spirit'
'spectator'
'spectacolul'
'specific_'
'soluţi'
'solutii_'
'soluti'
'sof'
'societăţi'
'societate_'
'socială_'
'soarel'
'smu'
'slujitori'
'slujb'
'sindromul'
'simţi'
'simul'
'simptomele_'
'simple_'
'sie'
'sfă'
'sfi'
'setu'
'ser_'
'ser'
'selectat'
'select'
'secolul_'
'scor'
'scoli'
'schimbare_'
'scena'
'scaune'
'scana'
'scade'
'sat'
'sarcini_'
'sani'
'sang'
'sam'
'salva'
'sala_'
'rămâne_'
'rădăcini'
'rândul_'
'rân'
'rural'
'rupt'
'rup'
'ru_'
'rop'
'rochi'
'riul_'
'riscuri'
'ridicată_'
'reţe'
'rezultatul_'
'revi'
'reveni'
'retu'
'retr'
'resp'
'reprezinta_'
'reprezentat'
'reprez'
'relaţii'
'rel'
'rei_'
'rege_'
'referitor_'
'redus'
'redi'
'recunoaşte'
'recomandă'
'realizarea_'
'realiza'
'realiz'
'real'
'rav'
'rati'
'rang'
'rag'
'raf'
'radia'
'rabil'
'părţi'
'păr_'
'pădur'
'pâine_'
'pâ'
'puternic'
'put'
'puri'
'pun_'
'pul_'
'publică_'
'ptur'
'ptat'
'pru'
'provin'
'protectie_'
'protec'
'prospe'
'propuner'
'propriu_'
'propriile_'
'propria_'
'promov'
'proiectelor_'
'proiectare'
'programat'
'programare_'
'prognoz'
'profesionist'
'profesională_'
'producător'
'proc'
'print'
'principiu'
'principiil'
'principale_'
'prietenul_'
'prieten_'
'preţu'
'preşedinte'
'prezinta_'
'prezente_'
'pret_'
'presă_'
'preotul_'
'pregătit_'
'pozitiv_'
'pozi'
'poveste'
'pos'
'portocal'
'porni'
'populati'
'pompe'
'poi'
'poată_'
'plo'
'plină_'
'pline_'
'plat'
'pietre'
'piese_'
'piele_'
'piata_'
'ph'
'petrece'
'pete'
'permit_'
'permis'
'permanent'
'perio'
'penal'
'paturi_'
'pato'
'partide'
'participare_'
'parcursul_'
'pahar'
'pachet'
'oț'
'oştiri'
'oza'
'oxi'
'out_'
'otriv'
'oro'
'oriz'
'orienta'
'oricine_'
'orica'
'organizată_'
'organizati'
'organizate_'
'oraş_'
'orasului_'
'optimi'
'operaţiuni'
'oneze_'
'ologie_'
'ografi'
'oferi'
'ofer'
'odata_'
'ochi'
'observa'
'oaspeţi'
'oarea_'
'nţel'
'nut'
'noul_'
'nou'
'nord'
'nol'
'noaptea_'
'nja'
'nivele'
'nire'
'nile_'
'nie'
'nibil'
'nia'
'ngh'
'nervo'
'nel'
'necesita'
'neal'
'natur'
'nar'
'nan'
'măsura'
'mân'
'mușchi'
'muzica'
'muz'
'murit_'
'mun'
'mulțumi'
'mpi'
'motoare'
'morţi'
'morm'
'modifică'
'modificat'
'moderne_'
'modern_'
'modalită'
'moda_'
'mne'
'mite'
'minuni_'
'minunat_'
'minu'
'mintea_'
'mingea_'
'mili'
'mijloacel'
'mete'
'merit'
'menţi'
'mentului_'
'meniu'
'medicul_'
'medicament'
'mbu'
'mbo'
'maxim'
'matic'
'mat_'
'masina_'
'masi'
'marketing_'
'marginea_'
'manageri'
'male'
'majore_'
'magazin'
'lupta_'
'lungime'
'lungi_'
'lumi_'
'lului_'
'lucrari'
'lta'
'low'
'lovi'
'lot'
'log'
'locurile_'
'localiza'
'local_'
'liz'
'liv'
'lipsit'
'lipse'
'lipi'
'linişt'
'limite'
'limbi_'
'lii'
'lege'
'lect'
'lec'
'lateral'
'lac_'
'ker_'
'ken_'
'kan'
'jun'
'jocurilor_'
'jocului_'
'jan'
'iți'
'izo'
'itr'
'itor'
'itar'
'istoric_'
'ismul_'
'isc'
'iro'
'ipt'
'ioar'
'investiții'
'invent'
'intreba'
'intrat_'
'interven'
'intern'
'interior_'
'insula_'
'institutii'
'instalare_'
'ini_'
'ingrediente_'
'informațiil'
'industriei_'
'independent'
'inclus_'
'inchiriat_'
'inc'
'implementa'
'impar'
'imi_'
'imentul'
'imens'
'imagini'
'ill'
'igh'
'ieri_'
'ieri'
'ienţ'
'ider_'
'ida'
'ian'
'hă'
'hul'
'ho_'
'hete'
'haine_'
'hain'
'găsit'
'gy'
'guri'
'gu_'
'grupuril'
'grup'
'gros_'
'groa'
'grab'
'gme'
'gli'
'gia'
'ght'
'gg'
'genu'
'generale_'
'gele_'
'gel'
'făcută_'
'furni'
'funcții_'
'functiona'
'fun'
'frunze_'
'front'
'fric'
'frac'
'fotografie_'
'fot'
'forţe'
'forum'
'fort'
'formularul_'
'fondurile_'
'fondat'
'folosirea_'
'foi'
'fl'
'fix'
'finisaj'
'finanţ'
'filtr'
'fiinţe_'
'fiica_'
'fet'
'feri'
'fera'
'fen'
'femeie_'
'femei'
'far'
'fant'
'fai'
'factor'
'faceți_'
'facem_'
'fabricat'
'fabric'
'fa_'
'eza'
'ez_'
'ey_'
'extins'
'exterioar'
'extensi'
'exploata'
'experi'
'existenț'
'existente_'
'exercita'
'executa'
'excelent_'
'exc'
'evita_'
'evi'
'european'
'eur'
'etin'
'ete'
'etaj'
'esențial'
'esenţial'
'ese_'
'eră_'
'eon'
'enț'
'enţ'
'enu'
'entar'
'eno'
'engleză_'
'energiei_'
'energi'
'enc'
'ena_'
'emisi'
'emen'
'eme'
'emb'
'eliminarea_'
'elevi'
'electronica_'
'electronic'
'electoral'
'elaborarea_'
'egal'
'eficiente_'
'efect'
'ef'
'eci'
'echip'
'echilibru'
'ece'
'dări'
'dus'
'dureri_'
'durat'
'dubl'
'driverel'
'drep'
'drag'
'doved'
'dori_'
'doc'
'dobînzi'
'div'
'distribuit'
'distant'
'disp'
'disco'
'dinte'
'diminea'
'diferit_'
'diagnostica'
'di_'
'deţin'
'deşi_'
'dezvălui'
'dezvoltării_'
'devin_'
'deti'
'detaliu_'
'deta'
'destinat_'
'destina'
'dest'
'desf'
'descriere_'
'derul'
'deri_'
'deputa'
'depresi'
'depozitare_'
'deplas'
'deosebit'
'dei'
'dege'
'deficit'
'declar'
'decat_'
'dau_'
'datorii'
'dare'
'dar'
'dal'
'căpeteni'
'căm'
'câştiga_'
'câte_'
'cânta'
'curăţ'
'curi_'
'cura'
'cultura_'
'cule'
'croa'
'credite_'
'credincio'
'credin'
'create_'
'cost'
'cortu'
'copac'
'cookie_'
'conținutul'
'conven'
'contu'
'controlat'
'consu'
'constă_'
'construi_'
'constructi'
'conflict'
'conferin'
'confe'
'conf'
'conexiune'
'conducere_'
'conduce'
'condiţionat_'
'condiţiile_'
'concentrat'
'concentr'
'comunica'
'comprimat'
'componentel'
'como'
'comi'
'come'
'colabora'
'coe'
'clu'
'client'
'clasic'
'cititor'
'citit'
'circa_'
'cip'
'cinci'
'ciclu'
'chirurgicale_'
'chirurgi'
'cheltuieli_'
'cetăţi'
'cetăţenilor_'
'cetate'
'ces'
'centrală_'
'cent'
'cc'
'caţi_'
'cazino'
'cauze_'
'cate_'
'casă_'
'castig'
'cari'
'capăt'
'captur'
'capt'
'capabil_'
'cantită'
'cant'
'cameră_'
'camere'
'cam_'
'califica'
'calc'
'cafea_'
'băut'
'băi'
'bã'
'buz'
'bunurilor_'
'bunuri'
'bucura_'
'bucata'
'bolnav'
'boi'
'boal'
'bloca'
'birou'
'ben_'
'bdare'
'batu'
'bancă_'
'aț'
'avans'
'ava'
'av'
'autorităţil'
'atribui'
'atras'
'atrag'
'atenți'
'atat_'
'atac_'
'asti'
'aste'
'aspect'
'asista'
'asigurat'
'asigurare_'
'ascunse_'
'ascu'
'arăt'
'arul_'
'artă_'
'arie'
'arhitectura'
'arbore'
'apărare_'
'apropierea_'
'apele_'
'apel'
'apartamente_'
'aparate'
'animalel'
'ang'
'ane_'
'amo'
'amin'
'american_'
'amentul_'
'ameninț'
'alții_'
'alimente_'
'ak_'
'ais_'
'aga_'
'aferente_'
'afacere_'
'adânc'
'administrativ'
'adevarat_'
'adevar'
'ada_'
'acţiun'
'acumula'
'actualiza'
'acoper'
'aceeaşi_'
'aceeasi_'
'ace_'
'accesorii_'
'abona'
'abilitatea_'
'abilit'
'abile_'
'``'
'Zona_'
'Wor'
'Wild_'
'Wil'
'Wh'
'West'
'Vizi'
'Victoria'
'Verificați_'
'Vene'
'Util'
'Urm'
'Univers'
'Unii_'
'Ucraina_'
'USD_'
'Totu'
'Timi'
'Tex'
'Tehnologi'
'Tab'
'Supra'
'Studiu'
'Strat'
'Spo'
'Spania_'
'Soli'
'Societ'
'Sit'
'Sistem_'
'Sir'
'Sen'
'Sa_'
'SS'
'Ros'
'Romaniei_'
'Romani'
'Roma'
'Rezerva'
'Rela'
'Rat'
'Pâ'
'Proiectul_'
'Programul_'
'Proce'
'Print'
'Prim'
'Preşedin'
'Potrivit_'
'Port'
'Polit'
'Plan'
'Pavel_'
'Parlamentul_'
'PR'
'Orice_'
'Od'
'OS'
'OM'
'Numer'
'News'
'Napoca_'
'Muze'
'Mondial'
'Min'
'Media_'
'Max'
'Masin'
'Marți_'
'Management_'
'Mac'
'Lucr'
'Loto_'
'Londra_'
'Len'
'Leg'
'Las'
'Kr'
'Kar'
'Jurnalism_'
'Joh'
'Informati'
'Informa'
'Independent_'
'IM'
'ID'
'Ghid'
'Ghi'
'Gal'
'GR'
'GARDENA_'
'GA'
'Fri'
'Free'
'Franţa_'
'Foto'
'Fişierele_'
'Film'
'Fie_'
'Facebook_'
'FO'
'Experi'
'Exc'
'Even'
'Europei_'
'Est'
'Era'
'Ep'
'Ele_'
'Ele'
'Ejaculare_'
'Egiptului_'
'Ea'
'ES'
'Dur'
'Dreptu'
'Dr_'
'Dr'
'Don'
'Doc'
'Director_'
'Din'
'Deși_'
'Dezvolta'
'Descărcări_'
'Democrat_'
'DP'
'Căl'
'Cât'
'Curtea_'
'Cultur'
'Cra'
'Cr'
'Cou'
'Control'
'Constituţi'
'Comp'
'Comer'
'Chir'
'Carol'
'Camera_'
'Cab'
'CL'
'Bă'
'Budapest_'
'Bou'
'Berlin_'
'BT'
'BI'
'Aș'
'Avan'
'Astăzi_'
'Ari'
'Apă'
'Aplica'
'Anul_'
'Andre'
'American_'
'Ama'
'Alexand'
'Ah'
'Agenţi'
'Africa_'
'Aeroport_'
'Adun'
'Activ'
'Act'
'Abi'
'AV'
'600_'
'55_'
'55'
'51_'
'47_'
'46_'
'39_'
'36_'
'25'
'2002_'
'1'
'/'
'.) _'
'**'
'%._'
'%, _'
'%)'
' ’'
' > _'
' '_'
' " _'
'…'
'‑_'
'țio'
'șn'
'șans'
'ţării_'
'ţum'
'ţu'
'ţiuni_'
'ţiuni'
'ţiune_'
'ţire'
'ţionat'
'ţine_'
'ţea'
'ţa'
'ştri_'
'ştin'
'ştie'
'ştia_'
'şter'
'şit_'
'şie'
'şedinţ'
'şează_'
'şar'
'ăţilor_'
'ături'
'ăra'
'ăr_'
'ăg'
'Ă_'
'þil'
'þiil'
'þ'
'ît_'
'înțelege'
'înţeles'
'înă'
'învârt'
'întâmpla'
'întâi_'
'întune'
'întreprin'
'întregi'
'întor'
'înte'
'însu'
'înso'
'înscri'
'înregistra_'
'înregistr'
'îngriji'
'îndată_'
'încărca'
'încălzi'
'încă'
'încu'
'încred'
'închis_'
'închis'
'înal'
'împrejurimi_'
'împl'
'ât'
'ânt'
'âni'
'Ónaintea_'
'Între'
'Însă'
'Îmb'
'ºt'
'zul_'
'ziune_'
'zin'
'zilor_'
'zili'
'zează_'
'yle_'
'wt'
'wn_'
'văz'
'vânză'
'vota'
'vot'
'vizualiz'
'vizibil'
'vitamin'
'virtual'
'viole'
'vila'
'viitorul_'
'vii_'
'vice'
'vertical'
'vern'
'veran'
'venituril'
'vegia'
'veghe'
'vec'
'vast'
'vars'
'variante'
'variabil'
'vare'
'vam'
'valid'
'uş'
'uă'
'uu'
'uturil'
'utu'
'utilizatorul'
'utila'
'utate'
'uscat_'
'usa'
'urmator'
'urmatoarele_'
'urechi'
'urare'
'updata'
'universului_'
'univers_'
'unitate_'
'umăr'
'umf'
'ultra'
'ule_'
'ular'
'ugi'
'uf'
'uct'
'ucis_'
'ucid'
'uar'
'ual_'
'tăți'
'tăm'
'tăi'
'tăc'
'tz'
'ty_'
'turistic'
'turile_'
'trăiască_'
'tră'
'trupu'
'tru_'
'trimit'
'treizeci_'
'tratamentul_'
'tras'
'tranzi'
'transportul'
'transmiter'
'transmite'
'transforma_'
'transf'
'traduce'
'tradiţional'
'tou'
'totodat'
'tore'
'tone_'
'tol'
'tiun'
'tita'
'tionar'
'tional'
'tinerilor_'
'timpuri'
'tili'
'tig'
'tet'
'testo'
'testar'
'teritorial'
'tensiun'
'tempora'
'temp'
'temeli'
'telecom'
'tehnici_'
'teatru'
'taţi'
'tatii_'
'tati_'
'tasta'
'tas'
'taril'
'tablet'
'tabl'
'sări'
'sănăto'
'sălbatic'
'sîn'
'sâ'
'surse_'
'suri'
'supus'
'suprafe'
'suprafaț'
'suplimentar_'
'sunet'
'sume'
'subt'
'substanț'
'stăp'
'studenți_'
'străzi'
'strul_'
'structuri_'
'structura_'
'stratu'
'strad'
'stit'
'stie_'
'stica_'
'stei_'
'staţi'
'state'
'stag'
'stadiu'
'stabil'
'spăl'
'spuse'
'spun'
'sprijini'
'spr'
'spital'
'spaţiul'
'spatiu_'
'spatii'
'spar'
'spa_'
'sov'
'sos'
'sor_'
'son_'
'solid'
'solicit'
'slă'
'sluj'
'slot'
'situații_'
'sit_'
'sir'
'singura_'
'sigură_'
'sigure_'
'sfe'
'sezonul'
'setările_'
'seta'
'sesi'
'seră_'
'servit'
'serviciul'
'seria_'
'sensibil'
'seni'
'sedi'
'secțiun'
'secundare_'
'scăpa'
'scumpe_'
'scos_'
'scopuri_'
'scl'
'schimbări_'
'schi_'
'scar'
'scap'
'sati'
'satelit_'
'sare_'
'sarcini'
'sant'
'sanat'
'salvare_'
'sala'
'răzb'
'răul'
'răst'
'răspunsuri'
'răc'
'rându'
'ruti'
'ruper'
'rui'
'rr'
'roș'
'rost'
'rolul_'
'role'
'roci'
'robu'
'rmi'
'ritm'
'ring_'
'riil'
'rif'
'rier'
'rid'
'rice'
'rican'
'rezultatelor_'
'rezident'
'rezervo'
'revela'
'reuşit_'
'retrager'
'reti'
'restul_'
'respecta'
'rept'
'renum'
'renovat'
'religie'
'regulat_'
'regional'
'referitoare_'
'referin'
'referi'
'refera'
'reduceri'
'recente'
'reb'
'reală_'
'realiza_'
'realit'
'reacţi'
'rdă'
'raţi'
'raportul'
'raport'
'rambursa'
'pţi'
'păstrare'
'păs'
'părinţi'
'pă_'
'puţin'
'puternică_'
'pusti'
'publicu'
'ptă'
'provocat'
'prov'
'protei'
'propune_'
'proprie'
'prooroci'
'prooroc'
'promova_'
'promi'
'profund'
'produsului_'
'produsul_'
'procesel'
'proba'
'prob'
'proas'
'primit'
'prime_'
'primar_'
'primar'
'prezentă'
'prezentat_'
'prezenta_'
'preva'
'presupune_'
'presiune_'
'preg'
'preci'
'precedent_'
'practica'
'poziţie'
'pozitiv'
'potrivit'
'potrive'
'porturi'
'pone'
'polu'
'pode'
'plăcut'
'plati'
'plante_'
'plan'
'pl'
'pisic'
'pire_'
'pilot'
'piese'
'piept'
'pie_'
'pi_'
'phi'
'petrecere'
'petr'
'personalizat'
'personali'
'personaje_'
'perioade_'
'perete_'
'perc'
'per_'
'partidul'
'paralel'
'pantaloni_'
'pagină_'
'pagin'
'oşi'
'otec'
'osu'
'oră_'
'ortu'
'ort_'
'orma'
'orial'
'organizator'
'ordine_'
'ordin'
'orb'
'oraşul_'
'orală_'
'oral'
'opțiune'
'opţi'
'opu'
'opti'
'opt_'
'opozi'
'operaţi'
'operatorul'
'ope'
'opa'
'oo'
'ont'
'ons'
'onoare_'
'onie'
'onate'
'omor'
'ologia_'
'oferte'
'oferind_'
'ofere_'
'ocupat'
'ocup'
'ocr'
'oco'
'ochi_'
'obține'
'obţinut'
'obtinut'
'obtinerea_'
'obstacole'
'obiceiu'
'oaspeți'
'oarele_'
'oac'
'nțe'
'nța_'
'nţi'
'ny_'
'nunt'
'număr'
'numer'
'nov'
'nopți_'
'nne'
'nj'
'nivelurile_'
'nin'
'nică_'
'nga'
'nf'
'nev'
'neu'
'nelimitat_'
'negativ_'
'neces'
'neamurile_'
'neamu'
'nea_'
'nca'
'național'
'naţional'
'naşter'
'naturii_'
'narea_'
'mănânc'
'mânt'
'mânc'
'mâin'
'mut'
'murito'
'municip'
'mulțime_'
'mulț'
'mulţi'
'multiple_'
'multi_'
'mq'
'motocicl'
'moto'
'motiva'
'motiv'
'moral'
'monu'
'monitorizare_'
'monitoriz'
'monetar'
'moned'
'moldove'
'mobila'
'mnat'
'mira'
'mio'
'ministru'
'minim_'
'mijloci'
'migr'
'micu'
'mia'
'metro'
'metodă_'
'metoda_'
'metabolic'
'mesajul_'
'mesajel'
'mesaje_'
'mereu_'
'menține'
'menți'
'mental'
'medic'
'mecanism'
'mecanice_'
'md_'
'mba'
'maximiz'
'mati'
'materii'
'materi'
'marin'
'margin'
'manual_'
'mama_'
'malul_'
'majorit'
'lăsat_'
'lã'
'lv'
'lumină_'
'lucrăril'
'lucra'
'lovit_'
'lov'
'logic'
'locuie'
'locati'
'local'
'lli'
'lle'
'liste_'
'lis'
'linie'
'linea'
'lina'
'limbii_'
'lil'
'lică_'
'lichidare_'
'lichid_'
'libr'
'lg'
'lev'
'leta'
'lent'
'lelor_'
'legătură_'
'legii_'
'legale_'
'legal_'
'latz_'
'lari'
'larea_'
'lapt'
'lanse'
'lansa'
'king_'
'kilo'
'kar'
'ka_'
'justi'
'jura'
'judecat'
'jud'
'jucă'
'jl'
'jit'
'jel'
'jack'
'iș'
'izb'
'ivel'
'ive'
'iuri'
'itui'
'istr'
'istoric'
'istice_'
'ios'
'ioas'
'inţa'
'inv'
'introdus_'
'inti'
'intestin'
'interzis'
'intervi'
'interval_'
'internaţionale_'
'internationale_'
'international'
'interesul'
'interese'
'inteligen'
'integrat'
'integrare_'
'int'
'insu'
'instrument'
'instruire'
'instituții_'
'instanţ'
'instalarea_'
'insta'
'inseamna_'
'inovato'
'iniţial'
'inil'
'ingr'
'inginer'
'informare'
'influen'
'iness_'
'incon'
'incluse_'
'inclusa_'
'includ_'
'incl'
'inchiriere_'
'inceput_'
'incap'
'inalta_'
'impozit'
'importan'
'import'
'impo'
'imediat'
'imea_'
'ilustr'
'ilumina'
'ilie'
'ild'
'ilar'
'ifica'
'ieşit_'
'icii_'
'iau_'
'iala_'
'hol'
'hof'
'hni'
'hit'
'hii'
'hie'
'hidraulice_'
'hic'
'hia'
'hardware_'
'găr'
'guvernamental'
'grăsimi'
'grădină_'
'grupului_'
'greşit_'
'gravi'
'grav'
'grame'
'gradin'
'grade'
'gori'
'global_'
'gii_'
'gger'
'gestiona'
'geometri'
'geo'
'generat'
'generar'
'generală_'
'gem'
'garantat'
'gali'
'fărădeleg'
'fâ'
'furtun'
'furnizor_'
'furi'
'fundamentale_'
'funcționa'
'functioneaz'
'func'
'frunz'
'fotografi'
'forţă_'
'formular'
'folose'
'flor'
'fle'
'fla'
'fișiere_'
'fizica_'
'fir_'
'finalizarea_'
'finaliza'
'fierbin'
'fiecărui_'
'fica_'
'festiv'
'fes'
'fericit'
'fentermina_'
'fe_'
'favori'
'familii'
'fals'
'fal'
'factori_'
'fabrica'
'extrem'
'extinderea_'
'expunerea_'
'exprimat'
'export'
'experienţe'
'experienta_'
'existenţ'
'executarea_'
'exclus'
'exclude'
'excep'
'excelen'
'evolu'
'evident_'
'evident'
'evalua'
'europeni_'
'ett'
'etn'
'eta_'
'eric'
'erc'
'eran'
'epi'
'engleza_'
'englez'
'energetic'
'emisiil'
'elul_'
'elui_'
'electorală_'
'elabor'
'ela_'
'ein'
'egali'
'eforturil'
'efectue'
'economiei_'
'easc'
'durabilă_'
'dur'
'dup'
'drepturile_'
'dreptate_'
'drea'
'dovedit_'
'dovedes'
'douăzeci_'
'dou'
'dos'
'domnit'
'domni'
'domn'
'domiciliu_'
'documenta'
'doctor'
'dobând'
'divin'
'diversi'
'distrugere'
'distribui'
'distribu'
'distr'
'dispoziţi'
'dispozitive'
'dispozitie_'
'disponibilit'
'dispar'
'discipoli'
'direcţi'
'dire'
'dimensiuni_'
'dimensi'
'dil'
'digital'
'diferitelor_'
'dg'
'deș'
'deş'
'dezvoltate_'
'dezin'
'devi'
'deteriora'
'destinati'
'design'
'desfășura'
'deschidere_'
'deschider'
'derea_'
'dera'
'depo'
'deplin_'
'dens'
'demon'
'democra'
'dei_'
'degrabă_'
'dedicat_'
'dedicat'
'decontare_'
'decizii'
'dd'
'datori'
'dansato'
'dan'
'dale_'
'cări'
'cît_'
'cânt'
'câine'
'cÄ_'
'cut_'
'curente_'
'curat'
'cuprin'
'cunoștințe'
'cumpărăt'
'cumpăr'
'culi'
'culeg'
'cto'
'creșterea_'
'creșt'
'creste_'
'creierul'
'costum'
'costu'
'cosm'
'corecte_'
'corect'
'core'
'conștien'
'continuu_'
'continuare_'
'continua'
'contine'
'contacte'
'contabil'
'consumul'
'consumator'
'consum_'
'construcți'
'constructii_'
'constituie_'
'constant_'
'consili'
'considerat_'
'consi'
'condu'
'conditiile_'
'condamn'
'concurs'
'concret'
'concept'
'comunitat'
'comunicarea_'
'comunei_'
'compu'
'comportamentul_'
'componen'
'complica'
'complete'
'compani'
'combi'
'comandă_'
'colegi'
'colecta'
'cognitiv'
'coal'
'clo'
'climatice_'
'clienți'
'cli'
'clar_'
'cladir'
'circum'
'cir'
'cine'
'cic'
'cia_'
'chip_'
'chin'
'chet'
'che_'
'cetă'
'ceru'
'certi'
'cerinţe'
'cerebral'
'cercetar'
'celulele_'
'celule_'
'celo'
'cazurilor_'
'cazului_'
'cazinouri_'
'caz'
'cav'
'cauciuc_'
'cato'
'cascad'
'caracteristică_'
'caracteristicile_'
'caracter_'
'capitalul'
'capete_'
'cantitat'
'camion'
'calitatea_'
'calificare_'
'calcule'
'calculato'
'calatorie'
'calator'
'cadr'
'cablu_'
'băr'
'by_'
'bus'
'burghez'
'bura'
'bucă'
'bucura'
'buch'
'bucatarie_'
'bucat'
'bs'
'brie'
'br'
'book'
'bonusu'
'bonus_'
'blo'
'ble_'
'biologi'
'bin'
'bilită'
'bilita'
'bilete_'
'bes'
'beneficii'
'bec'
'baterie'
'bater'
'barca_'
'ball_'
'ație_'
'aș_'
'aș'
'aştepta'
'aşte'
'ay_'
'aveau_'
'avand_'
'autoritat'
'autor_'
'autobuz'
'aul'
'audit'
'aturi'
'atului_'
'atra'
'atorul_'
'atoare_'
'atmosfer'
'atins_'
'atinge_'
'ateri'
'atent_'
'asum'
'astro'
'asociați'
'asigurarea_'
'asad'
'aruncat_'
'artist_'
'ariei_'
'aren'
'arderea_'
'arate_'
'aram'
'apăs'
'apropiat'
'apreciat'
'apo'
'aplicarea_'
'apei_'
'ape_'
'apară_'
'apart'
'aparatu'
'anţ'
'anual'
'anormal'
'ano_'
'anima'
'ande'
'analiz'
'anal'
'ament_'
'amenin'
'alţi_'
'aluminiu_'
'altceva_'
'aloca'
'aliza'
'alegerilor_'
'aleg'
'alea'
'ale'
'albastru_'
'ajusta'
'ail'
'agricultur'
'agit'
'ager'
'afiș'
'afirma'
'afili'
'afa'
'aeroport_'
'aero'
'ae'
'adverse_'
'adult'
'adul'
'aducă_'
'aduce'
'adres'
'adopta'
'admin'
'adev'
'acți'
'acţiunil'
'acţiune_'
'activităţile_'
'activităţii_'
'activitatil'
'activitati_'
'activel'
'actiuni'
'acordate_'
'achiziționa'
'acești'
'aceştia_'
'accesa'
'absorb'
'abordare_'
'abdom'
'Zil'
'Zi'
'You'
'York_'
'XI'
'Wing_'
'William'
'Web_'
'Wal'
'Vân'
'Vizualizați_'
'Vis'
'Vega'
'Valo'
'VE'
'Utilizarea_'
'Us'
'Unit'
'UR'
'UL_'
'Târ'
'Twi'
'Turn'
'Tro'
'Tour'
'Tocmai_'
'Tis'
'Tiner'
'Tatălui_'
'TV'
'TA_'
'Sunteţi_'
'Sun'
'Suc'
'Strategie_'
'Statistic'
'Stardoll_'
'St'
'Skype_'
'Situat'
'Sistem'
'Simp'
'Servic'
'Salon'
'Sal'
'SM'
'SA_'
'Reţ'
'Rez'
'Revolu'
'Restaurant'
'Reprezenta'
'Rem'
'Regiun'
'Ran'
'RS'
'Puzzle_'
'Profi'
'Produc'
'Principalele_'
'Principal'
'Princip'
'Prima'
'Prezentare_'
'Ph'
'Pes'
'Pat'
'Parlament'
'Pai'
'PHP_'
'PC_'
'Ora_'
'Olimpi'
'Ofici'
'Obiect'
'Oameni'
'Oa'
'OR'
'Noiembrie_'
'Național'
'Naţi'
'NI'
'NATO_'
'Mü'
'Mâ'
'Moto'
'Mihai'
'Michaelerplatz_'
'Mes'
'Men'
'Mc'
'Master_'
'Mam'
'Lă'
'Lumin'
'Lumi'
'Luc'
'Log'
'Lit'
'List'
'Lind'
'Lacul_'
'Lab'
'LO'
'Judec'
'Jucători'
'Jam'
'Iz'
'Israelul_'
'Ios'
'Inv'
'Intern'
'Insul'
'Institutului_'
'Ing'
'Indi'
'Ind'
'Ince'
'Ieremia_'
'Iacov_'
'III_'
'Hou'
'Herrengasse_'
'HP_'
'HD_'
'HD'
'Gre'
'Graben_'
'Ges'
'Georg'
'General_'
'Gale'
'GE'
'Fun'
'Folosi'
'Finan'
'Fiind'
'Fii'
'Festivalul_'
'Federaţi'
'Federa'
'Faraon_'
'Facult'
'Exe'
'Ex'
'Evi'
'Evenimente'
'Euro_'
'Eti'
'Est_'
'Es'
'Ene'
'Elect'
'Egipt'
'Ea_'
'ER_'
'EA'
'Duhul_'
'Dou'
'Die'
'Dezvoltare_'
'Desig'
'Dep'
'DS'
'Cumpăr'
'Cristos_'
'Crea'
'Converter_'
'Consult'
'Conduc'
'Conce'
'Comunica'
'Compl'
'Compani'
'Compa'
'Coma'
'Codul'
'Cla'
'Christ'
'Cercet'
'Centru_'
'Centre_'
'Centr'
'Caz'
'Catedrala_'
'Card'
'Canada_'
'Camp'
'Camere'
'CU'
'CR'
'CK_'
'CI'
'CH'
'CEC'
'Burg'
'Bur'
'Bulgar'
'Bug'
'Brun'
'Brea'
'Braşov'
'Biserici'
'Biroul'
'Bir'
'Bile'
'Benefici'
'Bea'
'Bauernmarkt_'
'Bas'
'Baia'
'Bab'
'BO'
'Autorit'
'Aust'
'Atr'
'Asta_'
'Asp'
'Asia_'
'Arm'
'Arch'
'Ani'
'Allah_'
'Aleger'
'Alege'
'Air'
'Adăuga'
'Ade'
'Acas'
'Abs'
'Abo'
'AP'
'@_'
'> _'
': “_'
'72'
'700_'
'650_'
'64'
'59_'
'50'
'48'
'400'
'34_'
'250_'
'22'
'197'
'192'
'120'
'... _'
'.. '
'.)_'
'-'
', .'
'!!'
' € '
' …_'
' ” _'
' ?'
' = _'
'”)'
'“, _'
'—'
'–_'
'țând'
'țui'
'țională_'
'țional_'
'țină'
'ține_'
'țial_'
'țea'
'șul_'
'ștr'
'știri_'
'științific'
'șterea_'
'șoara_'
'șir'
'șiere'
'școl'
'șc'
'șase_'
'ș'
'Șc'
'ţări_'
'ţăr'
'ţuri'
'ţiunea_'
'ţiona'
'ţinut_'
'ţinut'
'ţes'
'ţare'
'şur'
'şul_'
'şil'
'şef'
'şcoală_'
'şat'
'şas'
'ățile_'
'ăț'
'ătate'
'ăta'
'ără'
'ărul_'
'ărit_'
'ărat_'
'ănă'
'ălalt_'
'þu'
'þion'
'ó'
'îţi_'
'înțeleagă_'
'înș'
'înţelege'
'înţe'
'înă_'
'învăța'
'întări'
'întâlnire'
'întruc'
'întreprinderi'
'întregii_'
'întrebări_'
'întoar'
'întinde_'
'întin'
'înregistrare_'
'înfiinţarea_'
'înfi'
'îndoială_'
'îndoi'
'îndemânare_'
'încăl'
'încuraja'
'închiriere_'
'încheia'
'încercare'
'încearc'
'îna'
'împărtăș'
'împlinit'
'împie'
'îi'
'ãrile_'
'ãm'
'ârti'
'ânz'
'ânge'
'âm'
'âi'
'ße_'
'Ónc'
'Ómpăratul_'
'Ómp'
'Întreb'
'Înd'
'» _'
'zui'
'zonele_'
'zone'
'zn'
'ziun'
'zier'
'zici'
'zeul'
'zest'
'zen'
'zec'
'zdui'
'zan'
'zahar'
'zac'
'ys'
'ylo'
'xt'
'xin'
'wor'
'wo'
'wel'
'weekend_'
'wan_'
'wa_'
'văr'
'vî'
'vânzare_'
'vântului_'
'vântu'
'vreun_'
'vrei_'
'vrednic'
'vorbeşte_'
'vor'
'voluntari'
'volumul'
'voie'
'voce'
'voca'
'voa'
'vni'
'vizite'
'vizitatori'
'vizita_'
'vizionar'
'vizion'
'visu'
'virus'
'vinuri_'
'vino'
'viitoare_'
'vid'
'victori'
'victim'
'verificat'
'verba'
'ventilat'
'venituri_'
'venir'
'vedet'
'vedem_'
'vede_'
'veche_'
'variază_'
'valorii_'
'uți'
'uşu'
'ux_'
'utiliză'
'utilat'
'usur'
'urn'
'următorul'
'următoarea_'
'unz'
'unuia_'
'unu_'
'untdelemn_'
'universal'
'unită'
'unilor_'
'uner'
'und_'
'unat'
'umpă'
'umplu'
'ument'
'umană_'
'um'
'ulu'
'ultimele_'
'ultim'
'ulterioar'
'uită_'
'uitat'
'uire'
'uinţ'
'uimito'
'ucenici'
'tări_'
'târ'
'turnee_'
'turb'
'tune'
'tub_'
'tto_'
'tte'
'ts'
'truc'
'trimise'
'trico'
'tric'
'trezi'
'trecere'
'tratate'
'tranzacţi'
'transparent'
'transferul_'
'transfer'
'tran'
'tral'
'trafic'
'tq'
'totu'
'toti_'
'totala_'
'toril'
'tom_'
'tiţi'
'tiu'
'titul'
'tis_'
'tina'
'tile'
'tiga'
'tific'
'tica'
'textu'
'textil'
'terminat'
'termin'
'termic'
'terenuri'
'terea_'
'terapie_'
'tendin'
'ten_'
'tem_'
'televizo'
'telefonul_'
'tehnică_'
'teaz'
'td'
'taxi'
'tarii_'
'tari'
'tanic'
'tam'
'talu'
'taie'
'tac'
'taber'
'sănătoas'
'sănătate_'
'săn'
'săge'
'sângel'
'sÄ_'
'sy_'
'sut'
'susțin'
'susţine'
'sursă_'
'surse'
'sursa_'
'sura'
'suprem'
'supravieţui'
'suprav'
'supr'
'suplimente'
'supliment'
'superior'
'sunet_'
'sului_'
'sugerează_'
'succesul_'
'succes'
'subst'
'stătea'
'studiul_'
'stu'
'stru_'
'strategii'
'strategie_'
'strat_'
'stom'
'stim'
'stil'
'steroizi_'
'stem_'
'standardel'
'stan_'
'stabilite_'
'stabilirea_'
'stabile'
'ssi'
'spunând_'
'spuns'
'spunea'
'spuma'
'sporturi_'
'spontan'
'spiritual_'
'spectacol'
'specială_'
'specialisti'
'spaţiu_'
'spaniol'
'sosir'
'sosi'
'soluții'
'soluţii'
'solul_'
'solicitat_'
'solicitat'
'solicitar'
'sol_'
'soi'
'sofer_'
'socio'
'soci'
'snu'
'sma'
'slăbi'
'slab_'
'situati'
'sistemele_'
'simți'
'sime'
'simbolurile_'
'sia_'
'sfârşitul_'
'sfârş'
'sezon_'
'sex'
'sete_'
'setat'
'sesiz'
'sent'
'semnificative_'
'semnificativ'
'seminţi'
'seminar'
'selecti'
'segment'
'sediul_'
'secţiun'
'securitatea_'
'secunda'
'sectorul'
'secto'
'secole_'
'seamă_'
'scăderea_'
'scurtă_'
'scula'
'scoate'
'sclav'
'schimbările_'
'sch'
'scenă_'
'scaun'
'scal'
'scade_'
'satel'
'sarcina_'
'sai_'
'sabi'
'rţi'
'răspândi'
'răspunde'
'răsc'
'răcire'
'rînd'
'run'
'rugam_'
'rud'
'rsit'
'rotund'
'ron_'
'români'
'romana_'
'roid'
'robot'
'robi'
'rna'
'rn_'
'rla'
'riti'
'riscul_'
'rio'
'rini'
'rieri_'
'ridicate_'
'ricul'
'rhi'
'rgasse_'
'rețin'
'reţi'
'rezisten'
'rezervări'
'rezervate_'
'rezerva_'
'revolu'
'revizui'
'reviste'
'reve'
'retele'
'resurselor_'
'resu'
'restaurant'
'responsabilitat'
'respira'
'respin'
'respective_'
'reprezentanţi'
'reprezenta'
'repeta'
'renumi'
'renu'
'remarcabil'
'religioase_'
'releva'
'relați'
'relax'
'relativ_'
'regulil'
'regle'
'regionale_'
'refuz'
'ree'
'recur'
'recuperar'
'recr'
'recomandat_'
'recom'
'reclam'
'recicla'
'realizeaz'
'realitate_'
'rcu'
'rce_'
'rată_'
'rase'
'rapoartel'
'ramu'
'ramas'
'rama'
'rafin'
'rada'
'racă_'
'rabil_'
'qigong_'
'pătr'
'păstra_'
'păstra'
'părăs'
'păcatel'
'păcat_'
'pute'
'puse_'
'purtat'
'puril'
'punem_'
'pulveriza'
'pui_'
'publicului_'
'publicita'
'publicat'
'ptă_'
'ptu'
'pt'
'psiholog'
'psihi'
'ps_'
'provocar'
'provoac'
'proto'
'proteje'
'proteja_'
'protecție_'
'protecţie'
'protect'
'prote'
'propu'
'proprietate_'
'proprietat'
'promovarea_'
'promovare_'
'proiectul_'
'proiecta'
'proiect'
'progresi'
'programului_'
'programelor_'
'program'
'profitu'
'profile'
'profil'
'profesioni'
'prof'
'producție'
'producţie_'
'producţi'
'procesa'
'prives'
'prins'
'prinde'
'primă'
'pricina_'
'preț'
'preţuril'
'preşedintele_'
'prezenţa_'
'prezentul'
'prevă'
'prevenirea_'
'preveni_'
'preveni'
'prevederil'
'preve'
'prestat'
'presta'
'presa_'
'preoţii_'
'preoţ'
'preocup'
'premier'
'preju'
'pregătit'
'precizie_'
'prea'
'praf_'
'poţi_'
'poziție_'
'poziţi'
'potential'
'poten'
'postat'
'posesi'
'porunc'
'portu'
'popoare'
'ponder'
'politicii_'
'politici_'
'politica_'
'pofte'
'poet'
'pod'
'plom'
'plimbare_'
'plia'
'plata_'
'plasarea_'
'planului_'
'planul_'
'plantelor_'
'planta_'
'planificare'
'plajă_'
'plaja_'
'placă_'
'placut'
'piscină_'
'pis'
'pii'
'piete'
'pierdut'
'picior'
'pica'
'piața_'
'piaţă_'
'peşte'
'petrec'
'pes_'
'personalului_'
'personaliza'
'personalitate'
'persoane'
'perso'
'permi'
'permanenta_'
'perioadel'
'pericol'
'peric'
'performan'
'pereche'
'pere_'
'pele'
'peisaj_'
'pedia'
'paş'
'pate'
'pastile_'
'pas_'
'pas'
'participarea_'
'parter'
'parc_'
'parametri'
'pant'
'oș'
'oţ'
'oş'
'ovi'
'over_'
'ouri'
'ortul_'
'orn'
'ormat'
'origine'
'orig'
'orie'
'oricare_'
'organizatii_'
'organelor_'
'orga'
'orel'
'oraº'
'orarea_'
'orar'
'optimă_'
'oprir'
'opre'
'opr'
'opere'
'operat'
'ons_'
'onic'
'oni_'
'onarea_'
'omot'
'ometr'
'omen'
'oli_'
'oki'
'ogr'
'ogen'
'oducere'
'ochiu'
'obținut_'
'obținut'
'obti'
'observat'
'observ'
'obişnui'
'obiectul_'
'obiectivele_'
'obiective_'
'oasel'
'oane'
'oal'
'nţ'
'năs'
'numără'
'nume'
'ntur'
'ntu'
'ntei_'
'ntare'
'ntal'
'nst'
'nr'
'noştri_'
'nop'
'nom'
'nod'
'nob'
'noastr'
'niu'
'nită'
'nist'
'ning_'
'nie_'
'ngton_'
'nge'
'neurologice_'
'neuitat_'
'nesc'
'neprihănire'
'neprih'
'neo'
'nelegiui'
'necu'
'neca'
'neasc'
'ndon'
'nchi'
'nch'
'nce'
'nb'
'naţiuni'
'navigare_'
'naturală_'
'nationale_'
'nate_'
'nament'
'mărime'
'mării_'
'mărfuri'
'măn'
'mântu'
'mâne'
'mândr'
'mâncare_'
'mânca_'
'muzeu'
'musc'
'munţi'
'municipiului_'
'muncitori'
'munc'
'mulţumesc_'
'mului_'
'multa_'
'moştenire_'
'moşteni'
'motor_'
'mort'
'moro'
'monitorizat'
'monitorizar'
'mond'
'monar'
'moldovene'
'moduri'
'modificarea_'
'moderniza'
'modalitat'
'moartea_'
'moar'
'mo_'
'mme'
'mișcări'
'mișcare'
'mişca'
'mix'
'misiuni'
'miro'
'mire'
'minunilor_'
'minibar_'
'minerale_'
'minc'
'mina'
'min_'
'mijlo'
'mici'
'mica_'
'metri'
'metr'
'metodel'
'metode_'
'metalic'
'metal'
'metabolism'
'metabolic_'
'met'
'menţionat_'
'menţion'
'menţine'
'mentul_'
'ments_'
'mental_'
'menta'
'memorie_'
'mem'
'melodii'
'mei'
'medit'
'med'
'mbla'
'mașini_'
'maxima_'
'matur'
'materialului_'
'materialele_'
'mate'
'mase'
'masculi'
'mark'
'marit'
'marc'
'manu'
'manifesta'
'mandat'
'mae'
'mach'
'lăud'
'lăs'
'lzire'
'luând_'
'lunga'
'lumin'
'lud'
'lucrăto'
'lucrări_'
'lucit'
'lu_'
'ltă_'
'ltu'
'ltate_'
'lop'
'logo'
'logie'
'locați'
'lnes'
'livrare_'
'livra'
'litate'
'listă_'
'lir'
'lip'
'lingv'
'lingur'
'ling_'
'limitele_'
'limbă_'
'licenţ'
'libertatea_'
'libert'
'lian'
'leziun'
'lett'
'lement'
'legământ'
'legile_'
'legatur'
'lav'
'laud'
'lată_'
'lati'
'larg'
'lansarea_'
'lami'
'laborator_'
'ku'
'ko_'
'knt'
'kmp'
'kl'
'jă'
'justifica'
'jurisdicţi'
'juridice_'
'jumatate'
'jum'
'judet'
'judecă'
'ji_'
'jen'
'jat'
'iț'
'iţ'
'iş'
'izări'
'izolat'
'ivă_'
'iva'
'iunil'
'ității_'
'ități'
'itudine_'
'italian'
'istori'
'istica'
'iso'
'ism'
'ioane'
'investiţi'
'investitor'
'investiti'
'invatam'
'intră'
'introducer'
'introduce'
'introdu'
'intreprin'
'intim'
'interne'
'internaţi'
'interesel'
'interesat'
'interactiv'
'intențion'
'intenţi'
'intampl'
'inta_'
'instituţii'
'instituţi'
'instituti'
'instalatii'
'inspirat'
'inspira'
'insi'
'insec'
'inregistrat'
'inregistrare'
'inr'
'injecta'
'inițiativ'
'inimi'
'inic'
'ingredient'
'informație_'
'informaţi'
'inform'
'influenţ'
'infl'
'inferio'
'infecții_'
'infecti'
'infa'
'inf'
'industrial'
'industr'
'indivizi'
'indicat'
'indeplinesti_'
'incredibil'
'increder'
'incluz'
'inchirier'
'inalt'
'impresionant'
'imposibil_'
'implicat'
'impactul_'
'imoni'
'imobiliar'
'imente'
'imen'
'ime_'
'imbrac'
'imagina'
'ieşire'
'iet'
'iert'
'ierea_'
'ief'
'idei_'
'iarăş'
'iarn'
'iaht'
'hra'
'hotelu'
'hiz'
'hir'
'hide'
'hes'
'hen'
'hem'
'haru'
'ham_'
'gău'
'găsi'
'gări'
'gî'
'gât'
'gânduri_'
'gândire_'
'guvernul'
'guverna'
'guvern_'
'guri_'
'grupu'
'grin'
'griji_'
'greută'
'grave'
'grat'
'grasim'
'grafică_'
'gradul_'
'gospod'
'goa'
'gno'
'global'
'gland'
'gh_'
'general'
'gene'
'gazon'
'gau'
'gate_'
'gast'
'gase'
'game_'
'făcuse'
'furnize'
'funcţionare_'
'funcţii_'
'funcţia_'
'funcþi'
'functie_'
'frumoas'
'fre'
'fraţii_'
'fraud'
'fratel'
'foto_'
'fost'
'forte'
'forta'
'formarea_'
'form'
'ford_'
'fondu'
'folosită_'
'fold'
'foca'
'fluxul_'
'flux_'
'fişier'
'fizică_'
'fizi'
'fini'
'filmul_'
'fili'
'file_'
'fiindcă_'
'fiice'
'fii'
'fier_'
'fiecarei_'
'fiec'
'fică'
'ficia'
'fica'
'fibr'
'fiar'
'feric'
'fereastra_'
'fer_'
'femeia_'
'feed'
'fată_'
'fat'
'fapt'
'familiile_'
'familiei_'
'faimoase_'
'facilita'
'extraordinar_'
'extraordinar'
'extinde_'
'extin'
'expune'
'expoziti'
'explora'
'expir'
'expertiz'
'experimentat_'
'experienţ'
'excesiv'
'exces'
'excepția_'
'excelente_'
'examen_'
'evenimentului_'
'evenimentul_'
'even'
'eut'
'european_'
'etului_'
'eticheta'
'eth'
'etern'
'eten'
'etel'
'etati'
'etat'
'etan'
'estr'
'estima'
'eso'
'esenț'
'esen'
'ese'
'ery'
'erit'
'erior_'
'eril'
'episcop'
'epis'
'enz'
'enum'
'entă'
'entuzia'
'ente'
'enta_'
'ensi'
'eniil'
'enii_'
'emis'
'email_'
'els'
'eliminat'
'eligibil'
'eliberare'
'elementel'
'elegant'
'electroc'
'eld'
'efor'
'efectul_'
'eet_'
'een'
'ediţi'
'editare'
'edint'
'ecranul_'
'ecologic'
'ecier'
'echilibra'
'eca'
'eaz'
'eas'
'duri'
'durea'
'duminic'
'dum'
'drum'
'droguri_'
'driver'
'dram'
'dotat'
'dosar'
'dormito'
'doriti_'
'dorinț'
'dora_'
'domnul_'
'domnie_'
'documentele_'
'document'
'diviz'
'diu'
'ditat'
'distractive_'
'distracti'
'distrac'
'distanț'
'distanţă_'
'discre'
'disciplina'
'directorul_'
'director_'
'dine'
'dinaintea_'
'dimineaţa_'
'dif'
'die_'
'didactic'
'dict'
'diagno'
'diac'
'dia_'
'deși_'
'dezvoltat'
'deven'
'determin'
'detecta'
'detaliat'
'destinate_'
'desfăşurat'
'desfăşur'
'descr'
'desco'
'deschisă_'
'deschi'
'derma'
'depăș'
'depuse'
'depun'
'depozite'
'depozita'
'deosebire_'
'dent_'
'dent'
'delo'
'dele_'
'dele'
'dela_'
'del'
'defini'
'deficien'
'decorar'
'decis_'
'deasupra_'
'datorat'
'daj'
'căutar'
'căsători'
'călătorie_'
'călă'
'căldură_'
'călc'
'căde'
'cãt'
'câștiga'
'câmpu'
'curăț'
'curând_'
'cursă_'
'cursul_'
'cursu'
'curio'
'cure'
'cuptor_'
'cupru'
'cumpăra_'
'cumpara_'
'cultivare_'
'culoar'
'culo'
'ctul_'
'ction'
'ctic_'
'cter'
'cte'
'croni'
'criterii'
'criminal'
'crezi_'
'cresterea_'
'crede'
'creatur'
'creat'
'cota'
'costuril'
'cosmos'
'cosmic'
'cort'
'corn'
'corespunzătoare_'
'corespun'
'coresponden'
'corecta'
'copilul_'
'copie_'
'coordonator'
'cooperare'
'coopera'
'converti_'
'controle'
'contractulu'
'continu'
'contextul'
'context'
'contemporan'
'contacta'
'consumatorilor_'
'consuma'
'consultanta_'
'construit_'
'construir'
'constructor'
'constituţional'
'constituit'
'consolida'
'consiliu'
'consideră_'
'considerabil'
'conservat'
'consecutive_'
'cong'
'confortul'
'confort_'
'confiden'
'conferinţe_'
'conferinţ'
'conex'
'conduct'
'condiționat_'
'conditii'
'concurent'
'concur'
'concluzi'
'conceput_'
'comună_'
'comunit'
'comunis'
'computer_'
'computer'
'compozi'
'complexe_'
'complete_'
'compl'
'comerciant'
'comercializa'
'comercial_'
'comentari'
'combustibil'
'combinație_'
'combina'
'comanda'
'colora'
'colecte'
'colectat'
'colec'
'colaborare_'
'coduri_'
'codul'
'clădiri_'
'clădire'
'cluburi_'
'club_'
'clienților_'
'clienţii_'
'clientului_'
'clientii_'
'client_'
'clien'
'clari'
'cknd_'
'civile_'
'ciune'
'ciudat'
'circu'
'cif'
'ciar'
'cial_'
'chmark'
'chl'
'chemare'
'chema'
'charter'
'cereri_'
'cerere_'
'centr'
'ceni'
'ceilal'
'ceasu'
'cazurile_'
'cazinou_'
'catorul'
'cati'
'cata'
'castr'
'carto'
'carne'
'cardio'
'caracterizat'
'capital_'
'capacită'
'capabil'
'candidatu'
'cancerul'
'canalului_'
'canale_'
'campi'
'camioane'
'cald_'
'calcul_'
'calci'
'cal_'
'cainele_'
'cadru_'
'cado'
'băuturi'
'bătrân'
'bărbați'
'bărbat_'
'băncii_'
'buze'
'buton'
'burs'
'bul_'
'brățară_'
'bru'
'brevet'
'brand_'
'bolii_'
'blocare'
'bling_'
'binecuvânta'
'bilet'
'bila'
'bii'
'bie'
'biciclete_'
'bic'
'beton_'
'bere'
'beneficiari'
'bazează_'
'bazate_'
'bate'
'barier'
'barba'
'bara'
'banii_'
'balcon_'
'bacteri'
'back'
'bab'
'aţii'
'aşi_'
'aşezat_'
'ay'
'axi'
'aventur'
'avantaje_'
'autorizat'
'autentic'
'aur'
'atît_'
'atmosfera_'
'ativ'
'atitudine'
'atie'
'atenţie'
'atenti'
'atate_'
'atacul'
'astepta'
'asteapt'
'asta'
'aspira'
'aspectele_'
'asociere'
'asociat'
'asistenţ'
'ascunde'
'ascultă'
'arului_'
'articolul_'
'arter'
'arte_'
'aro'
'arhi'
'ardi'
'ardere_'
'arde'
'apărea_'
'apostol'
'aplicaţi'
'aplic'
'aper'
'apel_'
'apartamentul'
'apari'
'apara'
'apa'
'anve'
'anuale_'
'anual_'
'antreprenori'
'antrena'
'antiv'
'anticip'
'ansamblul'
'ansamblu_'
'anic'
'analiză'
'amn'
'amente'
'ament'
'amenaja'
'alţii_'
'alului_'
'alternative'
'alterna'
'altarul'
'alese_'
'aleger'
'alaturi_'
'ak'
'ajute_'
'aje_'
'aje'
'aie'
'agricole_'
'agric'
'agres'
'agenţi'
'age_'
'aga'
'afişa'
'afectat'
'adă'
'adus'
'adunat_'
'adopt'
'administratorul_'
'administrarea_'
'adic'
'adevărul'
'adapt'
'acțiune'
'acuza'
'activi'
'activeaz'
'activa'
'activ'
'action'
'actel'
'acte'
'acordat_'
'acoperire'
'achi'
'acelasi_'
'aceast'
'accesibile_'
'accesați_'
'acceptat_'
'acceptat'
'accept'
'accent'
'accelera'
'absolv'
'abordarea_'
'abilităţi'
'abilitat'
'abili'
'abil'
'abe'
'Zah'
'Yacht'
'Word'
'Wollzeile_'
'WSOP_'
'Vre'
'Vit'
'Vien'
'Ven'
'Vei'
'Vari'
'VO'
'VII'
'VB'
'Utiliza'
'Unitatea_'
'Une'
'Ul'
'UV'
'US_'
'ULUI_'
'UC'
'Trim'
'Trei'
'Transport'
'Transf'
'Tran'
'Trai'
'Traducere'
'Totuşi_'
'Tor'
'Top_'
'Ton'
'Tit'
'Tip'
'Time'
'Test'
'Ten'
'Templ'
'Teh'
'Teatrul'
'Tara'
'Tar'
'Tal'
'TO'
'TIC'
'TB'
'Sănăt'
'Sus_'
'Sur'
'Suprem'
'Steph'
'Stan'
'Sport_'
'Spiritul_'
'Spir'
'Spiegelgasse_'
'Sper'
'Soft'
'Sm'
'Slov'
'Singura_'
'Simpl'
'Simon'
'Sib'
'Sex_'
'Serviciul'
'Sep'
'Semn'
'Select'
'Securi'
'Sect'
'Scriptur'
'Schi'
'Salv'
'Sale'
'Sala'
'SO'
'SMS_'
'SIM'
'SE'
'SC_'
'Roch'
'Rid'
'Rezu'
'Revi'
'Resp'
'Regional'
'Reducer'
'Recomand'
'Reali'
'Real'
'Ras'
'Radi'
'Rac'
'Pământul'
'Putere'
'Proprieta'
'Program'
'Profet'
'Profesionale_'
'Prof'
'Produsele_'
'Produse_'
'Problem'
'Pro_'
'Prez'
'Premiul_'
'Predeal_'
'Posi'
'Portu'
'Pomp'
'Polon'
'Poi'
'Planu'
'Pin'
'Piatra_'
'Phen'
'Perioada_'
'Patr'
'Particip'
'Parte'
'Part'
'Paro'
'Parlament_'
'Paradis'
'Pala'
'Pal'
'Pagin'
'PT'
'Oto'
'Ord'
'Oper'
'One_'
'Ola'
'OC'
'Numai_'
'Nu'
'Nou_'
'Notă_'
'Nicola'
'Nic'
'Neu'
'Net'
'Nav'
'NA'
'Multi'
'Mot'
'Mos'
'Monta'
'Moni'
'Mol'
'Mobil'
'Mis'
'Mesa'
'Mem'
'Mediu'
'Mecani'
'Matr'
'Mat'
'Mas'
'Marke'
'Mark'
'Manager_'
'Mal'
'Majoritatea_'
'Maestrul'
'ME'
'MB'
'Lung'
'Lum'
'Locul_'
'Liberal_'
'Lib'
'Leon'
'Legii_'
'LU'
'LE_'
'LE'
'Kong'
'Kit'
'Jude'
'Jocul'
'Japon'
'Jak'
'Jac'
'Iosif_'
'Ioab_'
'Invest'
'Internaţional'
'Int'
'Inst'
'Ini'
'Informaţi'
'Industrie_'
'Industr'
'India'
'Imagine'
'Imagin'
'Ianuarie_'
'Ia_'
'IT'
'ISO_'
'IMM'
'Hong_'
'Hof'
'Hack'
'HE'
'Grupul'
'Gru'
'Gro'
'Grec'
'Grand'
'Gor'
'Giu'
'Gheorgh'
'Ghe'
'General'
'Gas'
'Games'
'Fără_'
'Fă'
'Fru'
'Franz'
'Fotografia_'
'Forma'
'Fore'
'Fondu'
'Flo'
'Fleis'
'Fiu'
'Financ'
'Festiv'
'Feli'
'Februarie_'
'Famili'
'Fab'
'FM'
'FI'
'FA'
'Exist'
'Executiv'
'Evalua'
'European'
'Eu'
'Etap'
'Ent'
'Eng'
'Efe'
'Economie'
'Economi'
'Echipament'
'ER'
'EG'
'EC'
'Dub'
'Driver'
'Dream'
'Domeniu'
'Divi'
'Dis'
'Dir'
'Deşi_'
'Dev'
'Desp'
'Design_'
'Departamentul_'
'Declara'
'Deb'
'Data_'
'Dat'
'DM_'
'Cî'
'Câmp'
'Cuvântul_'
'Cuvinte_'
'Curier_'
'Culo'
'Cova'
'Cop'
'Conv'
'Continu'
'Consu'
'Constru'
'Constan'
'Conform_'
'Conferinț'
'Conferinţ'
'Comuni'
'Comitetul'
'Comisiei_'
'Comisi'
'Colec'
'Clu'
'Clien'
'Chun_'
'Chat'
'Cere'
'Cel'
'Cartea_'
'Campion'
'Cam'
'CD_'
'CAT'
'Băl'
'Bus'
'Bul'
'Bud'
'Bruxelles_'
'Bos'
'Bon'
'Bog'
'Blue'
'Black'
'Bio'
'Bie'
'Biblie_'
'Barb'
'Avem_'
'August'
'Ast'
'Asociați'
'Asocia'
'Asa'
'Articol'
'Arta_'
'Art_'
'Are'
'Arcade_'
'Anul'
'Ante'
'Ant'
'Angaj'
'Anal'
'Ami'
'Amaz'
'Alg'
'Alf'
'Ajuta'
'Ajust'
'Aju'
'Ahab_'
'Afaceri'
'Ae'
'Administra'
'Adevăr'
'Academi'
'Ab'
'>_'
':'
'95'
'93'
'91'
'86'
'81'
'800'
'75_'
'75'
'74_'
'68_'
'56'
'54'
'53'
'44_'
'43_'
'37'
'36'
'31'
'300'
'202'
'1999_'
'196'
'186'
'130_'
'110_'
'0x'
'.” _'
'.``'
'.)._'
'."_'
'."'
'--'
',, _'
'+ _'
'):'
'$'
'!”_'
'!"'
' … '
' „'
' ”'
' “”_'
' –'
' «'
' `_'
' […]_'
' [...]'
' ; _'
' ..'
' !_'
'í'
'Ó'
'·'
'<'
','
'('
'#'
'†'
'‘'
'и'
'Œ'
'®'
'`'
';'
'''
'─'
'→'
'™'
'Š'
'Ø'
'Â'
'²'
'«'
'['
'='
'„'
'θ'
'ȋ'
'š'
'ő'
'ć'
'ë'
'°'
'~'
'@'
'+'
'●'
'►'
'ю'
'л'
'д'
'б'
'λ'
'Ț'
'İ'
'č'
'Ă'
'è'
'ç'
'æ'
'å'
'à'
'£'
'¢'
'|'
'春'
'咏'
'≥'
'≈'
'−'
'↑'
'⁰'
'›'
'ы'
'ш'
'Л'
'ˮ'
'˚'
'Ȋ'
'ǎ'
'ž'
'Ř'
'ğ'
'ý'
'õ'
'ô'
'ñ'
'ï'
'Þ'
'Ö'
'Õ'
'Ò'
'Ð'
'Ç'
'Á'
'¼'
'¹'
'´'
'³'
'ª'
'©'
'§'
'}'
'{'
'>'
'&'
'•'
'‚'
'–'
'‑'
'ß'
'È'
'Å'
'Ä'
'Ã'
